#version: 0.2 - Trained by `huggingface/tokenizers`
Ġ Ġ
ĠĠ ĠĠ
r e
i n
ĠĠĠĠ ĠĠĠĠ
s t
ĠĠ Ġ
e r
) ;
- >
Ġ =
e n
a t
Ġ (
o n
ĉ ĉ
s e
i f
Ġ *
o r
d e
l e
c t
a l
Ġ c
a r
u r
Ġ {
a g
i t
e t
Ġ t
s i
a n
re t
i d
m e
ĠĠĠĠ ĠĠĠ
r o
en t
in t
Ġ p
c k
l o
a d
c e
u n
ĠĠĠĠĠĠĠĠ ĠĠĠĠĠĠĠĠ
ur n
Ġ 0
h e
ret urn
Ġ if
: :
st r
Ġ s
u t
Ġ f
e d
e x
Ġ b
in g
Ġ &
ag e
p t
i on
e l
u e
ĠĠĠĠ Ġ
( )
c o
z e
Ġ }
m p
i s
at e
Ġ n
a s
f f
a me
c h
si ze
f o
t r
l en
o t
p e
Ġ m
Ġ= =
i c
Ġ "
u ct
/ *
a se
) )
ex t
str uct
c on
se t
i m
E R
Ġ o
at a
Ġ* /
Ġ return
Ġ N
L L
u m
er r
I N
u s
a p
en d
ĠĠĠĠĠĠĠĠ ĠĠĠ
i le
Ġ d
re s
o l
Ġ w
ĉĉ ĉ
I n
o de
l i
u l
U LL
e s
Ġ !
v al
a b
b u
in fo
re a
i l
Ġ -
" ,
an d
Ġ 1
y pe
i g
Ġ S
o id
t h
Ġ +
e w
Ġc on
st at
ĠN ULL
v oid
Ġ <
Ġt he
Ġ int
R E
g et
v e
Ġ i
Ġ re
v i
a ck
im age
R e
Ġ a
Ġ! =
G et
( );
o p
d r
Ġ( !
u p
Ġ in
O N
v er
( &
el se
Ġ |
S T
lo ck
d ata
a y
E N
m s
s er
Ġ g
Ġ& &
) );
s s
k e
ct x
O R
ĉĉ ĉĉ
rea k
Ġc h
ab le
r y
A T
A L
Ġ h
Ġ C
at ion
t o
g n
s k
Ġ /*
d o
Ġ T
ff er
e ct
r ame
3 2
si on
re e
de v
c p
re n
or t
Ġt o
Ġ l
r i
- -
ul t
q ue
t ext
l ag
un t
Ġ st
si gn
Ġ size
n ame
a c
o f
Ġ r
ĠĠĠĠĠĠĠĠ ĠĠĠĠĠĠĠ
Ġ >
Ġ else
Ġ de
Ġ P
i x
Ġcon st
C on
* *
err or
Ġ F
t ype
i r
D E
( "
pt ion
it e
h o
ĠĠĠĠĠĠĠĠ Ġ
Ġ M
s c
stat ic
ar a
i p
v ent
+ +
m a
S E
b j
) ,
re ad
S t
p ro
Ġ A
Ġf or
f ile
al l
L E
o ut
f a
t e
" );
f or
Ġ %
ff set
p ut
ke y
o c
o m
s p
ar t
lo c
S S
bu f
pt r
i me
ar g
Ġ| |
lag s
sign ed
A R
m ent
Ġ u
ot o
Ġ D
Ġ is
i ck
at h
Ġ I
un signed
C H
c ase
Ġ G
val ue
t er
O M
0 0
ad er
ER R
g th
ren t
e b
Ġt h
Ġch ar
st ate
li st
vi ce
p er
ĠĠĠĠĠĠĠĠĠĠĠĠĠĠĠĠ ĠĠĠĠĠĠĠĠĠĠĠĠĠĠĠĠ
p r
i st
ad dr
Ġ E
Ġ* )
de x
u b
c ur
al se
u re
C K
ent ry
b o
Ġc ase
co de
ro w
r c
I T
o s
in e
o ur
Ġ x
p l
as k
e st
C T
d er
Ġ v
con st
our ce
I D
ct ion
o ck
Ġ '
f s
m ap
me m
r r
que st
h t
Ġ e
U R
ag ick
_ _
Ġ k
] .
m o
Ġ W
Ġ( (
t ent
m age
b reak
len gth
a st
bj ect
bu ffer
P E
i o
Ġt r
T R
a ce
L O
ix el
M A
Ġ B
p ort
f ree
re d
C o
ĠĠĠĠ ĠĠ
an g
q u
on g
g oto
r ite
P ro
f lags
o w
n um
I mage
Ġ 2
str ing
li ent
Ġb reak
C h
Ġ struct
stat us
Ġ R
b ack
i ve
() )
p age
co l
p s
Ġsize of
v m
S tr
co unt
C E
M E
m at
ce ss
A D
us er
re f
S et
() );
D e
it y
or y
E x
ad d
In fo
m d
Ġc o
e m
U N
] ;
n ew
6 4
S I
E n
o ffset
u ffer
ro m
A N
T o
V al
un d
rea m
F F
a v
O P
cp u
T ype
p h
L o
Ġw e
() ->
Ġo f
l l
1 6
re g
in d
V i
_ ->
ac he
rr or
Ġo ut
and le
() ,
Ġb e
he ck
Ġ res
ig ht
IN T
Ġ se
Ġ void
Ġ :
ce ption
_ .
mp le
G E
an s
pr int
B U
o st
mp l
T I
P R
Ġ ret
Str ing
f rame
ara ms
V AL
r a
i b
ch ar
** **
as s
Ġp ro
t a
on e
-- --
ERR OR
do w
al loc
p ath
b it
( (
Ġ j
n g
i ze
/ /
lo ad
c l
lo w
Ġ )
E X
m l
an t
le ment
sk b
E D
Ġ ex
an n
s h
Val ue
F or
Ġ it
u se
Ġf alse
um ent
id th
o int
ms g
D ata
l y
ara m
e vent
re ate
s a
ĠĠĠĠĠĠĠĠ ĠĠĠĠĠ
ĠĠĠĠĠĠĠĠĠĠĠĠĠĠĠĠ ĠĠĠ
Ġ+ =
i al
E rror
in it
fa ult
F rame
ar d
IN G
T Y
at tr
F I
M L
Ġn ot
in dex
as h
U n
ur l
d u
p a
Ġ< <
ĉ ĠĠĠ
lo b
ctx t
lo g
Ġn ew
o k
he ader
m m
Ġ H
o ol
I s
de f
in k
l ine
N O
co mp
Ġ and
y n
Ġd ata
Ġ V
M agick
Ġ error
L A
an ce
Ġ O
all back
d ate
U T
w it
il d
S c
b y
val id
++ )
d i
er s
Vi ew
t ime
st art
EN T
n et
con text
t es
or d
TY PE
E CK
Con text
ang e
end if
p ar
in dow
Ġ err
Ġtr ue
de c
Ġ ?
u int
Ġ image
m b
E vent
t p
end er
a le
I S
R es
ut e
un k
il l
n o
n ode
Ġ __
Ġ y
Ġb ase
a x
Ġp s
w rite
ri v
ĉĉ ĉĉĉ
Ġw h
Ġ len
Ġ X
St ate
Ġth is
Ġl ong
u st
ann el
it h
s ock
t y
in ode
m ode
res s
ser ver
t ro
Ġ as
vi ew
Ġs k
f i
en sion
om m
a ve
T r
b ase
re ct
C ON
ul l
Ġ 4
b lock
f ig
a il
UR L
re q
U E
d is
CH ECK
l ay
] ,
Ġ L
W eb
S ize
( *
C O
print f
b e
++ ;
I ON
Ġ U
A t
b l
n ext
b er
n d
Ġst d
u g
I mpl
O bject
Ġ> =
ma x
row ser
a ct
h dr
M P
or k
Ġ unsigned
Q u
st ream
at ed
Ġ );
p os
Ġc ur
Ġ Get
it ion
Ġ on
Ġ al
R A
Ġ str
Ġb y
ar get
de vice
IN VAL
Ġf ile
ack et
tent s
P ixel
wit ch
con n
Ġd o
ow n
l d
Ġb u
me ss
at or
e c
yn c
p u
n s
B uffer
mess age
col or
ap p
g ro
Ġ set
E T
ri pt
I O
Z E
ir st
re quest
int er
A P
p re
AT E
L I
v el
ser t
Ġ en
A S
ar ch
s g
f e
ĠG L
el d
c s
id x
Ġ value
ho st
H ost
l er
F A
p p
SS L
ol or
() .
Ġ le
T h
S e
B o
h andle
c lient
a in
p i
ct or
U L
Ġ an
res ult
Ġs c
se s
for m
F ile
que ue
at ch
ry pt
d d
O n
e p
h er
arg s
ĠM agick
SE T
ĠĠĠĠĠĠĠĠĠĠĠĠĠĠĠĠ ĠĠĠĠĠĠĠ
Ġ get
Re ad
r t
de d
ut h
he ight
se d
w idth
s b
Ġn um
Ġ 8
Ġb ool
SI ZE
Ġ or
BU G
I P
ant um
re en
bo ol
ul d
mo ve
o bject
m et
fa ce
Ġ 3
Ġo ffset
N ame
p c
n t
l ink
P tr
, "
d ir
G L
p riv
p arams
c md
an ag
able d
p ixel
oc ument
co p
Ġ ext
ro ot
ho d
ist er
ar y
i v
Co mp
o pt
anag er
un lock
Ġb uffer
Ġ| =
Ġt ype
Ġ info
S U
ĠĠĠĠĠĠĠĠĠĠĠĠĠĠĠĠ ĠĠĠĠĠĠĠĠ
bu g
O T
co mm
OM X
c mp
LO G
t mp
t able
us h
de sc
v cpu
At tr
c ache
f d
Ġf rame
Ġ length
S R
Ġbu f
L oc
it er
ex ception
ĠW eb
o re
V E
L ist
= (
un c
Ġn ame
Ġg oto
and ler
Ġs ock
] );
E lement
cur rent
S H
Ġ In
**** ****
EX T
s ub
Ġp age
Ġ mem
Ġth at
Ġu int
Ġ key
omm and
H e
ile d
F alse
ĉĉ ĠĠĠ
Ġres ult
) ->
by tes
t ing
if i
m ask
ver sion
Ġ un
h ash
N ode
ĠD CHECK
y le
p on
in ed
r b
Re quest
r ay
N ULL
du le
F S
i z
le an
---- ----
' t
V ER
B lob
A B
s l
ol ic
o ption
P A
k en
D R
tr ans
if y
N E
av ig
s rc
c b
K E
t in
th is
e ed
n al
d st
pt y
f t
le ar
end ing
Ġf lags
p aram
m in
ST R
S L
I d
ma in
a ke
up date
un ction
T ext
olic y
ol d
Ġ end
Ġre quest
Ġ status
st ance
Ġ _
MA X
Ġ> >
p oint
a re
Ġ( *
st d
ib ute
M o
)) )
Ġn et
r int
DE BUG
C C
g s
M S
P age
M et
es s
pl y
t x
u d
ub le
d b
sp ace
Lo g
O K
w ork
Ġ< =
il ter
cp y
re c
pt h
0 2
EN D
PR INT
en er
_ (
er t
Ġ at
o bj
on t
t ask
lo se
In dex
gro up
" ;
s y
a it
> (
r ag
tin ue
U M
U S
tro l
ig in
I L
ut ex
Ġco mp
C A
c ard
Ġ /
ĠS et
Ġ //
T est
P ath
c heck
P AR
con fig
en c
it s
n do
I G
t ree
C P
L ay
Ġs h
de st
Ġ z
Ġco unt
Ġf rom
R ender
Qu antum
loc al
Ġx ml
avig ation
ĠĠĠĠĠĠĠĠĠĠĠĠĠĠĠĠ Ġ
o und
' )
M em
a iled
Ġw ith
pon se
* /
x ml
P P
at ure
in put
M O
i es
he ad
len ame
for mat
T H
ite m
L EN
L S
C lient
Ġ q
D is
Ġst ate
Ġ id
f x
w h
e e
de fault
e g
bo x
Ġ entry
le g
ar ray
c ast
se q
Ġre g
C reate
s n
OR T
f lag
T E
C olor
ro ll
Ġm o
Ġc heck
g e
ro y
Ġ* *
K e
E V
1 2
S h
im it
ho uld
o b
Ġwh ile
he d
Ġst art
ra w
do c
T ime
A l
Ġo p
Th read
F O
ut o
T A
bit s
pl ay
m t
S er
Ġs o
S A
si b
ess age
co der
ĠE X
Ġ arg
r l
up port
ses sion
KE Y
Ġre ad
us b
size of
Ġ add
Ġm ax
ct ed
Ke y
if def
Ġ+ +
A M
R O
le ase
p ng
pe c
ĠS SL
t l
ĠT h
AL SE
l ast
D I
ĠMagick False
ER T
Ġde f
L en
tr y
u al
F rom
N D
OR D
r q
C allback
w ord
In t
In ter
C OM
Ġ Re
f rom
per ty
U RE
Co unt
de o
lo at
pro to
ch annel
W indow
ig n
pa rent
n ot
ect ion
. .
E M
x y
Ġh ave
cop y
ar k
I C
Res ource
op s
Ġa re
de bug
ĠĠĠĠĠĠĠĠ ĠĠĠĠ
c cess
ta in
1 1
Mem ory
M ode
P C
i de
op y
ch unk
V I
par se
t ension
t s
s size
o ff
if ic
d p
i eld
Lo ad
I F
Ġ J
m utex
Ex ception
( !
Ġ" %
r ap
U p
A dd
ĉĉĉĉ ĉĉ
Ġt ime
B y
E INVAL
_ )
S K
ĠR ender
i a
Ġcur rent
M essage
UL T
t arget
C ur
\ "
Ġc an
im er
c reate
sp in
ct l
' ,
AB LE
RE G
Ġ OMX
_ );
ĠE x
ic al
ug in
] [
bl k
Ġ list
te st
C CE
AT A
f l
] )
H T
O r
un n
Ġin dex
Ġd is
= %
ph a
Ġ user
a mple
Ġp re
Ġp ar
C ache
re r
Ġs er
F LA
Ġn ext
Ġe vent
Ġo ld
Ġ ap
Ġ static
h as
id get
O S
qu i
use d
Ġp ath
Re ct
c i
" )
_ ,
a m
tro ll
Ch ar
s witch
t ag
Ġc ode
Ġa v
i rect
le d
ting s
b s
ch ild
S C
pro file
Attr ibute
Pro cess
t if
Ġde fault
c ap
ĠI f
Ġc lient
D ocument
con d
ot al
A GE
00 00
Con tents
fi lename
th read
troll er
F OR
Ġ K
U P
Ġp arams
Ġs rc
leg ate
ĠA V
op en
u id
ra m
Ġn ode
se c
GE T
RE AD
ct p
ver t
f p
Ġn o
a uth
TR A
Ġp os
AN D
N G
st ore
Ġc pu
f unc
de pth
k t
sa mple
it ial
Bo x
He ader
s ource
P ar
ĠF T
c ip
Ġ lo
si g
f er
o g
Ġsk b
A ME
INVAL ID
RE T
k vm
li ce
at ive
Ġi p
P aram
ĠĠĠĠĠĠĠĠ ĠĠĠĠĠĠ
ST AT
s end
Ġ1 6
Ġ he
Ġb lock
F P
H andle
c c
O L
reg s
ri es
e lement
wh ile
re set
O ffset
ĠĠĠĠĠĠĠĠ ĠĠ
row s
c allback
FI LE
d ing
c a
D O
M anager
FA ULT
Ġp er
le ction
er y
C M
T ab
i e
* )
1 0
le vel
d f
to ken
i ct
Ġp ng
En try
FLA G
fo re
w indow
con tents
g r
Ġ vi
ĠX ML
Ġcon text
f low
Ġn eed
p acket
Ġk vm
ir q
Ġ' \
ic s
P l
St ream
Ġ header
res sion
B IT
Ġr c
ĠĠĠĠĠĠĠĠĠĠĠĠĠĠĠĠ ĠĠĠĠĠĠĠĠĠĠĠ
5 0
f irst
cur ity
pro cess
V M
r m
ON E
In put
CT ION
t on
v ar
O p
Ġh as
a rent
C ommand
Len gth
fi eld
st em
T O
Ġin ode
Met hod
r it
S P
Ġdef ined
St at
c lear
p ing
ĠW e
Ġby tes
a w
N um
Ġm ode
vi o
CCE SS
N ot
f ind
bu ff
c m
de l
B rowser
L e
Ġ ~
comm and
rypt o
Ġf ree
b in
a mp
w eb
el y
ud io
SS ERT
Ġde vice
out put
ent ries
D ATA
ro me
reg ister
= =
00 0
H andler
Ġ Z
me di
H E
B A
Ġb it
le te
TI FF
option s
col um
C R
ML S
z end
B ind
)) );
Ser vice
B O
LO CK
l ong
m is
r g
2 0
W AR
do uble
or age
S ource
M ax
lo t
Ġ url
Ġ( "
p ic
Ch annel
ren ce
SR MLS
en ce
Ġw ill
Ġas sert
pixel s
Ġ- =
Up date
ho w
sib le
loc ation
, &
ST ATE
em pty
Ġl ast
ro p
t ab
IN FO
it or
u me
Ġs witch
ĠT he
a pt
a k
Ġ ctx
Ġs p
RE Q
num ber
AT ION
ifi er
Ġ dev
ĠĠĠĠĠĠĠĠĠĠĠĠĠĠĠĠ ĠĠĠĠĠ
b server
Ġf irst
a ch
Ġp oint
cl ass
u x
S Y
code c
a f
l f
lob al
r u
s or
page s
is h
iz ed
a ction
d y
om et
ph p
s ing
Ġn fs
ot e
ER N
er o
w ait
IT E
Ġ addr
ĠT SRMLS
Ġ val
ang ed
Ġ message
P os
Loc al
f n
en v
St art
bo und
lay er
re lease
' s
Ġ Ċ
c r
ed ia
Ġch unk
Ġ OP
Tr ans
C l
ur ation
Ġ 5
doc ument
se g
v id
a red
Ġ up
M sg
de rer
S ER
f c
Ġ ctxt
ĠC ON
WAR N
O B
P oint
s um
Ġre n
m anager
ad ata
F UN
li p
B lock
D est
ĠH T
St yle
O ption
colum ns
dow n
n own
t ed
Ġu se
O ut
Ġ 6
g in
p m
) (
u res
pe cted
C I
Ġf ailed
co ding
ref ix
Ġint er
W ORD
p atch
p ending
Ġv m
or der
T P
' :
Ġm sg
ĉĉĉ ĠĠĠ
M AT
8 6
Con tent
vm x
ut ion
u ff
En abled
2 5
, (
AT TR
c he
f alse
Ġh andle
q l
Ġ log
Ġcon n
Ex tension
con tinue
Ġw eb
C ode
P H
I LE
m pty
or m
Ġp h
ĠM A
Cur rent
et ch
s v
Ġs ource
P arams
Ġs hould
ĠC on
Ġtr ans
n r
L IN
conn ect
P RE
N UM
arch ive
' ;
by te
f ilter
ser vice
Ġ ;
an sp
ok up
LL O
b r
te m
FI G
ex it
Ġ alloc
p id
tr ace
******** ********
p b
P er
i que
FF ER
O F
in stance
s lice
Ġt mp
t imer
et er
ĠW rite
ta il
r x
s o
A nd
c ce
mem cpy
ot her
Ġ string
I ST
W R
pro g
Ġcon tent
upport ed
app end
) .
Ġon ly
n l
Ġc l
res ource
UR N
ar n
P re
Ġs ub
al g
L ong
k ely
f rag
Ġ attr
mo d
li kely
f g
Ġb ut
D B
Re g
met hod
Ġt ask
el l
R OM
For mat
I VE
De vice
-------- --------
ok ie
BU FFER
con trol
Ġn ull
" ));
Ch ild
tr a
F unction
con tent
Ġt ext
Ġo ption
Stat us
Ġo ff
str cmp
SI ON
Ġt arget
ve ctor
D o
Ġin put
N AME
d up
Ġp ort
Pro perty
W ith
In valid
o lean
at ter
x ff
o ot
c nt
ĠĠĠĠĠĠĠĠĠĠĠĠĠĠĠĠ ĠĠ
Ġw idth
MA SK
Ġan y
P O
et ers
G F
Loc ale
RET URN
Ġ(! (
h w
Ġp l
Ġd st
stat s
mple te
P olicy
r ange
C L
T ree
Ġ all
s ync
EV ENT
50 9
mat ch
che s
Ġo pt
m ark
P T
t v
C heck
O UT
P F
Ġst ream
N o
c lose
IN IT
Ġnum ber
ro up
ol ate
h andler
MO DE
STR ING
act ive
Mo dule
ct ive
lean up
OM EM
ĠĠĠĠĠĠĠĠĠĠĠĠĠĠĠĠ ĠĠĠĠ
H as
N ew
TI ME
ur face
P ER
U I
Ġc olor
d s
Lay er
all y
Ġ qu
cop ed
le ft
G S
Ġp acket
tain er
v ed
Ġc ommand
CO DE
H ER
g er
p ush
Ġ" ,
Dest roy
ĉ Ġ
M B
Ġcon tinue
C UR
e mp
Ġp ixel
NO T
pre v
t op
sc reen
c ert
m it
ĠI D
ret val
Lay out
a int
read y
O G
en um
y y
Ġde st
Ġp aram
io v
cip her
Sc ript
st ack
D OM
ren der
EN OMEM
Ġc ache
sc ript
Re f
r ing
Ġch ild
priv ate
W N
g l
b h
ĠF ALSE
Res ult
ĠS C
Ġ .
Val id
own load
ific ation
M edia
Ġl ine
Ġ ro
con f
d entry
Ġc md
Ġs ctp
W idget
ap i
Ġc allback
W idth
Ġc opy
Ġ us
v ma
s m
Ġh ost
B ase
p ack
8 02
he me
p ass
" ))
ex ec
k free
Ġ& =
Ġw rite
mo unt
Ġext ension
on ent
e k
ext ension
Ġm in
gro und
Ġse s
Ġ one
T ask
Ġ args
at al
p art
co m
Ġ Q
B u
c ord
A rg
Ġ Read
(" %
SU PP
T LS
c red
S ub
p kt
ss l
ĠĠĠĠĠĠĠĠĠĠĠĠĠĠĠĠ ĠĠĠĠĠĠ
add ress
UT F
ab el
de code
E Q
w ap
Ġp tr
C S
L ine
at ures
In stance
N avigation
mis sion
co re
Ġser ver
sc ale
s r
Ġ 7
ĠO n
Sc ale
as on
F ALSE
st yle
D IS
Ġ [
be gin
S O
Ġ si
medi a
Ġf ail
ass oc
P I
b p
u ccess
+ =
rr ay
m ac
Ġg fx
U SE
b ar
le ct
Ġo bject
Ġc all
ĠI P
Ġm et
def ined
p g
R G
p olicy
M I
ĠS tr
T ER
U ser
ay load
il ity
ON G
ĠĠĠĠĠĠĠĠĠĠĠĠĠĠĠĠ ĠĠĠĠĠĠĠĠĠ
om ic
E C
Ġb ack
ĠD e
ĠT R
ĠĠĠĠĠĠĠĠĠĠĠĠĠĠĠĠ ĠĠĠĠĠĠĠĠĠĠĠĠĠĠĠ
vid er
Ġn ow
A n
> &
N T
c all
MS G
Ġs y
W rite
Ġi o
f ter
Ġ ab
Ġre q
te mp
Ġn l
ug h
es c
t cp
NE L
ĠTh is
Ġ height
O f
omet ry
Ġren der
f in
M ap
tr ue
Ġses sion
sign al
r ate
Vi deo
rint f
- +
mem ory
E E
Ġpro to
Con fig
ann ot
E CT
Ġnull ptr
F ree
S ync
Ġfor mat
sa ve
to m
H AND
Ġhe re
p o
P AT
Ġd one
pro c
par ser
res ponse
Ġl ay
L Y
Ġadd ress
ht tp
N ONE
ff ect
j o
ue st
tr fs
Ġ im
res ent
st amp
Lo ader
Tr ack
Ġf ield
Ġpro file
un likely
t k
est ed
PAR AM
i ch
I R
text ure
S B
ve c
A pp
tr ack
ent ic
i ver
pe g
al pha
se cond
sb i
A rray
V P
B ack
I tem
F ailed
SU CCESS
N ext
IL URE
t ile
p ol
802 11
std err
F ield
m alloc
Con troller
Ġpro cess
pl ace
ig h
l u
Sc roll
en abled
] ->
f printf
qu al
qui re
Pro file
Ġreg ister
t f
MA P
low ed
Ġmem ory
d c
Ġle vel
ation s
u mp
ix ed
-+ -+
Ġt est
c rypt
S ample
UE ST
c fg
arg v
ext ent
al k
HE AD
p ool
qu ence
B it
Ġw indow
pe er
} ,
OT O
C AP
T EXT
Ġm ust
O bserver
ifi ed
if t
ĠR es
E L
z val
() ));
L ock
R un
Ġ me
Ġ AL
Ġ ad
Ġex ception
du mp
or igin
ĠI mage
m nt
C B
s pec
m ote
STAT US
u ch
Or igin
Ġw as
ly ph
re ply
ara ct
ect or
d one
Get Magick
j ob
2 64
TRA CE
Comp are
Ġp arent
ĠTR UE
Ġout put
sock et
D F
Tr ue
vm cs
P ort
Ġstr len
ME M
n er
1 4
v s
dest roy
M T
Ġ DEBUG
ol der
en able
RE A
v c
: %
in c
ĠStr ing
Ġ valid
un ique
_ ;
ho ok
Ġ usb
Ġd on
u i
ĠS t
FUN CTION
p f
CM D
Ġm ask
t otal
ĠP NG
LI ST
GetMagick Module
OB J
sl t
s on
Num ber
ch ange
En d
ĠTh row
ĉĉĉĉ ĉĉĉ
ta ch
By te
bit map
Pixel s
Ġ Log
K ER
cl u
Ġ" \
re move
vio us
E mpty
Ġp i
di rect
R ange
ut es
Ġch annel
ol s
Ġt able
ac l
Ġu i
Ġ view
He ight
m i
pos ition
F RA
atter n
Ġ 32
ĠB rowser
Pl ugin
A V
PR O
m ng
Ġc rypto
sy s
Ġ root
omm it
A uth
it le
Ġ \
ĠC H
i str
at form
P U
rap h
P acket
Ġt ab
er n
Ġ ERROR
T ag
.. .
err no
ut ton
t en
f loat
s z
++ ]
il y
ms r
v as
Ex tent
T able
x t
ĠT I
Le vel
rc u
ĠG FP
if f
Ġby te
Ġsock et
E S
ĠĠĠĠĠĠĠĠĠĠĠĠĠĠĠĠĠĠĠĠĠĠĠĠ ĠĠ
Ġc reate
a i
Op en
t ty
Ġf ound
ail able
TA G
ĠP R
ĠWrite Blob
Ġs size
* >(
PE CT
CH AN
sk ip
WARN ING
SS AGE
CO L
In it
A s
lo op
Ġe lement
B e
re ction
ee ded
WR ITE
w e
w rit
CA LL
E FAULT
VER SION
Ġ update
b rowser
BIT S
v l
ut il
SUPP ORT
ul ate
w d
Ġwh en
Ġres ource
HT ML
t tp
m y
EN ABLE
ĠF ILE
o ver
ĠA SSERT
Ġdo es
U INT
Ġ1 2
Ġm ap
time out
FOR MAT
print k
ansp ort
Ġo ver
Ġm ay
Ġ1 0
s d
bound s
AR T
ph ar
D id
n ull
b ind
TR UE
De fault
Comp os
ance l
R et
p gs
Ġ Un
at omic
PE G
w ay
al c
Ġt ag
Ġb l
Ġs pec
Sc reen
SI G
unn er
arg in
r un
ĉĉĉĉ ĠĠĠ
__ ,
s lot
ME SSAGE
ĠF or
Ġ ->
-- ;
5 5
r ics
Inter face
A UT
qu ery
D esc
s pe
Ġal ready
tif f
Ġt emp
M IN
Ġs sl
es sion
Pos ition
ur i
p ed
de lay
vi deo
co pe
Ġthe re
ri ption
ĠG URL
li b
pro xy
E rr
Ġf unction
in st
A CK
ĠF A
Ex ec
pl ic
inter nal
ac ity
S p
ct rl
inter face
ĠP ro
F ilter
Ch anged
res h
VAL UE
d ma
Ġre ply
c an
Ġsk ip
Ġ row
N ET
d en
ĠĠĠĠĠĠĠĠĠĠĠĠĠĠĠĠ ĠĠĠĠĠĠĠĠĠĠĠĠĠ
0 4
ĠT est
Con trol
M ENT
S y
i ction
n fs
C an
as sert
w ard
b d
S ign
at ing
Ġcon fig
sign ature
mem set
De coder
Pro xy
LE S
ib utes
ing s
Ġa uto
RA Y
P TR
in et
per t
ce pt
Re ader
ĠC h
AD DR
ri or
Ġbe fore
CON ST
res ol
p refix
iter ator
IT Y
e ach
Ġ lock
Par se
CT P
Ġin line
1 5
Ġf ind
ust er
Ġc ol
fa il
PA GE
ch r
Ġo bj
B LOCK
f rm
Ġ ERR
Bo olean
Ġth en
Ġwh ich
LO C
Ġd ocument
TI ON
Magick Event
ript or
W A
ex p
fl ush
F e
Ġb rowser
Web Contents
V ar
Sh ort
J S
g lobal
ĠF rame
proto col
UN D
H DR
pi pe
st op
EN SSL
P L
t m
ĠS T
P rint
Ġp r
DE V
F act
ref e
COM P
Ġ( %
ĠTI FF
fe rence
Se curity
ph y
ĠI PC
Se lection
ener ic
Ġpar ser
sc roll
Cl ass
Ġm ng
l imit
RE AM
Ġ other
irect ory
ust om
ĠC heck
sy stem
N ative
res sed
Ġdo uble
L ast
Ġin itial
F oc
Ġn on
ĠĠĠĠĠĠĠĠĠĠĠĠĠĠĠĠĠĠĠĠĠĠĠĠ ĠĠĠĠ
if s
Ġf d
Ġ version
t g
ĠMA X
PR OTO
Ġb o
Host Impl
Ġop en
KER NEL
F E
g d
RA CE
A SSERT
U D
in ce
m ult
c d
Ġm atch
R ed
f mt
in valid
Ġg roup
Ġ idx
lo okup
pert ies
D el
ĠEX T
u pt
ial og
i ce
le cted
ent ity
Ġi mp
De legate
M ain
Ġm ake
Co der
ĠLog MagickEvent
at er
ue ue
set tings
iv ed
code d
Ġret val
color map
VI CE
R B
ĠG F
ĠD ocument
R C
arn ing
r v
DE F
Ġsh ort
wit ches
Inter nal
Ġt otal
AR D
ca use
B Y
ĠL ay
Ġt cp
ut ing
b us
dr aw
Ġ* (
ĠV M
Con n
db g
Ġse g
P G
c re
ma ke
AN T
Ġb ound
Pro g
own er
Ġs end
ĠHT ML
z ip
A ll
refe rence
R T
Ġre f
A d
Ġg d
ĠM S
j ust
ac cess
ĠEx tension
Ch ange
h and
Ġ RE
ig no
Res ponse
block s
met a
A C
seg ment
ser ial
F lags
I V
re al
init ial
h ci
Ġ( &
Test Object
ĠCON FIG
f h
Ġu sed
Q ueue
le s
est ure
ĠA R
mo dule
Ġp art
Ġk rb
Set tings
ri x
h s
dis play
ur b
ĠĠĠĠĠĠĠĠĠĠĠĠĠĠĠĠĠĠĠĠĠĠĠĠ ĠĠĠĠĠĠ
in sert
si d
DE FAULT
A G
c g
co okie
b i
ver y
F T
H O
value s
s ctp
ĠĠĠĠĠĠĠĠĠĠĠĠĠĠĠĠĠĠĠĠĠĠĠĠĠĠĠĠĠĠĠĠ ĠĠĠ
Ġ local
O FF
n ow
B E
co mplete
G TH
Ġex it
REA CH
al led
L ONG
) ",
op er
Par ser
TI F
a ded
tl s
v err
ex pected
ĠT RACE
0 1
ist ory
qu antum
si st
Magick False
Ġ load
c quire
p oc
D et
unk nown
ĠA dd
t t
LEN GTH
Bo und
b io
D raw
re port
key s
p in
Locale Compare
A g
x dr
X Path
LO W
sp l
bl ue
res er
PAT H
P ORT
f unction
Ġit er
n ested
ce ived
Get Pixel
Ġres ponse
al ign
Ġa uth
Ġb its
M D
Ġa fter
g reen
Ġg l
TR Y
p k
err upt
LLO C
z ero
pt e
ĠP H
ĠC UR
SA MP
m f
dr v
Ġp ending
Ġbe cause
D C
EN O
ĠCH ECK
re p
Ġs ample
O bj
fa ct
bo ard
Is olate
str n
g ing
ck et
V er
Q U
Ġlay er
A cce
N et
b le
ĠC o
sc an
st orage
CH IVE
RE E
A ction
A ctive
b lob
rior ity
" ),
lo ader
UN K
pgs ql
PA CK
fo und
ern el
dr iver
rap per
h a
Ġj ust
aract er
en u
Ġin et
I M
ĠEX PECT
Ġper f
m an
conn ection
FRA ME
LO AD
A uto
Ġin valid
j om
BU F
H el
} ;
i se
ĠĠĠĠĠĠĠĠĠĠĠĠĠĠĠĠĠĠĠĠĠĠĠĠĠĠĠĠĠĠĠĠ ĠĠ
Ġp ass
Ġor igin
Out put
S D
( -
Ġm b
Ġh ash
g id
B AD
ic on
Ġmem set
Ġmem cpy
ĠRes ource
Ġ ,
Ġ ar
ip h
Ġs ync
RG B
Ġr ange
AD D
C LA
Ġp riv
LI ENT
P ost
p df
AP I
ĠO K
R oot
ĉĉĉ ĠĠ
P UT
Ġb trfs
\" %
l ic
im um
SS ION
P K
DI R
a uto
do main
not ify
O ver
NO DE
Ġoption s
on ly
q p
r ight
Co re
main ing
SH A
D ownload
For m
CT X
apt ure
n avigation
VI DE
f ill
as oc
di ct
se lf
T arget
m ag
Ġs coped
W IN
N S
res p
ect ed
o om
param eters
d ig
p v
Ġa vio
SER VER
Ġd ir
c hed
IST ER
c at
LOC AL
map ping
del ta
Q L
S ession
Ġpar se
m pt
REG ISTER
t ptr
in sn
Ġb link
ĠN O
ĠT CP
e v
rc v
RE S
fa m
m c
RE D
Ġ mp
mode l
ch ro
Log ical
clu de
av ed
ĠP AGE
Ġp rint
w are
Ġ} ,
Ġ ag
Dis patch
Ġw ork
To Quantum
B l
ĉĉ ĠĠĠĠĠĠ
im ary
N C
Ġf i
g uest
cur r
fam ily
UN T
ĠC reate
M ask
i i
ERN AL
Ġs nd
pro perty
LIN E
CP U
Ġt ry
ĠSet Pixel
s upported
ut down
sa fe
le t
)) ,
TR AN
IG N
p ad
bo dy
Param eter
x f
l abel
DE VICE
L ER
n eed
l s
ent ifier
C IP
qui red
iction ary
Ag ent
fact ory
Ġn e
comp ression
N ull
f ont
St orage
. \
De bug
en derer
comm it
ĠB PF
CON FIG
Sy stem
Ġ item
ĠN OT
C ol
c rypto
str m
To ken
Ġth an
w alk
ĉĉĉ ĠĠĠĠĠĠ
de legate
Read Blob
CA ST
ce ive
VIDE O
CH AR
E d
av ctx
REQ UEST
r d
Dis play
OBJ ECT
Ġ' %
de coder
Mode l
) :
urn al
Get ter
< <
Ġ array
lay out
ĠS c
e ad
m ux
Ġvi rt
w r
rec v
Host Msg
Ġin st
set up
Ġv ar
ot tom
unt ime
cl one
S N
id s
ip v
I f
ST REAM
M in
he l
Lo op
S end
rec ord
Pro vider
A ccess
C opy
s ure
ĠĠĠĠĠĠĠĠĠĠĠĠĠĠĠĠĠĠĠĠĠĠĠĠĠĠĠĠĠĠĠĠ Ġ
0 8
color s
ST ART
tail s
Ġint o
ĠT r
r p
CH E
Text ure
C lear
Ġ media
dis k
channel s
l x
sh a
Ġ- -
ĠĠĠĠĠĠĠĠĠĠĠĠĠĠĠĠĠĠĠĠĠĠĠĠĠĠĠĠĠĠĠĠ ĠĠĠĠĠĠĠ
C lose
ĠM B
U Int
Reg ister
5 6
) {
g f
tr act
Auth entic
Ġy y
con troller
t sk
orm al
of t
event s
R L
X ML
Ġde l
SUPPORT ED
Ġf l
Ġb in
ir t
n p
OR Y
str ip
Ġin it
LA B
met adata
I ter
ast er
dis able
comm on
g en
he dule
Ġsock addr
Hel per
Ġde pth
( '
l in
V ector
Ġf rag
Ġa ct
. ");
ent er
Al pha
sib ility
Ġde sc
A udio
pa ir
A LL
Ġm ore
s how
Ġser vice
header s
CHAN GE
Ġc leanup
sc hed
tf m
r pc
con s
Le ft
in ation
TRA CT
p end
9 6
up er
n on
h id
f ull
i ent
per f
Ġso me
* (
a rea
s in
se ction
name s
O ID
Ġpro g
Ġs a
B L
d n
Ġph p
p red
ce s
Ġl ink
Ġconn ection
Coder Event
W ork
ĉĉĉĉ Ġ
add ing
ĉĉĉĉ ĠĠ
I A
M AL
HEAD ER
d t
l ing
DE X
ĉĉĉ Ġ
8 0
i as
Re move
OP T
Ġf loat
LA Y
CON NE
2 4
w idget
p ayload
Ġle ft
H AS
ĠU p
Bu f
Ġp ut
Bit map
ss h
un ch
P riv
s f
Ġmo d
Browser Thread
I X
To ols
U rl
v ol
ĠI V
unn ing
R D
D U
m ul
LIN K
Ġ IN
image s
Re cord
US ER
Sp ace
A VE
BA SE
ĠFA ILURE
p op
Qu ery
Ġs n
re store
In itial
pm u
AUT H
k nown
m v
pl ugin
Ġtr ack
ĉ ĠĠĠĠ
or ru
ment s
Ġth read
Ġsp ace
pro t
k rb
point er
] =
ad ow
Ġw ait
Callback Info
way s
F L
C LIENT
HAND LER
BA CK
PH P
si ve
ĠS CTP
i ated
C ommit
X X
v Tools
ap ic
S witch
b and
TE ST
fe atures
Ġz ero
F loat
pt s
INT ERNAL
ĠI S
Ġg s
Ġto o
Channel s
or ld
P op
cur sor
ver ify
d l
rea ms
Ġ 9
Ġn r
SE C
AR Y
s nd
Ġs upport
Ġg o
Fact ory
ĠRender Frame
c leanup
n b
fo c
w ner
Z END
() ))
Ġd entry
se ct
CON T
en code
t he
el in
S how
CH ROM
trans form
R enderer
P ass
f name
Ġv ma
ĠUp date
' );
ument s
dir ty
p resent
INT ER
I B
Magick Memory
qu ish
ĠN D
Tr ace
p en
ĉĉĉ ĠĠĠĠ
al t
ĠG LES
ro ugh
Ġex pected
ge ometry
Net work
ut of
file s
Ġ ^
fa ctor
G LE
CT L
F ont
G RO
h ing
elin quish
K ERN
Ġg f
c ms
Ġxml Char
ĉĉ Ġ
ĠĠĠĠĠĠĠĠĠĠĠĠĠĠĠĠĠĠĠĠĠĠĠĠĠĠĠĠĠĠĠĠ ĠĠĠĠĠ
f il
ch ain
Ġtr ace
bit strm
_ [
st ep
Ġw ant
s w
ĉ ĠĠĠĠĠ
it ies
Ġbe en
struct ion
verr ide
Ġs sh
ĠN ot
an e
ren derer
T X
T op
Ġse q
ang es
Magick True
ĉĉ ĠĠ
Ġext ent
ĠLay out
Ġ LOG
IT H
T ra
Ġo bserver
Ġe v
av ail
Ġc p
orru pt
F irst
Ġo ur
Ġr t
ow er
COL OR
Ġs pl
ED TLS
MS B
Sc heme
g p
x slt
ex tra
vi rt
AR GS
P ending
e ometry
a unch
) \
v a
Ġf e
pa re
wit h
S urface
n def
Ġs ince
Ġf printf
mpl ate
HT TP
ĉ ĠĠ
S MB
se arch
k it
mo jom
ĠE VP
d h
ĠĠĠĠĠĠĠĠĠĠĠĠĠĠĠĠĠĠĠĠĠĠĠĠĠĠĠĠĠĠĠĠ ĠĠĠĠ
c lip
Sign ature
si de
Al loc
Ġv cpu
iz ation
le af
ĠOP ENSSL
tr ansport
ĠS end
u le
v p
ff ff
Ġs m
sist ent
ist og
se m
sh ift
Ġ{ }
io d
[ ]
ĠS k
Ġs ame
Ġal low
Trans form
G P
Get Isolate
SY S
k No
in al
ch an
def ine
if orm
d x
Ġ(( (
ĠB T
ing le
EV P
Ġ** )
si c
str ide
p ix
T L
tain s
HER E
B utton
C apture
Ġs ure
Ġh dr
EX IT
x FF
to re
ĠP TR
V irt
Ġ} ;
ĠA l
ke ep
ick s
---------------- ----------------
en coding
In te
Web View
Ġst yle
Ġpixel s
i mpl
le ctor
CA CHE
ĠAL OG
s addr
Ġt p
Ġt op
Get String
ĠI s
ut om
p ub
le m
Ġf lag
igno re
Ġde legate
PAR SE
() ),
imit ive
am ma
io ctl
a ff
ĠT ab
Ġex ec
S k
IN DEX
CR Y
T CP
B its
Ġcon trol
Ġst op
net dev
Ġh ton
ĠF ile
sp s
Ġr v
Ġ2 4
unn el
le x
Ġf ilter
Ġ! (
K it
Ser ver
( %
arg e
app ed
B IN
prog ress
Ġ queue
OP ER
b ig
i an
vi sion
ict ure
U s
en s
Un it
apt er
P NG
D ir
Ġfi lename
de lete
r dev
AP P
point s
6 0
writ ten
L imit
d a
f b
EN C
BY TE
SIG N
Ver sion
Ġbit map
ap du
Ġm m
Ġvm cs
Prog ress
se curity
ĠGL int
Option s
n eg
A F
re mote
IN ET
buffer s
le ss
g ine
r ic
t il
MA G
Vi sible
JS ON
a udio
ĠEx ception
ĉĉ ĠĠĠĠ
ĠS O
ĠGL enum
ps f
V AR
se ek
ir m
M IT
p dev
g ed
frame s
m rb
et h
Ġb ad
Ġex ist
he re
__ );
Ġd i
istog ram
if ndef
De lete
En able
Ġh ttp
or rect
Ġbl k
Ġc ert
25 6
AR G
g c
as ync
ut f
pro p
se quence
resol ution
il der
T ING
opt s
h l
re l
Ġs z
RA M
Ġm rb
g fx
ĠĠĠĠĠĠĠĠĠĠĠĠĠĠĠĠĠĠĠĠĠĠĠĠĠĠĠĠĠĠĠĠ ĠĠĠĠĠĠ
form ation
-+-+ -+-+
comp onent
Ġz end
i mp
S he
Ġpre v
Ġc ap
c group
ter m
jo urnal
c le
p ret
s hould
se ctor
m agick
p ost
E G
ot a
ĉĉĉĉ ĠĠĠĠ
enc y
O D
[ "
per ation
S W
rq st
CONNE CT
utof ill
back ground
LI B
F C
Ġch ange
ap d
C URL
REACH ED
ĠWeb Contents
1 3
and om
Re ply
P aint
S rc
Ġm ain
Ġg r
ĠK VM
Ġ Y
Mo use
ĠHT TP
o d
ref er
LI C
f etch
Ġde code
Ġproto col
Ġp id
Ġa ctive
istr y
ug e
CONST ANT
RE F
NE W
Ġlo op
A IN
p attern
ĠR elinquish
mt u
i oc
sh ort
Code c
**************** ****************
u c
DB G
Ġm d
IO C
ate s
pe ct
Ġde lete
AR RAY
Sh ared
pa int
min or
1 00
CO UNT
Foc us
CIP HER
Ġdel ta
B ar
X T
reg ion
ĠU SB
is hed
Ġvalue s
mo v
ĠRender View
j as
g o
ang le
co gn
pr imary
Ġm at
ic mp
dis p
ĠSet Image
Ġc lear
Ġc lose
D ialog
F etch
w ake
BO X
Bound s
ro uting
or ig
Ch rome
W e
Ġd id
Ġto ken
Pro to
Ġs uccess
enc rypt
Ġt x
Ġm ark
M ER
Destroy Image
m on
RA W
e red
s u
SET TING
er a
Ġr un
ref ptr
mple t
so le
m id
fa iled
attr ibute
A CT
NO WN
TRAN S
app ing
s urface
IF T
h int
mple ment
direct ory
r s
Ġj s
dis patch
net work
C om
Ġ sig
RE C
Boolean Type
bo olean
Ret urn
H older
Ġ li
ĉĉĉ ĠĠĠĠĠ
Ġl imit
Ġof p
USE D
mb s
B N
time stamp
' re
for ce
C F
F ind
im ing
ĠD o
DO WN
Ġm ult
SU B
size i
ho ut
ru le
F REE
OP EN
re ason
u do
av a
T ex
Ġt ree
d addr
Ġre ct
Ġalloc ate
Ġag ain
Fe ature
Name s
desc riptor
it ing
UR CE
Ġsc ale
iz er
Virt ual
UR I
inter n
FA ILURE
Conn ection
r w
se udo
Ġre set
D ATE
ĠD is
ĠĠĠĠĠĠĠĠĠĠĠĠĠĠĠĠĠĠĠĠĠĠĠĠĠĠĠĠĠĠĠĠ ĠĠĠĠĠĠĠĠĠĠĠ
Ġ*) &
G eneric
Reader Exception
Ġc ms
me d
if est
Ġs ave
Loc ation
P KEY
EN TRY
ac ing
comp s
atal en
MEM ORY
j peg
un it
node s
Th is
Ġus ing
) [
Ġs l
FLAG S
SO URCE
Ġf f
doc ref
e ff
i able
UNK NOWN
P S
r ont
ot h
comp at
Ġset tings
b ad
lo aded
Ġs upported
App end
Ġdis play
attr s
ock et
mem cmp
Re c
Ġr ight
ĠMB EDTLS
SH IFT
" ]
Ġ #
im g
ĠS e
Ġpre vious
ILE D
ĉ ĠĠĠĠĠĠ
Ġpro t
Ġtext ure
x fs
ener ate
mission s
ĠFor mat
) *
resh old
v b
Inte ger
g b
al low
RE NT
Render ing
v ance
e er
r unner
s wap
in ish
CLA SS
comp ress
Ġcur r
ed ge
pre fs
Work er
ĠT O
Priv ate
Ġs mb
Ġ 64
Ġch rome
ache d
S tore
VAL ID
d rop
an y
Ġs lot
Ġex p
o ugh
ver bo
Ġa ccess
Buffer s
FUN C
on d
str dup
M UL
Ġg en
Ġp refix
Ġ archive
Ġnl a
Ġmet hod
st er
ĠRead Blob
r sp
t itle
ĠN o
Ġ( ;
ro id
E A
Ġco uld
ĠMS G
Ġinter nal
F MT
P art
f id
ab s
G EN
b a
OP Y
Iter ator
at t
int f
is sing
count er
R ight
con tainer
Ġd irectory
Re set
type s
ĠID S
se lect
lo ts
:: ~
Ġm ag
Ġc red
sh m
Ġarg v
Config uration
Ġ entries
Ġe p
sample s
G r
e free
ĉ Ċ
d id
Color space
MA C
pass word
en e
li g
s db
Ġi h
S V
Ġf ont
F D
im ation
us age
omm on
R unner
Ġc annot
Ġm s
Load ing
' ))
R M
Ġex tra
N one
ĠT ext
Mo d
Ġ app
key word
c y
p du
Ġde coder
Ġj sv
C ARD
S hould
spe ctor
p d
w o
se lection
Ġ% "
or ith
ht ml
EX EC
sa x
ĠTest Object
CT RL
mplet ion
ON LY
se l
02 4
pol l
C tx
Ġr pc
Ġseg ment
c lock
s he
ro ute
Ġst ack
] ))
ST D
Not ification
ri ver
ĠĠĠĠĠĠĠĠĠĠĠĠĠĠĠĠĠĠĠĠĠĠĠĠĠĠĠĠĠĠĠĠ ĠĠĠĠĠĠĠĠĠ
Cur sor
Ġj ob
Ġen um
EL D
rc mf
12 8
un register
Ġw rit
sh ot
Ġi mpl
ĉĉĉĉ ĠĠĠĠĠ
or iz
ic ity
Ġe mpty
ĠĠĠĠĠĠĠĠĠĠĠĠĠĠĠĠĠĠĠĠĠĠĠĠĠĠĠĠĠĠĠĠ ĠĠĠĠĠĠĠĠĠĠ
Set ter
Ġcon tents
am era
i ate
Ġre ference
G roup
t u
Ġb r
E W
Ġn avigation
gn o
d at
Ġpl ugin
C all
P M
Ġp df
is ual
Ġen c
int errupt
v q
Ġc om
str len
VE L
N OR
ain ed
Res ol
STAT S
Ġn to
A cquire
se xt
Th row
1 000
w c
it hout
Ġre port
low er
Ġf ull
AT AL
LS B
Ġp olicy
str ict
ip c
sh ared
ĠMagick BooleanType
i ation
OP J
Pl atform
St op
AS N
SETTING S
P arent
j ect
h ave
AT URE
By tes
B in
de mux
ĠC opy
FI C
, -
GLE rror
P layer
t d
verbo se
0 3
Str ip
Y PE
n id
w n
In st
A SE
ma ster
and box
Ġx dr
U se
strn cmp
c ancel
op a
ver se
comp ressed
ĠM SR
8 8
tl sext
Exec ution
ĠA pp
c ifs
C LO
ct b
Ġs wap
ĠRelinquish MagickMemory
it ed
Ġ*) (
Authentic Pixels
st reams
FA IL
ĠCo mp
Ġcon tainer
pre c
Be fore
L AN
s mp
ch or
Render Frame
Del ta
g lyph
Ġr aw
Back ground
L D
B ad
Ġre cord
sm art
h igh
M at
w ise
Ġse arch
Ġp p
end ian
ol ume
FA ILED
Al location
HO ST
IN C
l ate
kNo Error
LE VEL
Widget Host
( _
> ::
f ix
Ġf s
lig ht
2 6
NO TI
Ġen able
ĠN avigation
Ġa cce
Un known
WA IT
ĠN FS
case cmp
s witches
CO RE
W orld
De code
Ġip v
hel per
utom ation
AL IGN
md dev
and s
F ROM
d uration
pre vious
G esture
o ve
al lowed
el f
desc ription
N FS
Z VAL
ch rome
Ġ head
ĠS U
up p
mple ted
raph ics
A X
Ġ ent
Ġnet work
ific ate
D ING
FI ELD
ĠGL uint
Met rics
P ush
F ATAL
b utton
name space
Ġen abled
Ġx fs
um n
ite ms
Frame buffer
W rapper
Ġ* ,
4 0
D oc
Ġ ĉ
DE C
B und
IN E
opa que
Ġpoint er
a ir
Ġbound s
n e
Ġpage s
C D
w q
ĠB N
w b
ĉĉĉĉ ĠĠĠĠĠĠ
error s
T CHECK
m ime
Ġse e
ib le
Ġal pha
Text Extent
C orrupt
[ (
Ġav ailable
eg er
E ffect
ĠP ar
l p
C ustom
j s
ed tls
B T
g ss
Ġb pf
Ġph ar
HAS H
ma il
Do uble
ig ger
s mb
V ert
ch anged
ok mark
d ic
FOR M
ĠNOT REACHED
Ġp kt
ĠA F
ĠU WORD
cache d
En coding
GRO UP
b trfs
ir c
G O
H ash
Ġc alled
trans fer
F ull
th er
Ġit s
par ms
Ġcomp at
E IO
s yn
Ġc a
Attribute Attribute
Decoder Impl
S ite
comp os
tx n
reser ve
Y S
Ġvirt ual
Ġc re
OP TION
Ġdoes n
re maining
ce d
ĠE n
cl uster
Ġor der
Ġt g
si x
Ġh app
Un defined
Ġ location
Ġ \"%
UD IO
de tails
ĠAV ERROR
fin ish
plic ation
C lip
M atch
ĠĠĠĠĠĠĠĠĠĠĠĠĠĠĠĠĠĠĠĠĠĠĠĠĠĠĠĠĠĠĠĠ ĠĠĠĠĠĠĠĠ
E P
pro vider
Function CallbackInfo
c rc
Ġm alloc
PACK ET
n i
id ge
FI X
ith er
m gr
b n
Ġp rintf
bu cket
ser v
UN USED
Path Extent
ĉĉ ĠĠĠĠĠ
Ġre al
De f
oriz ont
(" \
ob server
TEXT URE
Set Image
fe ature
Ġsc ript
ĠF LA
Ġattr ibute
AL I
' ",
f ul
Ġtime out
ĠSO CK
1 8
se ss
Ġt ile
ro tt
re rror
len d
Ġh o
ĠCh rome
M enu
O ff
Ġ ...
di rection
ĠĠĠĠ Ċ
ĠP l
pro perties
Ġsc roll
Ġin stance
Ġres ol
ON T
p w
AS CI
er min
Ġa ction
Ġin sn
ĠP O
Image Error
Dispatch er
Max TextExtent
L ink
F ill
S a
is om
B ool
U til
sh ake
log ging
Ġvm x
> >
t unnel
attr ibutes
k ernel
et oot
Ġthe m
Ġg lyph
ren d
of s
Ġ2 56
Ġinter face
etoot h
L ING
Ġmo dule
Ġlog ical
ro ke
Ġa c
Ch unk
color space
lo sed
ic c
ĠP G
ĠTO DO
Ġre move
Ġv a
Con tainer
tl v
ĠALOG V
R out
U ID
: //
is o
3 0
R SA
To String
orizont al
Ġmo unt
Ġpi pe
i ed
p md
Ġg lobal
fer rer
LE TE
Ġ' /
Met a
D ictionary
ĠM O
Comp onent
st or
ĠP ixel
IP V
Ġxml XPath
mat rix
h p
g pu
De vTools
Add ress
down load
ĠFormat Locale
A LLOC
mat icity
plic it
c ent
ĠN ote
arg c
ĠIn put
fa st
Ġ2 55
RO W
I UM
S PE
m er
SL T
ee e
orith m
E B
Ġd if
ĠAR CHIVE
M ult
g ra
OFF SET
s cope
u age
Ġm ac
buf s
ang uage
chr on
We ak
1 9
Ġco okie
Ġen v
and ard
element s
ql ite
l ers
N eed
u ard
Ġpro c
F l
p key
Ġ stat
RE CT
mo ved
F IN
] ));
ap er
Get Instance
Ġal lowed
u dev
RE P
ĠT o
n c
File Path
a pe
I mp
m argin
Ġp ayload
CT OR
ĠGL sizei
m map
p riority
ĠF ROM
Bl ue
w arn
an k
ĠJ S
sp rintf
A ct
w arning
Local Frame
un map
Fe atures
Ġp ad
CHROM IUM
Ġre ason
Attr ib
sn printf
ĠCON ST
DIS ABLE
ut ed
URL Request
T F
Ġd ump
pi ct
p SMB
ĠEX TRACT
LE MENT
P y
raph ic
T S
s vm
t ick
S cope
c fs
Magick PathExtent
', '
ĠC PU
p ps
ĉĉĉĉĉ ĠĠĠ
Ġ" );
R ate
c li
ap shot
th row
ac c
Ġc b
ist ance
ĠW ORD
Ġy et
G UEST
ro ss
Ġde c
W h
re place
in cip
H IST
S ave
Ġ& (
TI MER
SH ORT
Ġmb edtls
ent ial
rr p
cap s
SO CK
et her
ad b
ĉĉĉĉ ĉĉĉĉ
B LE
Data Source
ĠWeb GL
s aved
Ġn eeded
OPER ATION
F lag
Ġk now
G IN
Z ER
em on
inter pret
Ġ1 5
ĠS H
Get Image
le ep
Ġw r
a ux
Ġ" ",
A fter
Ġ{ "
Pre view
W ITH
Ġm ight
th on
log ical
j son
Ġw o
ĠU se
D P
e mplate
ur a
Ġst ill
ĠE rror
inter val
eg in
x p
CON N
) +
S ocket
Ġs witches
Ġb et
tv b
e ch
AR CHIVE
Lo okup
sh utdown
I u
ĠP rint
PI X
ĠImage Info
w in
Corrupt ImageError
Py thon
D ate
Ġ sign
mag ic
x c
ag ent
-- )
ĠF O
ip le
ĠA P
B IG
ac cept
DE D
MA ND
Ġio v
Ġf ol
Ġal ways
M M
o us
En t
PA SS
DR V
Ġt ty
ul ar
rea ch
Ġth rough
incip al
Ġr q
D i
be fore
In List
Re port
. ",
G reen
AT OM
il led
Ġc c
Dis able
F ixed
Ġ assoc
Not ify
Desc riptor
Valid ate
A r
ct ype
M ark
T cp
il ities
red irect
++ );
Ed it
D irectory
Ġh andler
CE SS
pa let
Resource Limit
dig est
F low
mp i
Ġ" /
Comp ression
PRE SSION
" %
l ace
Un iform
Ġvi deo
ĠPH P
Ġres er
extension s
ha vi
u ally
Ġa void
N EXT
j or
Ġde script
Ġfor m
Co mplete
con vert
em u
ĠS N
ĉĉĉĉĉ Ġ
Render View
OG RAM
ĠT LS
Co ord
ĠIn t
ex pi
Ġap i
S PA
if fi
Image InList
Ġdescript or
f z
Ġ INT
Ġ signal
M AR
U X
RE SS
Ġap r
Ġpos ition
Ġn s
G pu
g amma
tr ies
Ġc r
IS OM
field s
Ġarg c
A li
b ottom
si z
IN TR
Security Policy
LLO W
Ġwo uld
pe at
chro maticity
per m
iffi es
ed it
pc i
Memory Allocation
lock ed
chro ma
Ġf ill
Ġpro xy
M F
Ġp k
Ġd p
= '
AN CE
l ap
UR CC
is itor
Ġ1 00
Ġse ction
ĠZ END
S pl
T K
e ffect
g a
in o
or ing
po se
M PEG
ĠC OM
mpl ing
lu etooth
Ġx slt
en se
if p
IT ION
s as
v o
Ġp eer
Ġ es
mm u
Ġnet dev
A CCESS
HAND LE
ay be
Ġtr unc
ioc b
H ttp
d iff
f ixed
o se
co eff
Ġst uff
z alloc
ret ry
si s
id den
o i
++ ,
read er
ENABLE D
foc used
ĠV IR
l c
m x
Offset Type
Ġ ignore
Ġdest ination
p ri
Ġp g
3 6
C OPY
EN SION
Ġe c
To uch
Ġsy s
en ded
Ġb lob
ĠĠĠĠĠĠĠĠĠĠĠĠĠĠĠĠĠĠĠĠĠĠĠĠĠĠĠĠĠĠĠĠ ĠĠĠĠĠĠĠĠĠĠĠĠ
R ow
Ġc ommit
avig ate
Port Index
Weak Ptr
di an
we ight
Ġa udio
op code
SE D
VI EW
Un able
h uge
Ġ( );
AT ED
z one
re ceive
LE X
ME DI
Ġqu antum
oper ands
palet te
MemoryAllocation Failed
ĠCon vert
p Context
Ġde lay
[ %
le ted
D S
NOR MAL
ul er
Ġse curity
4 4
I gn
part ition
bu ild
FI LL
ĠSSL err
N P
e lem
ce ed
bl ink
SAMP LING
( __
ver s
C ERT
S pec
B R
Ġerr no
G lobal
Ġd rop
SE LE
Ġco re
) -
U ST
Ġw ithout
h older
Ġcon troller
met rics
AME TER
P ref
P h
ĠI t
Ġse cond
ug g
D rag
Ġab out
} }
Ġ{ {
sc heme
Ġrequest ed
ĠFormatLocale String
v es
ĠT T
A p
C RE
e qual
er ase
struct or
Get Next
PAR AMETER
B link
T AB
act iv
ar c
co very
ĠM ake
Need s
", "
Re ason
Image Info
xml XPath
not ifier
dt or
SPA CE
. ";
Ġj as
tom ic
J ava
Ġp resent
Ġre gs
CRY PT
st e
Ġ( -
ic ast
SE Q
SAMP LE
Ġthe y
Ġren derer
frag ment
av ailable
Acce ler
C md
List ener
IF Y
FE ATURE
ĠH AVE
Ġal so
cons ume
Ġfe ature
7 7
Ġu id
FF FF
T mp
b b
Ġ" -
im apd
sh are
Is Empty
ID C
cs um
P TO
AS K
to k
Ġde t
j pc
t c
ĠS ync
Un ique
ansp arent
Ġf ace
Char ToQuantum
s uccess
J PEG
') :
spl it
t con
db us
Ġorigin al
Rendering Context
/ %
r unning
s uper
Ġs ent
ch ip
unt il
s ite
pr imitive
Mo ve
ĠCon text
Pop up
he x
ex us
um a
cm pt
In sert
AL G
ĠF OR
ĉĉĉĉĉ ĠĠ
aract ers
Ġ} }}
ĠA SN
IL D
Ġneed s
Ġs d
Ġs qlite
ex ist
Ġfile s
Ġp ing
ab ility
ĠIn itial
alc ulate
Foc used
Ġcon f
Ġl ater
W ill
En dian
GEN ER
Ġ{{ {
P END
Ġp ix
ition al
sv c
Ġview s
at tach
ret ained
vi sible
R X
Ġf use
val u
Pro perties
Ġbe gin
Ġse c
group s
B egin
Ġ Quantum
pa que
CON TR
Ġparam eters
b g
HIST OGRAM
al ias
gr p
T icks
IS H
iv d
MAT CH
PRO CESS
I BU
Ġstr dup
Count er
SC R
! =
) ((
P r
Ġh and
PR IV
o red
St ack
N on
s To
Ġp op
Get Document
per iod
Has Switch
Ġlay out
P icture
in line
Ġs b
is olate
con v
Cache View
ĠN ET
Re q
ĠC R
ĠC SS
ĠM edia
Ex p
Ġover flow
i er
Ġe ach
child ren
mb ol
Ġprog ram
U WORD
Ġen ough
AN GE
Ġqu ery
Media Player
Ġfol low
ĠN P
COM MAND
re strict
Ġ2 0
Ġj peg
Ġpos sible
Ġs how
Ġb tif
up d
AG AIN
n f
PER M
Ġp ol
ab ort
ĠG ST
Ex t
Un retained
Ġen coding
Ġsh ift
HE LLO
PO INT
s Var
t b
s oft
ĠS o
ail s
Post Task
i re
Ġg tk
Param eters
M ake
Ġre quired
fin al
MUL TI
ResourceLimit Error
v rrp
Ġvi r
ĠSU CCESS
P DF
ME TH
Ġcomp onent
CODE C
If N
WidgetHost View
id ent
Ġl in
key ring
TR FS
ĠO FP
_ ));
ĠR T
Ġhe l
medi ate
ĠWebContents Impl
C r
Ġ keep
it es
Re ceived
ry ption
Process Host
inst all
ĠPro file
Ġal g
I con
sc si
Met adata
O GE
h r
s ent
Ġst ep
ĠG ET
Ġse lf
ET H
object s
N ON
Ġre lease
A UDIO
On ly
ASCI I
Ġ1 4
Ġz ip
second s
ĠE OF
Ġal ign
pro ps
Ġsc hed
W ait
Ġ URL
Ġ" <
Ġo wner
Ġ) {
Ġsc an
Do main
trans action
Reg ion
N I
Ġb p
um my
ab ilities
Ġextension s
par sed
Element s
Over flow
g it
sock opt
st uff
ew k
prog ram
Video Capture
Ġt imer
ĠN L
D H
d atalen
Ġd ownload
ĠWeb Kit
Ġt sk
tr unc
CON D
vision al
N L
Ġc orrect
ip her
Ġsn printf
re v
F atal
ic sk
C SS
Y K
W arning
t un
Ġc s
Ġd raw
ĠA X
Ġk ernel
iter al
ĠS IG
SI ST
E OF
w as
Ġin formation
) /
Ġse lection
J ob
CUR RENT
Scale CharToQuantum
3 4
5 7
T he
attr ib
H W
n one
ME D
Ġwh at
or g
Ġf a
TIFF TAG
Ġd ict
th ing
ĠA cquire
i um
Ġch anged
ator s
Desc ription
Ġbo x
reser ved
Di rection
E K
Ġp ool
Ġlo ok
rg b
Ġo k
Re lease
Ġmo v
Ġsa fe
ard ware
Ġp t
SE XT
frame buffer
sn mp
Ġblock s
T itle
W in
d m
fe rent
Option Error
T emp
de p
int eger
Ġp c
ĠP ER
Ġad just
96 60
C re
M argin
er nal
Ġ% .
FI L
work er
a z
n eeded
um ask
PAR SER
Main Frame
initial ized
Ġ View
Ġde bug
F unc
N ow
T imer
lay ers
R P
Ġg ot
ĠB TIF
OP ENSSL
ĠRe f
Ġlo okup
Ġst ore
T OK
v dev
ut t
Ġnfs d
b dev
int r
Ġf oc
ĠRe g
DO W
Ġcl ass
A CL
t id
Ġstruct ure
Ġcomp ression
at io
Ġexception State
RE SP
RO UND
irq restore
E num
st a
ĠP age
Ġsh ared
Ġm ail
EN UM
LE AN
Ġne ver
se lected
Frame s
hand lers
B PF
C ancel
ex tr
Ġcon vert
Generic Error
Ġ ass
RE SOURCE
C ell
PRINT F
Key board
af ter
havi or
C MP
Ġalloc ated
over flow
Ġ ct
Ġnot ify
Qu ick
P lay
sc hedule
ĠL oc
LI MIT
Al low
Browser Context
can vas
Ġ unknown
Ġc ard
Ġh f
t sc
he ap
DR OID
Scroll bar
Q UE
Quantum To
command s
METH OD
as sed
LO B
param eter
Initial ize
p fn
t len
SY NC
ĠThrow ReaderException
ENO ENT
c ra
ro t
list en
pa ct
dis c
k s
t i
Ġc ifs
Ġl abel
b t
Ġw here
ss n
Ch aracter
EE K
Ġpass word
rqst p
H istory
An y
ĠIV D
p x
ur ing
user name
Ġset up
P ool
i code
Ġre c
ĠI O
UM ENT
cre ment
state id
ĠRe set
Ġspec ified
PK T
tomic String
O wner
k dc
Ġ `
Ġr b
B G
r ad
ph dr
Ġ~ (
ĠFO URCC
E qual
h c
ar m
COM M
Ġopt len
l b
IN PUT
nl a
F ULL
Set ting
En gine
Se lect
Ġbo dy
ĠException State
Ġn b
SE SSION
Ex port
F ER
Ġf unc
EX CHANGE
mag n
L IT
u uid
FIC ATION
y cle
G A
h f
id le
Get Frame
ĠF ind
Can vas
ST ACK
s ack
as as
valid ate
ĠO pen
m r
bo ot
Ġpro perty
P attern
V S
En tries
INIT I
s lots
is Empty
Ġv ol
tem pt
x attr
Ġt vb
s un
for ward
Ġparam eter
ĠSc ript
Ġhapp en
vl an
; )
Ġas oc
Ġweb kit
Pass word
Ġc rm
cess ary
view s
refer red
ĠS EEK
sl ave
I CK
Ġs sn
LO PT
ca pe
com ment
WIN DOW
& &
Compos itor
M SR
PEND ING
g ray
lo sing
UN I
TH READ
1 7
ok ies
CON F
ro und
end or
Ġr ing
ĠĠĠĠĠĠĠĠĠĠĠĠĠĠĠĠĠĠĠĠĠĠĠĠĠĠĠĠĠĠĠĠ ĠĠĠĠĠĠĠĠĠĠĠĠĠ
BU S
Ġev en
Exception Info
CONT IN
Bund le
O peration
Ġ LOCAL
act ual
Del ay
F rag
ĠĠĠĠĠĠĠĠĠĠĠĠĠĠĠĠĠĠĠĠĠĠĠĠĠĠĠĠĠĠĠĠ ĠĠĠĠĠĠĠĠĠĠĠĠĠĠ
ATOM IC
D own
P D
l im
enc il
OM E
ĠB IT
D ict
IG H
B IO
G eometry
h ub
Ġbuf len
D CHECK
u a
op acity
IP C
A rea
F inish
v if
end point
Pre fs
H istogram
R o
Ġs u
ĠC l
Ġsc reen
" ][
Ġun der
ale t
CON TEXT
DEF INE
co ord
Ġd irect
Ġtrans form
ĠK RB
X MP
r sa
he vc
Ġex c
View port
][ "
a a
it ive
ST OP
ĠV CPU
CO DING
REG S
Bind ings
g re
Ġb io
2 2
C ap
an on
Ġf low
ist ics
Pro c
String To
n ess
cl p
sy m
Ġfield s
I I
ter nal
Se quence
ces sed
Z oom
ul ated
FA CE
gd Image
Y Y
r untime
Ġp adding
AN Y
Us age
Ġi b
Ġg eometry
cl a
Ġmode l
m g
il er
LA ST
Ġstr ide
TIME OUT
MI ME
S END
dec rypt
On ce
Ġheader s
u ed
Ġd oc
ĠIn dex
Ġfrag ment
Ctx t
Ent ity
F ail
H EV
ad just
ĠU SE
> \
Ġp u
ad apter
ĠSt ream
align ed
W ID
Ġt wo
Ġd c
mpl er
0000 00
jo in
Act iv
Ġ* =
int ra
Ġre place
y g
ĠB U
Index Param
Ġhandle d
CONTR OL
Ġf inal
Command Line
FIL TER
E OS
t bl
MEDI A
h istory
ST est
loc ate
pl an
qu ant
Task Runner
rott le
vi r
File System
Ġ( __
Ġd river
I LL
an ifest
DE P
ĠAL OGE
Det ails
ACT IVE
t w
Ġ until
Ġin sert
Ġx frm
crypt ed
imp ort
L T
b f
se lector
us pend
Proto col
G C
Ġor ig
Ġ1 1
Ġattr ibutes
fail ure
alet te
Ġgd Image
at ile
ĠĠĠĠĠĠĠĠĠĠĠĠĠĠĠĠĠĠĠĠĠĠĠĠĠĠĠĠĠĠĠĠ ĠĠĠĠĠĠĠĠĠĠĠĠĠĠĠ
Data base
STR U
A MP
ac y
Ch n
AN DROID
block size
ĠS MP
ĠD ata
Ġx t
string s
Ġhton s
SIST ENT
Ġ12 8
R UN
v sp
at ency
ul ator
Ġ1 024
L aunch
ĠF IX
Ġwe ak
ĉĉĉĉĉ ĠĠĠĠ
ORD ER
R untime
Ġre l
Ġi w
Se g
Acce s
ront end
de red
ro pp
Ġm y
(& (
At tach
Bin ary
. %
S CTP
Ġre mote
VER IFY
connect ed
Vert ex
9 9
yn chron
Ġevent s
3 3
e ar
lo sure
AUT O
4 8
G tk
T T
Ġd own
ri er
ac b
UR LL
Re al
ĠF S
U V
a ead
re fs
Ġs ingle
ps z
Ġdo main
W K
Ġb s
Re place
| |
ĠH B
Ġset ting
check sum
eg ot
ir r
Ġbe ing
ET CH
SK B
pict ure
i ator
Ġ el
or ary
B ER
F n
g asas
ĠT EE
ĠB AD
SU M
Ġc ell
Ġpre fs
g ener
h i
re vs
ĠN ode
ĠS QL
Ġde tails
ĠU INT
ENO DEV
b ond
ĠX XX
et ime
Resource s
Ġab ove
ut able
ĠS ee
0 7
M IS
mo use
Child ren
c x
g uard
n bytes
Ġ DE
Ġh w
EE E
reference s
ab l
ĠI B
For ward
Point er
Ġp aint
Ġn p
MA N
block ed
lin es
virt ual
ĠE lement
dis card
T emplate
r ans
as n
we en
Fact or
O W
device s
Sh ader
yy vsp
GetPixel Channels
g esture
l v
p ower
re size
ad ing
un ix
ĠC lose
ĠPar se
ĠPixel Packet
E AGAIN
if a
Ġc op
ĠD ownload
port s
SetImage Progress
o ser
me ch
Ġm apping
ĠG SS
irq save
Trans fer
c f
un ref
Ġch aracter
count ers
EX TRACT
Magick OffsetType
ĠX FS
Ġre ceived
ver ifier
Input Event
Op acity
put s
EM UL
Ref Ptr
put il
pr incipal
pre pare
Scale QuantumTo
ĠInitial ize
N r
ro le
BU SY
A v
C annot
Ġh id
Ġcur sor
sec ure
] ),
in ished
ad vance
Ġo per
dr ive
ho le
ĠM P
Time Delta
fil p
th reshold
sp i
ud it
Exec ute
RES ULT
f irm
LO AT
RO UT
Ġreturn ed
met h
ĠOP J
Ġh t
Co uld
Bu ilder
Ġs uper
IN S
ĠFile Path
Ġq emu
o verride
AS ON
component s
E ST
N s
Ġ ut
Ġc nt
an el
of proto
Ġ' -
ĠB IO
DI RECT
Ġoff screen
str aint
Time Ticks
Arg uments
3 5
x x
Ġ low
alloc ated
Ġerror s
Prog ram
Ġle t
ISH ED
ĠPER F
yg on
R ule
r andom
ON CE
v r
ol ute
Ġ(( *
Ġdis abled
Sample s
E MP
W r
n n
Ġs vc
sc ene
RG BA
upd ater
URLL o
Ġl arge
ĠB GP
Set String
Ġback ground
AF NUM
O k
if o
Ġn ormal
AR CH
Ġk zalloc
ml ink
BO OL
Mat rix
OL D
foc us
en sor
Value s
D ONE
R ST
Ġd ig
EN CODING
f w
h dev
n api
p aper
do ut
DOM Configuration
She et
S ig
on itor
Ġc lip
id entity
Re ference
ĠH e
t ot
Ġm argin
Ġdif ferent
RenderingContext Base
CONTIN UE
ĠFIX ME
ST O
to Native
Ġ' :
ATTR IBU
TIF Y
d ns
m q
u v
Ġthe se
ĠP er
PC M
ĠCon tent
Col umn
Ġfl ush
un its
Ġs urface
base d
SK IP
[ -
ĠS F
uff ix
hand shake
se gs
set ting
ĠA SC
Ġfor ce
Ġk malloc
IG HT
ATTRIBU TE
S QL
] ",
f ib
ce iver
N avigate
P rintf
id entifier
Ġact ual
al ert
Ġc ommon
Ġf mt
Ġr x
map ped
callback s
br idge
S coped
Ġre interpret
yy ch
-+-+-+-+ -+-+-+-+
ICK CORE
2 00
al ing
of st
Ġse quence
D ump
E PERM
S upported
Ġc m
Ġf act
PE D
S ec
in f
Ġm id
Ġg fp
loc ale
Inst all
ce l
offset s
W EB
Ġw idget
ĠS I
LE G
sa mpling
SSL err
CONT ENT
ĠA udio
Ġv isitor
Ġe ffect
Ġb ind
Ġre d
Ġhton l
en coder
Ġbe low
25 5
PER SISTENT
ĠRef Ptr
Ġ KEY
re cogn
do m
Ġret ry
Ġbu ff
ĠRe move
ex tract
Ġg uint
TR IC
Se lected
st ant
Ġh int
ĠIn valid
r dp
co mpletion
Ġint errupt
Ġst orage
Ġ[ %
Ġmet adata
e ver
n ative
Con sole
char s
Ġstr cmp
Ġmo ve
ĠVM X
Ġb oth
Ġat omic
mon itor
In line
ĠS E
FOR MED
Ġsy stem
o u
al len
Ġg uest
Ġme ans
k v
Web GL
vert ex
ĠLay er
ar r
ĠC ur
ĠM IN
Ġnot hing
ENT ITY
ĠU MA
ifi ers
MO D
V olume
Ġ REQUEST
Ġw ay
ĠS er
Ġr ule
CH ED
mat te
PRE S
she et
em it
Ġi i
sc all
real m
Ġcon tain
RE ASON
ub ble
MA GE
not e
Ġvar iable
ĠTr ans
URLLo ader
2 1
Ġp te
Ġm is
ĠA t
Info Bar
," %
R ANGE
b mp
en ame
Ġo ps
Ġv rend
MAL FORMED
Ġfa ult
Ro le
! \
String Info
sh adow
pre view
Ġre maining
Ġin dic
ĠP DF
Is Valid
i pe
l if
RE SET
ĠA tomicString
De pth
l blk
ot ion
dr m
Image s
Ġg pu
Ġh old
packet s
ĠWriteBlob MSB
Ġg iv
iph y
DISABLE D
ĠH andle
Ġname space
Reg istry
me ms
Ġf etch
as sign
Red irect
Ġi v
Ġst rerror
Un supported
Ġop code
An imation
MAG IC
S ING
S ingle
c ustom
ri ve
Al lowed
ĠT G
IP T
Quantum Memory
need s
DestroyImage List
Ġacce pt
R U
an ch
Ġw ord
Ġw alk
for k
SI X
Tra it
Ġ READ
Ġp name
el ist
ĠD on
Ġstr chr
EXT ENSION
Ġinst ead
ĠW h
ĠB R
D MA
H AVE
Ġp o
ĠF F
Ġe ither
LO OK
ĠS h
Web Kit
vert ical
Ġd up
\" ",
Ġt ermin
En code
view port
Ġlo ader
ffff ff
ro ut
ĠS SH
sc r
buf len
line size
d ated
Ġs um
ĠN ow
host name
Arg ument
S OR
k ill
Ġg ss
cp ar
ĠGet Pixel
STR VAL
I E
Ġc lean
sub mit
Per mission
i h
Ġex plicit
gr ify
LIC Y
allen ge
H IGH
Ġn bytes
arg p
b ers
i dev
For Current
Ġmet a
ĠLayout Unit
S CO
T ABLE
d printk
ct r
Ġm a
Command Enabled
e h
m ix
p ref
Get Field
Cache d
IfN eeded
f lo
ig r
Ġa cc
all paper
> ();
AT CH
Lo st
Ġcache d
D one
ĠC ommand
COMP ON
D T
Ġ icon
he ll
Ġl ua
Image Tag
ref count
ĠIP PROTO
Security Origin
Ġ! !
lic ate
ZER O
Ġp in
per im
ta x
F LOW
b rcmf
k Invalid
Ġco mplete
Ġen sure
Ser ial
BASE D
igno red
F Y
F ETCH
IN O
ma jor
AR R
== ==
ĠID C
Ġnto hs
Co okie
Ġkey s
dp b
Ġt itle
ann er
Event s
UP DATE
Ġtrans action
Frag ment
H CI
c lean
Ġs g
ust ed
FRAME BUFFER
ĠBT M
perim ent
Ġ lib
ĠS MB
par ate
, %
", (
Re size
GE ST
ĠO pt
mult i
MAG ICKCORE
Y NC
to ols
ĠV ector
table s
Trans ition
id ata
Ġm sr
ĠS K
OR K
null ptr
phy s
ĠRenderFrame Impl
ĠS IOC
ac count
g eneric
Ġs lice
ĠC lient
ps d
omet hing
i sion
RE V
Id x
Ġcomp os
c ss
g uid
Ġt ho
Re store
ĠA S
frag s
DEP TH
E LEMENT
st itial
pr t
ĠB uffer
request s
On e
check er
mid i
B reak
Ġle ast
Ġtrans fer
AttributeAttribute Getter
l uma
ĠĠĠĠĠĠĠĠĠĠĠĠĠĠĠĠĠĠĠĠĠĠĠĠĠĠĠĠĠĠĠĠ ĠĠĠĠĠĠĠĠĠĠĠĠĠĠĠĠ
Ġe m
Ġan other
bin ary
' \
t iming
Ġa x
ĠP I
Set Field
dis abled
ĠEx ec
tick et
P OS
Ġp m
ĠL IB
Se arch
ĠDe vTools
3 8
B luetooth
w rapper
co pi
ĠE vent
En c
Sh adow
br ary
Quick WebView
aff ine
Ġs printf
UT DOWN
Core Signature
d ialog
Ġe very
STR LEN
S n
ĉ ĠĠĠĠĠĠĠ
Ġs aved
Ġf name
ĉĉĉĉĉ ĠĠĠĠĠ
s ame
as c
Ġh igh
ĠC A
fd s
Test ing
Ġop j
NOT SUPP
ugg est
S wap
U AL
Ġ UN
ss oc
Attr ibutes
Ġreg ion
ĠK ERN
s ql
map ho
ĠCR Y
W rit
s adb
sh ader
net if
am ily
BO O
sector s
L F
ĠH O
PU SH
ed DB
Pixel Packet
ĉĉĉĉĉĉ Ġ
Ali gn
R aw
con t
Ġy acc
process or
Tex Image
ĠReg ister
mapho re
O C
Ġi eee
Set Pixel
ĠSt art
wr iter
C red
p as
name len
ter min
File s
Ġframe s
f atal
Ġspl it
ĠRenderView Impl
5 4
Ġp air
ex if
ub lic
Ġtime stamp
S M
c info
Ġb rcmf
Ġo peration
index es
Ġread ing
control s
CUR SOR
exp ression
Ġ(; ;)
ĠC lear
Ġr unning
ID S
Se ek
Ġcl uster
mplement ation
REC ORD
A Y
S ON
al ance
wh ite
y r
que ued
Ġj pc
handle d
Ġmag n
F i
Ġp ost
Ġs mp
ĠMagick CoreSignature
Ġpoint s
Ġhel per
F LOAT
G B
Ġ1 000
qui res
Ġav ctx
ro se
Con vert
Ġcolor s
track er
Ġ' ,
OP NOTSUPP
open ssl
Update CommandEnabled
uff man
ĠUn defined
P ack
Ġ' .
Ġcall er
de t
Ġx mp
pc m
ĠDe vice
man ifest
Ġobserver s
ni box
SELE CT
Vertex Attrib
a ren
p n
s upport
Ġc ipher
Ġcon d
get c
ĠC L
Ġk mem
ĠK URL
Ġcl one
ĠSk ip
Con stant
MO VE
Ġpacket s
I ES
Ġ signature
li ck
Id entifier
Back end
Ġpriv ate
O WN
e fx
in struction
if r
Re mote
cur l
ĠR PC
NOTI FICATION
C ho
d w
w w
Ġ unlock
de leg
co ver
ate g
LE AR
De cl
Ġj o
sec ret
Ġsm all
MAR K
c si
im ension
ĠS yn
cp us
Un load
Pixel Trait
Message Loop
ĠEx it
ai ro
HO OK
Logical Width
Rout ing
recogn ized
Ġf all
cache p
SA X
Ġvol atile
Ġc fg
Ġt ptr
ust ers
inter lace
COM PAT
Ġli ke
a use
d io
d yn
Ġin clude
decode d
Trace Event
SY N
LOOK UP
G FP
c rop
Ġh ow
cp i
pl ane
Ġstr n
VM X
sing le
STO RE
) ");
C ase
I MP
ist ered
Ġopt val
2 3
> ,
p at
x fer
str casecmp
up per
part ial
MI B
Ġab ort
PRIV ATE
A b
path s
ĠLoc al
c ut
e q
Ġf p
par m
dis connect
G D
H ave
at um
Ġm issing
Ġg ener
ure d
dis sect
og le
Extension s
PH A
Ġcop ied
I ME
X F
\ \
r ctx
Ġf re
ch g
COMP LETE
m enu
Ġg c
for med
ĠW indow
Ġlo ff
apt or
ĠAl locate
x hci
Ġ ack
Ġ" --
em ulate
PR OT
Magick String
Web Frame
Ġat oi
w atch
DE CODE
bind ing
al f
IN ST
SA FE
OUT PUT
ĠPR Iu
ĠPO LL
STRU CT
I AN
Ġp gs
Ġm utt
Property CallbackInfo
Ġchannel s
sys ctl
VALID ATE
Seg ment
copi ed
Ġp red
CCE S
Execution Context
7 6
P Q
c map
k Key
Ġ AT
log in
Ġexist ing
COMPON ENT
e i
Ġf z
vo ke
D Y
G raphics
f ifo
Ġf ixed
ol ation
Type s
EX P
SR C
PH AR
resource s
2 000
p ull
en coded
Ġbuffer s
Sh utdown
Ġmag ic
SCO PE
Ġ*/ ,
Qu ota
He ap
Ġinitial ize
CRE ATE
H int
z oom
st and
id i
un load
Ġg st
ri e
De v
PRO FILE
Sk ip
B J
S upport
EN CE
sm i
PK CS
A A
d uct
o ice
fo l
mis c
Ġ entity
ig rate
ĠC F
omet ric
Ġother wise
r dma
te mplate
Magick Info
ĠIn spector
L abel
Co mpleted
mb ed
Ġap du
And roid
O VER
m k
co w
ĠD ictionary
ĠRender Widget
Ġdevice s
Ġauth entic
26 3
j sv
Ġp ush
Ġhe x
ĠZ STD
FRA G
CLO SE
G lyph
s ume
ce ll
ot ometric
ol ated
ĠS ET
CH UNK
code cpar
load ing
Ġwh ether
Ġdis card
rows ing
Tab Contents
Media Element
spec ific
ĠSetImage Property
FF ECT
Load Type
0000 0000
Ġresource s
ĠRenderFrame HostImpl
L ib
j ected
it o
res pon
Ġwe re
ec ycle
)) ))
Ġ4 0
Ġ_ ("
Ex tra
ĠIP V
Sa fe
Ġreser ved
TOK EN
E OPNOTSUPP
a sic
b order
un ion
ON SE
St ep
Ġis olate
ail ing
tag s
mult icast
B order
m time
Ġp ack
Ġb ig
Ġe e
FI RST
Dis abled
Ġph y
V isual
Ġb and
im m
SE G
7 4
par ator
ĠL VM
Cl amp
si red
Ġp info
pl atform
Ġrc u
ex clude
opt len
am ic
Ġho ok
r ary
Ġp Context
EX CE
ĠU ser
Ġfe atures
WID TH
g es
Ġsc si
TA CH
dispatch er
p it
ĠB TRFS
Ġat t
A utofill
ap s
sl ab
CC P
xml GenericError
s coped
id c
Ġi rq
AL OG
ĠC an
Ġj iffies
US B
mit ted
Ġab s
spe ed
Fetch er
SV G
Z ED
ph an
ĉĉĉĉĉ ĠĠĠĠĠĠ
k i
ĠM essage
Ġsample s
Form Control
9 0
C ert
ud p
cap able
Input Element
Bind Once
Ġalloc ation
TL SEXT
tr ait
AL PHA
Ġu c
Ex it
Ġpar sed
QUE UE
Ġ( _
el en
Ġd x
ĠC O
ĠR un
AD ATA
ci sion
PRO C
BYTE S
ĠCRY PTO
A ssoc
Ġp ic
ĠX SLT
Ġmax imum
Commit ted
C ast
Ġd rv
In s
ĠO F
Ġps f
Ġarg ument
PO LICY
Ġro uting
Parser Ctxt
ĠTestObject Python
Site Instance
T otal
st h
st roke
Ġp rec
Ġn ested
Ġstr ip
GL enum
Compos ite
Ġfollow ing
ĠAcquire QuantumMemory
Ġs r
Re ferrer
AL E
ĠA PR
UN SUPPORTED
W M
Re ceive
Ġse lect
ĠRender WidgetHostView
Message s
Header s
Ġcre ated
= "
c msg
r fc
Ġf ix
Test Obj
INVALID DATA
sum er
ĠY Y
: \
D uration
t le
an al
Ġd s
ĠP K
ĠP re
ĠR et
= \"%
Vi sibility
ADD RESS
Shared Memory
NOTI CE
b c
Ġt s
ic ient
ĠC ache
Ġv host
vol ume
expi res
valu ate
extr adata
G URL
Ġp attern
ath er
NO RE
Tra its
G ray
V LOG
ff s
map s
LO OP
ĠWriteBlob String
UD P
] \
x prt
ĠS ession
ll u
alloc ate
Mouse Event
IT EM
uggest ion
D ER
p ace
re at
co me
Ġg x
com ing
ĠOn ly
3 1
S X
U SH
um bn
Ġd y
ĠE TH
ĠB TA
di e
nl h
S G
l an
at ely
list ener
mem ber
AB ORT
Ġdis k
RB in
Ġsm art
r tp
re quired
Ġj son
A LLOW
T C
r ss
s ort
RE ND
Con tains
di v
END IAN
7 8
ĠS TR
ĠB ad
qu ota
ep per
Message Filter
Ġnl msg
ev t
P IN
ex port
ĠL ist
Se cond
Ġframe buffer
Document Loader
auth entic
B ubble
l vl
m nibox
Ġb order
Re load
Get WeakPtr
to uch
pro be
ĠIn it
MO V
Current ly
Ġwrit ten
Dictionary Value
G LOB
i ant
Ġ et
r sv
Ġre direct
ĠP CI
Ġis n
block ing
OT OME
Ġsh a
Trans action
Ġspec ial
Ġprog ress
OTOME TRIC
M issing
c blk
at ts
str cpy
Ġser ial
Ġre p
Option al
Ġspl ash
l t
n tp
Ġ ));
Ġt ake
xff ff
Exp ression
4 2
g g
h b
Ġm ime
ON IG
SE EK
sp hr
ERR UP
Ġ' +
Ġpro p
Read y
Ġvi sible
Ġconn ect
Ġmult iple
RESP ONSE
sphr ase
f r
Ġc e
un cs
ul k
EV T
P TION
Ġo c
Ġcode c
b ed
Ġt m
ĠP F
LI CE
AS H
CHAN NEL
align ment
Full screen
CURRENT LY
Ġt ick
Ġs s
chunk s
R el
set s
ĠF loat
Throw ReaderException
INITI ALI
ĠStream Tcp
B ottom
D ONT
Ġ urb
Ġd uring
ĠG pu
AN K
AS YNC
uc v
c rt
n sec
Ġs ite
Ġn d
Ġ1 3
Ġ' )
mo re
es cape
ĠS uccess
An im
writ el
H orizontal
s For
Ġp dev
pe ed
ĠT X
ho me
ĠMagick Signature
alg orithm
Ġass ume
un used
Ġn eg
Quantum Range
Tree Host
INTER FACE
as f
Ġ" :
res ses
and id
Ġav ail
Fatal Err
Ġt y
ĠA uto
te ms
AR GET
EX PECT
thread s
Ġbet ween
Y UV
x mit
ĠT ime
ree mpt
Ġcount er
ĠRe cord
colum n
Cl one
ARR VAL
k Disable
p info
s q
Ġp f
(), "%
Ġnot e
Compos iting
ĠDictionary Value
A SS
ĠĠĠĠĠĠĠĠĠĠĠĠĠĠĠĠĠĠĠĠĠĠĠĠĠĠĠĠĠĠĠĠ ĠĠĠĠĠĠĠĠĠĠĠĠĠĠĠĠĠ
SI S
Ġro ute
T ED
in v
Ġd uration
Ġcan vas
Ġact ually
EMP TY
Constant String
n ing
Ġ Load
Ġd ma
(( (
Color map
Ġpl atform
ĠTab Strip
CONNECT ED
k ind
x a
Ġs w
Ġtr ansport
Lo aded
TIFF Read
Last Track
the size
Ġofp buf
Wr iter
a util
c irc
ĠS coped
fe ed
autil us
r ar
Ġm anager
ID X
ential s
Java Script
- =
j p
ĠĠĠĠĠĠĠĠĠĠĠĠĠĠĠĠĠĠĠĠĠĠĠĠĠĠĠĠĠĠĠĠ ĠĠĠĠĠĠĠĠĠĠĠĠĠĠĠĠĠĠ
ĠE AS
Ġgiv en
c alc
s In
Ġc alloc
Ġt cg
Ġg char
ĠO ther
I tems
T ile
Ġre ally
Ġof putil
Ġpro vi
FO UND
d ot
k b
er ge
pro mpt
Ġis o
Or der
auth or
BIN ARY
umbn ail
W ord
m DataSource
Ġ rows
Ġ uri
de blk
le ader
un link
Ġarg uments
v d
Ġ @
Ġ ver
Ġcon tains
Ġim g
' ll
h d
n ormal
ch aracter
Ġse ek
PR I
istr ation
re start
Ġf ib
ms l
Ġch ain
mplement ed
Ġac count
Ġwr ong
C MS
n est
ĠA n
per son
Ġkey word
Ġxml Free
Ġus age
Track er
AttributeAttribute Setter
V R
io ctx
comp ute
W ORK
Ġm any
Ġr as
Ġu dp
Ġbu ild
A sync
G RAY
I DE
I MAGE
S andbox
f attr
NO TIFY
comp no
az y
E BUSY
W as
c orrect
p adding
w ant
Ġb t
up le
Ġ% %
ĠR FC
host s
her it
Ġread y
Ġfail ure
t im
li ed
Fl ush
BOO LEAN
u les
Ġ Value
ist ic
ĠV P
inter cept
ca pt
- %
D D
e f
h cd
re ceived
ĠD OM
De c
Un expected
time o
ĠJ sVar
method s
mult ip
Ġin struction
ĠT L
Ġto k
Ġr ate
sh info
init ion
GL uint
Node Ptr
xff ffffff
Ġpart ition
h dl
w iphy
off screen
ĠPro cess
' ve
i us
p Value
Ġb us
to ol
per sistent
c ab
Ġp ci
ĠThe re
segment s
Dir Entry
LSB Short
Imp ort
n Buffer
ance stor
Ġat tach
Time out
exec ute
ĠNot ification
Resol ver
Acces sibility
) &
0 5
f v
f pu
Ġf id
ĠI EEE
P LAY
if index
ra id
Object s
ForCurrent Process
2 8
k Enable
Ġs omething
web View
origin al
ĠST REAM
SYS CALL
LSB Long
Spec ific
cla im
b m
ing Mode
Ġcase s
ĠB SON
Magick Exception
Bo okmark
Return Value
i ally
l ang
if ace
pr m
G o
p instance
ar ound
sic al
consume d
5 12
Ġ ENABLE
uct x
UN DEF
TI O
Ġas f
ĠWeb Frame
Ġinst all
Ġ^ =
ĠPl atform
h u
p mem
in state
Ex ternal
ĠThrow MagickException
Ġcert ificate
Ġ verify
con tains
ph otometric
Ġca use
G LES
i ctor
s dp
z u
Ġ vector
Ġp riority
ĠS TA
cur ve
mm ar
Ġrequest s
TIFF GetField
Ġne cessary
Ar gs
A CTION
J STest
P as
U GIN
a ut
Ġw on
Ġa i
INT ERRUP
Name space
rl vl
TO O
ĠSH A
A utomation
f m
ST AMP
ĠT ype
Stat s
Ġad ded
cogn ito
P refix
g state
v endor
in ator
ĠT YPE
result s
Ġsc hedule
ĠST AT
A rt
A ura
D SA
Sc hed
trans ition
raphic Buffer
P SD
e cp
h old
l ru
Ġd d
ĠT AG
read Int
CT YPE
Bind ing
BE GIN
mail box
Routing ID
K VM
IN D
Name d
Ġun it
assoc iation
mer ge
1 024
oid Method
Ġr ar
Ġen code
ynchron ous
D EN
Ġc or
Ġ" [
ab ly
Ġh istory
md i
Scheme Is
ĠSN DRV
D irect
S ame
Ġc rop
Ġy ou
T iming
g ot
Ġr aptor
ĠP ACK
EX IST
SH UTDOWN
ĠJ PEG
I FS
e as
s leep
si m
ĠC M
ĠP P
pr ite
ub e
cs r
ĠSt at
istr ar
igr ation
x frm
il li
Ġen coded
ĠSet GLError
FLA C
ci i
EA CCES
ĠCur rent
INO DE
, *
Ġ ewk
de s
ĠB ase
ĠB ack
CA SE
Ġq eth
yy val
Ġconfig uration
O per
n PortIndex
se en
ĠF D
ĠV er
C LEAR
L K
S AS
S uccess
e ded
l aunch
Ġc group
ĠMA C
NUM BER
ĠContext GL
d ummy
g x
ĠĠ Ċ
Ġp assed
ĠWeb Page
Ġmo use
4 3
R PC
f trace
ĠG Data
Logical Height
Ign oring
s x
re con
un der
Sc hedule
Ġas n
token s
Ġpl ace
refer rer
+ (
c q
ut ls
ext ernal
Ġpro ble
BL K
re ment
Ġs uch
Ġu ses
sha pe
Ġnto hl
et a
Ġm aster
ST EM
BO SE
SHA RED
TL V
Rec alc
a es
al le
Ġp du
(" /
Type Error
AS M
File Name
Currently On
u it
Ġ stats
de reference
ip s
Un recognized
ĠO BJ
Ġbu cket
Test Interface
initial ize
I W
z p
re alloc
or b
Ġr ds
Ex pr
main Frame
: ",
Ġ(! _
EN OS
ĠI CMP
BLOCK S
ĠPH AR
COND ARY
ĠHO OK
> *
B us
Ġre st
Ġl d
Ġprocess ing
Control s
ĠAR RAY
prec ated
Ġp thread
size s
ĠP ass
ĠF ree
comp are
Ġro und
Compos ition
GetString UTF
ne igh
F ound
n exus
u char
Ġp v
Ġs as
Ġd iff
cp umask
INT EG
cl usters
ENT ER
bl ing
opt val
P riority
X Y
ER Y
Ġse ctor
ĠX PATH
plan es
G uest
Ġ Request
Ġ ignored
ent s
uct ion
Ġre store
Ġg fn
Str uct
Ġex pect
Ġelement s
Over lay
compos itor
Av ailable
H igh
d ay
se p
Ġ" .
LE FT
Pro visional
Dis card
k er
al ity
Ġo wn
AT TACH
ma ch
ĠE C
Color Space
" \
a u
a head
b tif
u addr
if act
Ġ" )
ĠF irst
DE LAY
Ġdis sect
WA YS
cre ated
Ġvirt io
ient ation
S F
S MP
Ġf b
ĠD ATA
Ġbut ton
Ġ'/ ')
Ġs bi
Ġd b
line ar
pi ce
Ġdis able
OL U
var s
Command Buffer
Filter Node
ice s
Conn ect
S w
us ing
per missions
ĠB O
ĠIn ter
Id le
Lay ers
gra mmar
1 64
MA Y
pub key
d wc
ro per
IT o
Image Header
hdr len
cmd s
CM YK
7 0
h op
l cpy
Ġ append
if ecycle
Set up
Log in
PO ST
ropp ed
W D
Z IP
Ġ um
Get Virtual
Ġnot ification
Ġas ync
DO C
Invalid ation
D A
V OID
Ġ" ");
ĠM em
Ġpre vent
Main Thread
lin ux
REP LY
S OF
ĠG D
ĠE V
bl ack
ĠGet Frame
request ed
cred s
Ġht ml
GLOB AL
Ġ" (
MAT LAB
sr p
True Color
Ġssh buf
C ID
r ink
v t
-> _
si mple
Ġw ake
ll cp
Ġps z
Ġon ce
Ġle x
QU OT
thesize GLError
b lend
n xt
it u
Get Current
sa f
ĠSc roll
vir on
: "
e of
al gs
dr ag
MA CO
TA IL
Det ect
ĠNot ify
Imp roper
Cho oser
J O
M apping
st dout
Ġc f
Ġc map
an chor
he lf
op j
DE L
mi se
Ign ore
Ġ ENC
ĠB ASE
RO OT
Ġgo ing
Improper ImageHeader
I mg
O verride
S ib
Ġd ue
Ġd atalen
MA LLOC
Ġ>> =
Ġmo jom
ĠBrowser Thread
Ġwait ing
MACO SX
O wn
re st
Ġt ail
ĠP Q
SE ARCH
mb aff
Ġarg p
wake up
irr us
B TA
S LICE
h ard
x F
Ġt un
=% .
Ġexist s
cab ac
f req
n ed
r atio
Ġ ::
er ate
ĠS ave
ĠD raw
En v
Ġimage s
Page s
fin ished
da emon
capt ure
P adding
X SLT
d printf
k p
t demux
in s
lo ur
he el
AL WAYS
ĠA utofill
ens ity
RenderView Host
H dr
p Param
Ġc rypt
ul ation
ĠM ax
mem cg
sock addr
fid p
Cre ated
C U
h list
Ġ endif
ĠS G
Ad just
REND ER
s data
ro om
Ġf n
VER BOSE
bs on
******************************** ****************
Sig nal
G ener
c u
Ġ" ";
Ġg id
addr s
To UTF
Magick Export
Ġle ave
gs o
tx t
Ġany thing
qual ity
Ġcol umn
ĠST ATE
s ity
wait ing
CL U
Ġmet rics
Ġnl attr
ĠFrame Loader
ĠCUR LOPT
ITo UTF
n v
v ga
Ġse lected
sa mp
IO CTL
rop y
Sync AuthenticPixels
x ception
get lb
Ġch aracters
ĠH FILL
Ġcommand s
Bu ild
G TK
f re
de tach
ct ime
Ġd istance
ĠP seudo
sy mbol
sr v
TestObject Python
D river
R ING
l a
u ite
Ġt or
up sd
Web UI
Ġpart ial
pri o
ĠSyn thesizeGLError
= \"
id r
Ġd om
Ġr d
ĠMagick True
dest ination
leg al
Cl uster
serial ize
Ġp len
ĠS W
ĠCopy MagickString
upp ress
B D
R ad
Ġb mp
Type Names
sh ash
Ġresult s
Render buffer
VI RT
Ġresol ution
SOCK ET
D rop
M C
M aybe
U ri
s ender
EN TI
ĠA CL
Ġun pack
ud ing
ĠPH OTOMETRIC
SIGN ED
sas l
s at
er m
Ġc alc
IN V
ap ply
Bo dy
Ġap ply
cap abilities
Ġfoc used
andid ate
4 1
k mem
r ds
Ġ loc
Ġp mc
Ġw c
ĠA s
ter n
Ġth row
(* (
Ġcomp ute
delay ed
BL ANK
M ON
M LE
] =(
ST ER
init iated
SCR IPT
6 6
Ġp a
Ġb son
ĠS pl
ĠĠĠĠĠĠĠĠĠĠĠĠĠĠĠĠĠĠĠĠĠĠĠĠĠĠĠĠĠĠĠĠ ĠĠĠĠĠĠĠĠĠĠĠĠĠĠĠĠĠĠĠĠĠĠĠ
Ġbu ilder
tin u
REQ UI
ĠDe fault
Sched uler
4 20
ct et
Get Integer
View s
lu a
ĠPACK ET
T ri
s core
Ġ eb
Ġc x
un ded
Ġo paque
ĠC MS
av es
comp iler
Context Lost
tx q
TE MP
ĠWriteBlob Byte
hevc d
F illed
L X
M ock
n m
de ad
RE EN
op ener
ĠD H
Ġe Ret
cip h
Acceler ator
F COMM
P ID
T ASK
a ac
Ġt ls
ss p
ĠP aint
ĠA d
Ġj big
use c
STAT IC
CUR ITY
commit ted
Sib ling
S REG
re peat
in clude
de cl
Ġc d
res ume
ĠM ED
BU FS
H Y
P resent
Re pe
ĠW TF
qu ot
back ing
av g
Ġof pact
desc r
An chor
QU ERY
ĠCSS Property
ĠRenderWidget HostImpl
Ġ ATTR
ĠW K
rt nl
EXT ENT
SHA KE
ĠPl ugin
ĠRet urn
C ER
str vec
ph ase
Error None
Z ero
Ġr p
char set
UT H
net dissect
Draw ing
t icks
li ve
key len
Ġcheck sum
CHROM EOS
Ġdi rection
ROUT ING
g fn
st encil
Ġm nt
Ġd ate
Ġe qual
ll d
src u
Meta Data
ĠOther wise
d be
r src
x id
in es
ar p
Ġi pc
to s
ĠR S
Ġle af
Ġname s
MO UNT
HAND SHAKE
SPE C
H U
R Q
V oidMethod
read l
ĠR UN
PR Iu
IP S
Ġdest roy
invalid ate
ĠSQL ITE
G a
i eee
Ġp ref
ch o
UN C
mm io
ers on
Ġ6 55
ĠCh ild
ful ly
Ġp md
Ġs cope
ĠN F
ĠN et
li er
ĠS V
ri ent
file system
Ġx hci
def er
nl msg
hint s
ĠWebGL RenderingContextBase
164 6
) |
Ġ ENOMEM
ul ong
Ġg boolean
DE LEG
Ġcomp ressed
Ġinitial ized
ĠSI ZE
U BLE
f ront
t ex
t ell
t stamp
Ġs yn
Get Last
Ġe ar
Ġe mul
ĠTIFF SetField
Part ition
S ide
w rap
se cs
EN CRYPT
ĠD VLOG
io vec
Ġspec ific
1 0000
P in
l anguage
n a
Ġ ONIG
Ġm apped
Ġd a
out buf
Current Thread
Ġim mediate
dc cp
I LI
Ġ ĉĉ
log ger
format s
COM PRESSION
LAB EL
FY I
S ensor
T OP
con sole
Ġo s
ver b
rom ium
VE CTOR
Ġz val
ĠUse Counter
A c
a udit
k Chrome
p Reader
or s
el ong
ĠN E
ĠF ail
mat ches
GL int
Ġid entifier
Per sistent
dig it
A CCE
D st
G IF
M utex
ĠP RO
ĠD TLS
Ġres p
sys log
ĠJS Value
INTEG ER
ĠMED IA
O ld
R AND
i w
s ue
Ġp icture
ce stor
un def
un iform
Ġr s
ĠI W
mo drm
File Info
mod ified
Sub Image
clu sive
A ck
C amera
i mple
in ates
Ġm ost
um ns
Ġr andom
Callback s
Ġnode s
IR Q
EA CH
C ard
as ename
AT OR
Ġ(( !
ĠO ut
Tr ansport
CP I
ĠText ure
j iffies
st andard
Ġc losed
cl uding
Ġid ent
H idden
N ING
p pos
in p
Ġc ast
TI L
LA CE
Lock ed
PIX EL
illi seconds
v flag
Ġp alette
pe ar
ĠS ub
ity Log
cap acity
Ġmessage s
Block ed
DOM Exception
ĠDe lete
FIX ED
co mb
IN ED
Ġcon sume
ĠA utomation
Ġcheck s
Layout Object
hel lo
-------------------------------- --------------------------------
* ,
g ram
m xf
er ic
se ed
ic ro
ĠS ince
oc b
ĠEX IT
Ġpar sing
RET VAL
< /
N ormal
b k
c enter
h len
Ġb est
Ġm k
PR OG
message s
Service Worker
MI SS
we ak
FL G
gra de
O rient
P air
Ġc JSON
St amp
Pro mpt
P ol
si l
Ġb d
Image Handler
Ex ist
net link
Ġcallback s
AV C
Ġimp eg
su bject
P seudo
v addr
Ġm tu
ĠN ew
ĠS hell
Ġthe ir
Ġv p
write Int
filter s
PER F
pop up
encrypt ed
scr atch
W H
Ġc mpt
lo ff
end ant
Get Active
Ġh uge
mo us
Un signed
dd x
ak es
gc ry
straint s
gg le
A ES
c rl
h mac
x e
Ġ INVALID
al lo
ro ad
tr igger
Ġd h
MO DU
Ġreg istry
exp and
hid den
r f
al ive
el ine
ĠView HostMsg
IndexParam Video
Lib rary
H L
Ġa cl
ver age
sn apshot
Start ed
Bl ack
Ġagain st
Cr ash
_ ))
c ork
Ġ vec
Ġg reen
Size Type
Out Of
An cestor
strn cpy
She ll
FIN ISHED
re covery
un pack
() :
ren ame
ĠF PDF
put c
Pro p
pre cision
Quantum Info
Ġblock size
ĠWh en
Clamp ToQuantum
MLE lement
B uff
Ġch anges
cl nt
Un Lock
Ġbl ue
ReadBlob Byte
ĠFLA C
T heme
_ ),
ĠN T
Get Page
Ġ' ;
CO OK
Ġsy scall
ĠReadBlob Byte
C String
C ommon
R I
re load
arg ument
Ġk Max
start ed
Ġbase d
AP IC
UL ONG
byte p
End Of
nfs d
GetNext ImageInList
g ctx
ex pr
Ġre ader
ĠC IFS
Be havior
ĠClose Blob
P ix
w er
w ind
y mous
im f
ĉĉĉĉ ĉĉĠĠĠ
ĠT ry
Ġdis patch
br anch
Array Buffer
Acceler ated
sth rough
C lick
re m
Ġm xf
Ġpro per
Quantum Pixels
Ġweb view
PF MT
Ġim apd
VP N
w ddx
Ġn f
EN OT
sc ri
tl b
not ification
Ġattr ib
Ġsi de
Ġsi mple
ĠIP v
R ATE
for ms
pr c
FA ST
Ġz one
web view
Ġmail box
l z
Ġscale d
Ġjo urnal
road cast
Ġ Qu
Ġ URI
Ġc ancel
nd up
Ġoffset s
SA VE
PL UGIN
Ġ arch
st ub
ro s
Ġst ored
Ġoffset of
Per missions
AV A
PRES SED
Ġf il
Ġh c
te red
ĠE d
cur sive
Ġ<< =
DO UBLE
PROTO COL
N Compare
c annot
Ġ 50
Ġc airo
ag ram
AD M
Ġwe ech
ĠO bject
client s
Ġimp ort
ILI MF
Ġweech at
) ];
G PU
is Null
Ġd iv
li es
AL ERT
-- -
per mission
Ġv s
ĠV LOG
pc u
pon ent
am i
Alloc ate
> =
C alled
l un
and roid
ĠS hould
Ġre moved
ĠD id
ec c
0000 000
ĠMA ILIMF
PI PE
Print Preview
Agent Host
Ġsl ave
W and
le v
ĠS S
BIT MAP
Locale NCompare
Ġsi mpl
tg t
ĠInt Rect
INS ERT
asc ript
c er
set sockopt
of p
sp an
ERR NO
new info
Un icode
Ġcheck ed
CALL ED
Ġdid n
ĠSe curity
N A
Ġ= >
ut ime
ale s
Ġwith in
Ġ LL
ch n
ĠT H
Ġy r
rect angle
Ġcom ment
viron ment
C losure
v is
ĉĉ Ċ
Ġb h
fo reach
SI C
av ascript
Ġex tract
oper ation
5 9
B AND
s ctx
st p
im al
Ġk nown
PR OM
SY STEM
PO INTER
ites pace
ĠExec ute
B t
U MA
b ps
g uint
at in
it Test
In dic
To Impl
Th rottle
Content Client
ĠResource Request
Resol ution
Q QuickWebView
i ke
n h
x d
ad ient
Ġf m
Ġn ative
pe ek
AT FORM
Ġde term
state s
vm cb
Ġsh ader
Input Method
alg o
cat en
ĠVIR TIO
ĠSTA CK
DOC UMENT
b ss
g enerate
h ort
Ġ edge
Ġw ell
ĠD et
PR OP
pp y
Pre load
Orient ation
D ig
Get URL
sc ape
arg uments
ĠW R
Ġtr ailing
ĠHTML MediaElement
e pt
n ic
Ġg les
DE LETE
SE CURITY
Ġsc atter
LIST EN
MIS C
h ref
p reempt
r buf
Ġ enter
en es
ar rier
Ġs hash
)) ));
Ġo verride
ĠD MA
ĠD irect
Ġtemp orary
Ad dr
Ġmat ches
M alloc
r anges
al one
Ġp Type
ĠM utex
On Valid
Acce pt
Pr imitive
OnValid Thread
" (
T ARGET
b alance
w ifi
Ġ UTF
re use
at om
str ument
Ġd addr
Ġd rm
DE SC
be g
Ġsc ene
SH AD
W atch
` %
b ably
w s
co s
ĠB u
mat ched
TI FIC
SER VICE
ĠPR OTO
over lay
SIGN AL
Ġmat rix
ciph ers
TIFIC ATE
3 9
K IT
v iff
de leted
set Int
ĠH Z
tp g
Style sheet
dig its
pub lic
) ==
w p
or ami
ar b
ĠE INVAL
dis position
pp p
Par sing
Block Flow
so ap
annot ate
in ux
en gth
Ġm box
Ġre ferrer
bit stream
ĠWeb MediaPlayer
xml Free
Ġpo six
ĠCM YK
d Type
on ical
al ar
Ġp lay
Ġg eneric
Ġr r
av ing
Write Blob
FL USH
Spl ash
trunc ate
d istance
Ġ ctl
Ġf ast
ĠM LX
Ġtype s
OK AY
Ġph ase
mark er
Ġme gasas
RD ONLY
b atch
h istogram
j ng
ĠF M
Enabled Features
tile s
Ġdir ty
D M
P red
c alloc
h ot
n dev
s RGB
Ġt con
Ġf inish
Get Type
Con version
Ġnet link
orami X
C V
G T
l ation
Ġ( --
Ġ*/ );
Ġg enerate
ac er
sc aling
ĠE FFECT
rel se
D TLS
N F
Ġ \"
Ġn id
struct ure
es kt
pl ug
mple x
pre p
Log Debug
Auto lock
VideoCapture Error
CER TIFICATE
S ection
n at
int el
Ġ1 8
Ġkey len
ĠK ADM
Ap ply
Real Type
h read
Ġs oft
Ġf lo
Ġ' "
Ġcurrent ly
Ġvi a
var iable
Arg Method
Writ ingMode
J OB
w ill
as cii
rea ched
Ġa rea
AL T
Ġh ad
FO REACH
Ġmail imf
Ġcond ition
P ut
ing Object
Ġd rep
In spector
Get For
ĠW ait
MA IN
Ġsh adow
seq id
SC SI
sig hand
Ġoc cur
Ġt v
ĠM AT
Ġe fx
State Changed
Port Def
rie ve
l ptr
ĠD est
time s
blk cipher
ĠPseudo Class
eskt op
Ġt if
ms s
Set ReturnValue
Style Sheet
Ġobject s
pg d
ĠWriteBlobMSB Short
tern ate
6 8
Q UI
x ar
ib ility
ĠWeb Feature
Ġun ix
xml Parse
wh ich
Ġop ener
ru les
Ġcall ing
Ġview port
bind ings
xmlGenericError Context
F RM
O FP
o o
x ref
Ġ ic
GET ARG
Ġpl ane
DIS K
Ġbyte stream
Tex SubImage
ĠBIT S
ParserCtxt Ptr
Repe ating
I rp
L anguage
a io
Ġp cm
ĠĠĠĠĠĠĠĠĠĠĠĠĠĠĠĠĠĠĠĠĠĠĠĠĠĠĠĠĠĠĠĠ ĠĠĠĠĠĠĠĠĠĠĠĠĠĠĠĠĠĠĠ
En coder
Ġof proto
IG NORE
conf irm
ĠSc ale
6 5
A tom
E F
I o
M ime
O paque
P OP
P IC
] <<
g ap
j mp
n to
as ses
In formation
Ġg it
ĠĠĠĠĠĠĠĠĠĠĠĠĠĠĠĠĠĠĠĠĠĠĠĠĠĠĠĠĠĠĠĠ ĠĠĠĠĠĠĠĠĠĠĠĠĠĠĠĠĠĠĠĠ
MA KE
ĠB o
De fn
queue s
Request Context
flow i
ĠTab Contents
L C
S yn
c JSON
Ġs ending
Ġb ug
tr an
Ġm Codec
AD MIN
reg istry
Client Ptr
Ġlist en
Process ing
Ġstring s
Ġcolor map
XX X
Edit able
Ġfoc us
ateg y
Ġ lower
or dered
str to
Ġl p
reg ex
Ġup dated
Ġd at
Ġre main
VER T
IR PD
IRPD CAP
c dev
s Per
de compress
et ype
ĠT ASK
Ġto uch
sc anner
En ter
sub type
cm pts
Ġmsg hdr
fol der
ATTACH MENT
U TIL
Con structor
pr inc
Se lector
Dis position
Ġper form
pol ygon
Ġag ent
Ġmd dev
CF G
Play back
gener ation
s uffix
ot s
ĠM ock
Ġchar s
new sk
task s
Resource Request
Ġmin imum
PI CT
she ll
U sed
h y
r th
an ity
ĠS AS
ĠC ARD
of pact
ĠF orm
per cpu
Ġact iv
R R
ur m
int ent
Ġd ns
Ġre peat
ip eline
Ġen gine
Ġuser name
PH Y
pg off
Det ach
Ġdesc ription
prop ri
Mult i
Ġ REG
or phan
ad v
ap plication
Ġ1 9
void Method
Ġh len
ĠC amera
ĠI FF
ht able
Ġex pi
Access or
ĠCOM PRESSION
NON BLOCK
F inished
T LE
n ick
p ptr
Ġc ss
ed This
Ġr aster
sc enes
alloc ation
Error Message
url s
Ġap plication
SC ALE
BO UND
render ing
Ġio ctl
CRY PTO
Com ment
Keyboard Event
B B
d ent
f lip
h z
Ġs db
Ġre quire
ĠP ost
SE CONDARY
ĠG fx
ĠO S
Web String
Ġend point
US AGE
Ġcomp s
Ġro ut
global s
crypto ctx
M onitor
T ermin
s uspend
ad j
ad ap
ĠS y
Ġre quires
ll x
eed back
US hort
Ġxml Parse
Inter val
Pass RefPtr
d ist
p len
is on
ĠN ame
Ġi de
ĠM o
back end
UN IX
AP DU
DI GEST
ĠTIFF TAG
GetImage Option
caten ate
H B
V CPU
l iteral
r val
Ġp ublic
Get Process
Ġfor ward
ĠO T
Ġerr msg
Content SecurityPolicy
TIFFRead DirEntry
st rerror
Ġt len
res sive
ay s
Ġdo ing
Ġext ernal
param Data
MS LE
hw c
Auto Lock
m ay
Ġf ake
Ġa ura
OR IG
Ġh ns
ĠM RB
iv es
Ġat tempt
ĠJ PC
Invalid ate
MSG SIZE
Ġfre ed
Ġ'+ ')
ACCE PT
C OR
in buf
me gasas
as printf
tr ansparent
Ġd n
For Testing
Command Option
pen ded
SOF T
D up
G Data
H ide
Ġ UNUSED
le ave
Ġb ps
pro cs
Pro tot
start up
ld ap
xml Char
Ġcap s
Protot ype
Ġc rc
Ġp ast
ER AL
Ġre start
able Area
cp uctx
ĠE nd
Ġk db
ĠB lock
Ex tract
UN IT
At t
ĠIn sert
min imum
Ġsh are
ĠPR OP
neg o
Ġpmc raid
H o
L ifecycle
M R
h it
ul us
AR B
Ġpro ceed
Is Enabled
Ġjs Value
egot iate
FormControl Element
GetVirtual Pixels
R SP
Ġ ),
an im
ĠN um
Ġr dma
sp ort
ĠĠĠĠĠĠĠĠĠĠĠĠĠĠĠĠĠĠĠĠĠĠĠĠĠĠĠĠĠĠĠĠ ĠĠĠĠĠĠĠĠĠĠĠĠĠĠĠĠĠĠĠĠĠ
Ġv fs
user Data
pa use
Ġ3 0
ĉĉĉĉĉĉ ĠĠ
PO SIX
Tree Node
Provisional Load
I CT
s info
ad ded
Ġn fc
IN K
ĠS Y
Ġre ceive
Get First
di ces
") -
Media Stream
Gesture Event
F inal
M illiseconds
in ner
Ġt i
non ce
Util s
Ġpol l
G en
Q P
b gp
Ġt ee
Ġ' <
Object Cache
SC REEN
Ġchunk s
B rowsing
C G
C LOCK
C ross
p Chn
u buf
Ġc apture
un do
In tent
RE PORT
ĠM aybe
++ =(
To ol
(( *
Ġle ss
cre ase
scan line
ARG UMENT
activ ate
imension s
G fx
c state
f use
p block
t uple
Ġm uch
Ġd m
ĠS AFNUM
op end
Ġg amma
ĠĠĠĠĠĠĠĠĠĠĠĠĠĠĠĠĠĠĠĠĠĠĠĠĠĠĠĠĠĠĠĠ ĠĠĠĠĠĠĠĠĠĠĠĠĠĠĠĠĠĠĠĠĠĠ
BU TT
ĠH ow
Ġlong er
track s
my Doc
pk cs
go ing
ste ps
Called OnValidThread
L VM
m box
s ense
v isual
Ġm lx
up load
ay ment
Ġg ray
ĠD W
Ġe mit
ĠH ID
che dule
ĠNO DE
Bin der
B ROW
P referred
ST Y
ĠC LA
Ġde cl
cur sion
user s
NE GO
sy mlink
ach ine
Ġpoint ers
ĠSt ate
CALL BACK
Bund led
ĠRUN TIME
BUTT ON
c sk
s alt
ut ure
Get RoutingID
Ġin s
ĠP ORT
Magick RealType
uff icient
den sity
S Z
T UN
[ *
l ush
im ize
Ġh ub
Ġr ad
ĠE ns
Ġstd err
Key Event
oper ations
ĠComp os
Ġtho se
Ġpgs ql
R S
v ui
en gine
Ġc are
Ġc iph
ST OR
ĠM OP
SS H
ans wer
END OR
ĠZ IP
Ġqu ota
inc rement
ĠThrow MSLE
ĠASC II
EXCE PTION
ĠThrowMSLE xception
" .
W rap
or ientation
Ġp rom
pt ype
Ġo b
Ġh ardware
ĠC AP
Tab Strip
BO DY
APP END
ĠApp Cache
V ED
p name
++ =
Ġit self
Ġcheck ing
READ Y
App Cache
gdImage Ptr
Sn apshot
M UT
s andbox
al ified
Ġs addr
mp eg
con struct
RE L
ĠC olor
Ġde coded
Mo grify
ĠException Info
loaded Method
Ġneg ative
e printf
x ide
Ġf amily
Ġb b
ĠS ource
Ġ(! *
ĠP S
ĠM ark
Pro mise
Browser Client
ĠSC LogDebug
Ġbl ack
vers al
FFFF FF
Sec ure
F ace
AT H
IS O
Buffer Size
met ric
enc ap
Add Observer
Ġhost name
User Gesture
Ġvalid ators
Ed ge
lif etime
MISS ING
B r
e ps
he s
Ġm anifest
ap sed
Ġa a
av pack
DI V
MSB Endian
Assoc iated
itu de
C a
J OR
st mt
Ġ1 7
ĉĉĉĉ ĉĉĉĉĉ
ĠB it
OB SERVER
Ġio vec
Ġli brary
re gno
Ġp ower
Ġf utex
ic ally
ver bs
Ġr ace
ĠI MAP
TR UNC
Image Data
View HostMsg
Ġ3 1
PRE FIX
Ġblk cipher
She lf
glyph s
ĠAP LOG
Ġc sum
Ġc irc
ret rans
Ġreturn s
get sockopt
sk top
av c
Ġex act
SH OW
******** ****
Ġwindow s
ens itive
Fail ure
SING LE
Ġscatter list
4 5
f ci
t re
Ġt w
Ġb gp
00 1
Ġget s
PA RENT
Ġsh m
Up load
Ġent ire
Ġbegin ning
ĠEns ure
s ink
Ġ icmp
on line
Ġs pice
Un s
client id
Ġan on
LAY ER
POS ITION
Graphics Context
ALOG V
V ENDOR
f uncs
i ro
p an
bu ilder
ir d
count s
ind ic
Comp ute
Blob Mode
ĠJ BIG
CUR LOPT
lim its
( ("
R IGHT
v fs
Ġt id
Ġ" '
Ġth reshold
Ġx p
Ġ' >
PR OPER
Ġ/ =
ca iro
Ġtrans ition
Destroy String
Bu cket
TRANS ITION
RenderFrame Host
YY CURSOR
EXPECT ED
D LS
D NS
un able
ut ation
ed ges
ff ine
Ġm an
RE SER
Process or
window s
tab s
Ġup per
Style Recalc
Ver ify
xFF FF
Binary BlobMode
ro ck
Ġde sired
read At
ĠĠĠĠĠĠĠĠĠĠĠĠĠĠĠĠĠĠĠĠĠĠĠĠĠĠĠĠĠĠĠĠ ĠĠĠĠĠĠĠĠĠĠĠĠĠĠĠĠĠĠĠĠĠĠĠĠ
Sc an
dp y
profile s
ENC IL
Feature List
Clip board
Console Message
ĠLocal Frame
G R
r fh
w pc
z a
an oramiX
Ġb size
tr usted
Re quired
Ġde ad
ip p
()) ->
ĠU DP
Mem ber
Thread Impl
*) &
EXIT ING
neg ot
ALG OR
A bs
S m
Ġ( ++
Ġf close
us pended
ST ENCIL
DOM Window
tcp h
util s
WA RE
gp io
mix er
Bundled Context
? ?
S oft
X P
d le
p BundledContext
Ġ LOOKUP
Ġb ottom
Ġm erge
ĠM K
col s
OT HER
cb c
xml Str
Ġmo jo
OS Q
Ġwrit ing
Ġhand ling
B SD
C ANCE
E AD
o z
lock s
ri p
sp rite
ĠR ed
Ġpro perties
mb entry
Request s
BIN D
ĠComp ute
Ġproble m
Ġ signed
le ared
ir ation
BU ILD
Ġfail s
7 2
H S
U tf
a de
c cb
p q
an ular
ex plicit
Ġb lend
fo ur
ic it
Ġo cfs
Get ID
ĠP L
ĠM OSQ
Ġu df
UN SIGNED
pu d
ansp aren
Navigation Policy
skip ped
tg a
su er
interrupt ible
ĠUndefined PixelTrait
ĠPROTO COL
ansparen cy
M anifest
f put
g raphic
l arge
ag ing
is ofs
ch m
ext ended
Ġint eger
ĠC DF
LE ASE
Sign in
sched uler
section s
* >
b idden
Ġ ]
er ved
un compressed
Re moved
reg set
sock s
ĠWeb Plugin
Ġ(" %
call data
sz Tmp
reach able
=' \
Ġauthentic ation
anular ity
b pp
Ġ items
Ġf trace
ch k
Ġ" ;
Ġde mux
ist ers
yn amic
SET UP
Ġ(* (
eter m
full screen
ScaleQuantumTo Char
Ġfact ory
Ġw hole
pa k
ĠH W
View Msg
Ġcur ve
ĠWeb String
Ġper missions
ĠZ STR
Ġnfs err
mi os
ĠMO V
Ġlin es
Automation Provider
A re
I FF
d ct
x b
st it
is k
as conf
Get BrowserContext
ĠC url
Ġl xc
DE CL
Ġv olume
print er
ĠL ine
ĠGet Next
Node Set
DR OP
Text Input
MULTI CAST
Align ment
b prm
b relse
re verse
Ġm x
Render WidgetHostView
wh en
sib ly
scroll bar
Ġbin ary
Virtual Memory
ĠApp end
Will Be
C RED
P SK
d ts
Ġp pp
ST EP
Con firm
LI KE
Ġun less
TH E
SC AN
Ġport Index
exist s
StringTo Double
OLU ME
0 6
D b
G ER
k cipher
p ur
v enc
Ġ er
str ndup
pt l
as m
fo o
um b
ĠC C
Ġr dev
ĠD NS
per cent
Is Null
Ġal t
fc lose
cert ificate
syn chron
MODU LE
Ġdeterm ine
LIKE LY
) ]
C losed
G H
g if
r and
Ġw p
ir k
ĠJ AS
Ad apter
ReadBlob LSBShort
Acquire Image
ĠFLA G
Ġcomponent s
HEV CD
Struct ure
QUOT A
A x
DE CLA
ĠM D
Ch ain
par sing
word s
Ġattr s
Script Value
Ġprovi ded
ĠDest roy
v f
Ġ* _
Ġp Param
str lcpy
Ġs adb
ĠS ite
ĠF REE
Co okies
Ġ2 00
Ġap propri
Ġ'\ \
Ġinter val
PO W
Ġcol umns
Ġdirect ly
REQUI RED
V LAN
d port
h orizontal
Ġc pp
str iction
ĠB ut
Ex periment
Ġco me
Ġro t
hook s
ĠThrow Mogrify
let ter
dt d
PROG RESS
STOR AGE
E MSGSIZE
N R
P references
h ptr
p addr
Ġs af
pt ep
Ġo mx
OR I
IT LE
pon d
Ġat om
Thread TaskRunner
NAME SPACE
CAP T
04 2
Print ing
Ġdig est
Ab ort
Ġprec ision
NEGO TI
r al
de tail
Ġd rive
Context Menu
rt imer
Ġun able
(! (
ĠNO TI
MSB Long
Ġexp and
Ap plication
STY LE
C or
l atency
s ur
de pend
Ġt l
Ġt urn
Ġb g
Ġin side
IT T
bit mask
CO DER
Rect s
CM F
LIN UX
ĠSetPixel Green
fetch er
ĠIndex edDB
Art ifact
Filled Len
b est
f ence
Ġ est
ar se
it elist
il legal
ĠP acket
ID LE
ĠH ASH
SP L
DB us
po six
Open Blob
ĠSetPixel Red
ĠWR ITE
, _
F R
r mt
Ġt t
Ġp atch
Ġw arning
Ġi hevcd
du cer
Ġkey ring
Ġadd resses
gr ab
ĠOP T
bus y
ĠSetPixel Blue
SW AP
exist ing
Ġem ulate
) ].
W allpaper
re loc
in file
Ġb tm
Ġtr igger
MA JOR
free p
AN GLE
av icon
Ġpro bably
Comp s
ak ing
ĠHTML InputElement
Ġmp i
att ached
A pi
B TRFS
co mpleted
ĠF ailed
pro x
ĠA UTH
ĠR SA
ĠR GB
rl im
COM PRESSED
Ġper sistent
Ġany way
Ġgr ab
dat agram
ĠNavigation Controller
Metrics Action
C X
L ow
c losed
w nd
Ġp erson
li pp
av ity
ll c
Web Server
Ġtime spec
ĠDis play
Ġassoc iation
ĠSN MP
ĠSer vice
rout er
ĠCommand Line
P AD
Ġc ustom
it tle
Ġp b
Ġex if
Un der
Is olated
TA IN
Ġblock ed
mis sing
msr s
Pas sthrough
re connect
Ġ( '
or ies
Ġc lock
is ContextLost
ĠI DR
ĠR FCOMM
md b
cpu id
Error Unsupported
Ġdata base
Event Handler
req s
nt l
NE ED
ign oring
cap ed
Ġweb View
Bit rate
pgs m
Root Window
rel ative
nBuffer Count
P AN
] +
k Web
an imation
info list
ĠP T
ĠA N
extent s
Rec order
deleg ation
eterm ine
G SS
N V
P DU
f ac
m otion
r ac
Ġ elf
Ġl db
ĠW ITH
du ce
rt t
level s
del im
medi ately
Ġ5 12
DOM AIN
Ġmin or
Short ToQuantum
Ġhand shake
HEV C
a Cl
c wd
i li
p data
p sk
ar ing
Ġt unnel
ver ter
Ġde li
Ġse m
OT H
Ġz oom
Add Value
Ġcall s
Ġpr imary
Ed iting
Ġacce s
Ġcontain ing
P ipe
d sa
i ucv
p Screen
id er
EN TR
Ġg re
Ġl z
ref resh
fl ate
TIME STAMP
resol ve
ĠSe lection
Gr ab
Wh en
Ġbet ter
LIT TLE
) "));
P AL
d k
m Buffer
AR M
ĠI SIS
Ġj ng
Index edDB
MT U
gen l
CHANGE D
World Bindings
Ġvir Check
ĠCl one
Runtime Features
6 55
D iv
M ac
v g
Ġ DEFAULT
se maphore
Ġt ell
th rottle
Ġde leted
Ġfor k
Error Bad
Ġy offset
ĠU Char
Ġen crypted
iter ations
PA IR
Stat ic
Focused Element
tinu ation
8 042
C rypto
c di
f tp
i Debug
n mi
s dev
w a
Ġ ask
ĠC all
Ġl arg
ĠP oint
sp lice
buf size
pl ain
ERROR S
pos sible
dir s
Ġun ique
CONNE CTION
"," `%
Ġdc cp
D ST
R aster
e o
n FilledLen
p seudo
r at
t tl
ag ed
is ample
as us
ref cnt
Ġfile system
GL sizei
Ġlo aded
GetPixel Red
REC V
m ar
u verbs
el if
tr acing
ĠF ill
ĠI gn
rt c
Node s
Time Stamp
web kit
Ġgo od
ĠVMX NET
DELEG ATE
P AS
T y
f rontend
r map
z lib
an ded
ent ropy
str cat
ĠC MD
SE QU
ĠA p
qu ency
ĠV FF
RO LE
blk no
Ġper mission
BT M
Ġpk init
ier arch
ĠSpl ash
b w
s buf
co okies
Ġin ner
ĠG C
ME T
UN LIKELY
reg round
ra ms
link s
Ġcomp ress
ĠNOT E
CLO SED
Ġdelay ed
Ġtick et
D atum
L P
T ITLE
Ġt iff
ĠM OD
ME TA
For ce
comp ound
Ġun ion
sl ash
ctl s
Not ifier
ĠDe code
CAPT URE
G enerate
H ID
k obj
m u
Ġ utf
Ġ DEFINE
en o
Ġc y
ch aracters
CO VER
max imum
Device s
bp f
Initial ized
utom at
Ġsz Tmp
Ġcms UInt
NP N
ĠBU ILD
Ġsmart Data
ĠHow ever
F ix
O ther
r le
s api
Ġs ender
ĠC VAR
dev tools
ĠM NG
Tr igger
Ġ"% .
CL NT
pass wd
Ph ar
! ",
P ayload
o date
w orld
z rtp
Ġs andbox
ri o
ĠF etch
ĠA ll
ps FilterNode
ĠH ost
opt arg
Ġadd itional
ĠRender Box
FOR CE
Content BrowserClient
ĠQ String
COUNT S
TestInterface Empty
C ATCH
G N
L Z
v host
Ġc ff
Ġde coding
key board
PE EK
Ġse l
IO Context
PA CT
Mo jo
Rect angle
Ġchild ren
Ġwork er
PASS WORD
-+-+-+-+-+-+-+-+ -+-+-+-+-+-+-+-+
ĠWriteBlobMSB Long
mach ine
9 4
A MS
B elong
D om
P epper
n of
er ator
is er
St roke
Context Ptr
ĠWeb URLRequest
Ġid le
Ġstart ing
ĠJ NI
Result s
Img Buff
M an
g ate
Ġ ancestor
he ma
is Valid
ĠP aram
LO T
Ġsc heme
Ġmem cmp
ee k
By Id
Dir ty
Second s
opend ata
S o
T ell
U int
ĠA cce
ĠW M
reg istered
Ġal ias
AB L
connect or
Ph ase
Ġrel ative
mbed ded
D N
k ex
q tdemux
at ime
ar f
ch allenge
get Parameter
SE L
ast e
io apic
num a
ERROR TYPE
ax is
hdr s
off s
Manager Impl
TER MIN
Back ing
Draw able
Ġtry ing
MAR KER
ĠMedia Stream
Ġalg orithm
Ġeb t
Indic ator
x mp
ĠN EXT
ap r
Ġd rag
ĠS M
Ġg n
Ġ2 2
Ġstr cpy
Pre pare
Ġmod ified
LIT ERAL
Ġcompos itor
C AL
M on
a h
is m
Ġ" ));
IN LINE
ĠS A
tf r
Ġmult ip
Vert ical
L VAL
b ulk
w here
Ġc orrupt
si ent
ue s
Ġin crement
bo ok
IS DIR
Render ProcessHost
Ġhe ap
TIFF Error
PRE VIEW
Scale Factor
Ġprint ing
SPE CI
K ILL
R ules
V C
p ow
t ol
Ġ Key
lo ud
Ġd ummy
li brary
ac m
ĠB Y
pa m
Ġwh ite
He ad
KE EP
Render Widget
WAR D
Ġopt name
GS QL
Ġad vance
Ġvalid ate
sTo CurrentThread
ĠASC I
Belong sToCurrentThread
i ations
n fc
Ġf open
fo ps
Ġa utofill
ser ve
ĠM EM
ĠR X
ord ing
Client Impl
Ġclient s
== '
AttributeAttributeGetter Callback
N AM
U MP
n mb
Ġc omm
DE S
pro cessed
ĠA LLOW
ĠD O
++) {
Ke ep
PC I
Tab s
PU B
Ġsync able
XML Tree
Ġmark er
dat um
siz ed
GENER IC
a hash
b eta
d if
Ġ ctrl
de queue
Ġs helf
li ct
ĠS EC
Ġde pend
pr f
Ġe lem
Ġwe ight
Ġstart ed
f utex
m igrate
r aster
co uld
ir cle
Ġv q
ĠL e
vel y
check ed
MO RE
TRA CK
PO LL
, ",
B H
C W
C NT
b v
h fs
s upp
t kt
lo st
() ");
im ized
Ġk iocb
ĠB luetooth
em ulated
comp act
Ġbuf size
PAR AMS
xml FatalErr
Ġreg istrar
sig ma
Sign ed
ĠPar cel
19 2
Fl at
Act ual
Ġsecond s
Fi lename
TrueColor Get
TAIN ER
si der
ue ss
LE D
sp er
Ġis csi
ang ing
ĠH CI
Ġun used
obj id
Or Null
Do Not
COMP S
Native Window
k m
Ġt ipc
Ġm v
ĠN UM
ĠS ize
stat istics
ĠI F
Ġx offset
und le
Ġq false
sn ap
MB EDTLS
go od
ĠStat us
Oper ator
BLANK S
ĠBo okmark
) ?
B AR
us able
RE MOVE
Ġa mount
ac ct
offset of
Ġout side
ĠWeb Core
ĠWeb LocalFrame
Char s
action s
Ġ6 0
Check er
Layer Proto
User MetricsAction
Ġrt nl
Ġchrome os
LayerProto Detect
S ENT
r df
Ġ ot
re pl
Ġ* ),
or i
Ġ" "
ext end
Get Extension
Ġg uard
Ġh list
Ġpro vider
cl t
sh dr
sv g
smart Data
Serial ized
Ga hp
I mplementation
c in
f is
f wd
in ity
or th
struct p
RE TRY
ĠC alculate
ĠM II
sub str
Block ing
interface s
Decoder Passthrough
irm ware
Launch er
DecoderPassthrough Impl
P OL
b tm
l apic
r ng
u ar
Ġ1 000000
ĠG PU
code s
qu it
(), "
Color s
Sub set
REA K
cg c
Ġinternal format
ĠSK IP
Ġevery thing
O ES
s it
y k
Ġ Info
AT IVE
Ġk ill
init iator
UT E
UL ong
Ġpre pare
rit ical
Ġlog ging
Ġconn ected
IM G
ĠTr ack
Hash Table
Ġdet ected
38 4
Cert ificate
ĠRS VP
DECLA RE
ct m
age ment
Ġm on
Ġv nc
Al g
Before Unload
hu getlb
ĠMAT LAB
ABL ISHED
L ATE
L iteral
N LA
U IT
V oice
c ube
g t
h v
w string
de li
he st
Ġf inished
Ġn ft
um in
err code
Ġd er
res ched
AL U
Ġth ings
Ġco mpleted
ĠMA Y
ĠEd itor
7 5
P alette
Ġ ri
Ġ LEX
ad m
Ġm agick
Ġo id
ĠE M
Ġ' ?
io us
ward s
Ġlock ed
xslt Transform
ĠPDF ium
PICT URE
B S
C MSG
M OT
e hci
st s
() )));
is dn
data size
dev s
ĠF MODE
mo val
sub nodes
pol y
LAN G
Background Color
RUN NING
Ġciph ers
J peg
R ing
R FC
U sing
b asename
d ip
h ide
l list
Ġ able
re play
ent ly
Ġa f
Ġh ig
Ġst andard
sp nego
sh rink
Magick SizeType
Ġme ch
ĠDis patch
Ġresol ver
lap se
stand ing
ĠTL SEXT
alified Name
ĠASCI IToUTF
! !
W E
W ANT
Ġt lv
ĠS how
Get SiteInstance
ĠD ate
ĠB y
UN REACH
Value Pool
sl urm
Bind Repeating
SEQU ENCE
Ġt ri
Ġo z
print ing
Ġset s
Ġun link
Load ImageTag
Ġtime s
fl at
PL US
ĠTestObjectPython V
ĠIgn ore
E DED
F amily
T SRMLS
b box
se mb
Ġf allback
len o
ac ces
St andard
CH O
Ġse ss
ann ing
ĠL ength
Qu ad
BUFFER HEADER
socket s
Spl it
BUFFERHEADER TYPE
J sVar
s fp
x it
Ġa way
Ġl hs
ĠB LK
Co mpletion
Ġsh ape
ĠAV RC
Ġoption al
ĠBrowser View
Ġjsv UnLock
Edit Command
MIME Type
stitial Page
INITIALI ZED
************************************************ ************
M id
W RA
c irrus
t ig
st ime
Ġb oot
ĠS EQ
Ġl lc
path name
Al ways
ĉĉĉĉĉĉ ĠĠĠĠ
Mult iple
Ġdet ect
Ġpop up
coord inates
ĠLIB XML
V ol
on ed
ro ken
Ġf t
co res
Ġn autilus
ĠS ample
ST H
gn utls
ĠF L
ĠA PI
sp aw
FI ED
Web MediaPlayer
yy scanner
Mark er
siz er
Ġ40 96
S LA
e mpl
i cted
Ġb ond
EN DED
Con sumer
ĠM FI
ĠA IRPDCAP
sp printf
CH ILD
ĠG raphics
UN EXPECTED
fore ign
cm yk
cce eded
clu ded
Ġar ound
UNI CODE
URLLoader Factory
JSTest Obj
ecp oint
! ");
S lot
p pe
Ġf our
Ġw rapper
ĠS OL
gn d
out len
PE AT
Ġ2 8
GL X
OT LI
Process HostImpl
ech o
Unable To
ales ce
Ax is
Ġappropri ate
. "
A AC
T G
a api
g cm
Ġcon version
ĠO VS
sub sampling
Touch Event
multip ly
ofpact s
. )
V A
W ithout
k ref
l sp
v sk
ch anges
Ġm LastTrack
ER ATION
RE AL
Ġre alloc
Ġa udit
Ġh older
DE AD
fa ke
ĠO ver
mb ols
Ġext ended
sub tree
ĠCON T
WR ONG
hw sim
ba sic
ĠNavigation Entry
Attach ment
ĠRenderWidgetHostView Aura
ĠNet work
Dig est
6 3
H R
Z ONE
c or
h uffman
Ġc mp
pt ek
Ġin dx
Ġh it
pro visional
For Frame
Ġ4 8
ĠTh read
DI B
CR L
DU MP
Ġsn apshot
ĠSo me
ĠTabStrip Model
Ġda emon
F ast
P ress
W T
c id
e a
e mail
h ctx
Ġc upsd
an te
Ġs f
Ġ*) "
Image Conversion
work around
leg acy
COM MIT
Attribute Getter
Ad vance
==== ====
UNSUPPORTED PARAM
ĠSite Instance
0 16
H and
M y
k Data
p references
Ġ very
un aligned
Ġo l
Ġd saf
ĠS ig
ud f
Ġsh utdown
Ġshould n
Did Change
Queue AuthenticPixels
Reply Data
Rout e
Ġma de
ĠPK CS
feed back
ĠCMYK Colorspace
MET ADATA
D UP
N XT
i op
n buf
r id
w and
Ġp Screen
Ġr f
ĠP AR
Con str
Ġx strdup
ID IOC
MA STER
ĠB B
num comps
Ġ2 5
user id
fault fd
ĠO mnibox
handle s
bd addr
module s
Remove Observer
InfoBar Delegate
Ġtho ugh
ĠMessage Loop
ar ation
an it
Ġn al
Ġm enu
ĠS chedule
bd a
Record Action
ĠFLA GS
Ġassoc iated
C SP
E val
] ]
c alled
e ip
l data
y ear
Ġ $
si bling
Ġs peed
Ġb ail
res no
RE SH
ĠC URL
pro b
oc ation
sp arse
ĠD R
Frame HostMsg
Qu ant
avig ator
Render WidgetHost
Load Event
Input Buffer
Ġbo ost
Det ached
Ġsn mp
Mod al
Ġvmx net
ste ms
ĠContent SecurityPolicy
ĠOF PACT
COOK IE
g fp
l sb
n pos
o if
p io
r ho
s ap
v pid
al ways
Ġt ss
ro l
EN U
Ġg esture
sk cipher
Ġr table
ĠA CK
ĠG TK
Ġv px
Error Undefined
STR ICT
Ġlist ener
pack ed
PL ATFORM
ĠEn able
GetFor Profile
Mime Type
Abs olute
O b
j ection
m Lock
ĠS top
Ġx fer
back log
Ġco mpletion
AP T
rw sem
ĠVer ify
M ore
Ġc fs
Ġp as
Ġd ialog
read only
ĠE WK
MA LL
Ġse lector
use s
EM U
Ġindex es
Per iod
Main World
SN MP
pair ing
DevTools AgentHost
Ġ'- ')
Tri al
B REAK
j ump
re vision
ag ain
ĠC LI
ĠP op
Ġ' );
ET TE
ĠEX P
test ing
Pl an
Ġqu ant
Visible Selection
Ġmult i
RenderFrame HostImpl
LEMENT ED
R ot
| =
Ġs pp
el imit
pl us
En ough
Ġq p
Start up
Ġpl ain
ĠWriteBlob LSBLong
Mat ches
PARAMETER S
gre SQL
Ġcd rom
GetFirst ImageInList
ĠBUILD FLAG
< =
F allback
Q com
S CHED
V IDC
al formed
Ġs len
Ġd l
Ġg pg
ĠC ustom
ĠC OPY
++ ];
addr info
const ant
bit rate
Id s
Ġxml NodePtr
Sh ift
Scroll Offset
Ġopen ed
ĠBR OTLI
stit ute
6 000
A H
B lend
E lf
E valuate
F d
[ ],
re main
ck sum
ter mios
mo st
ind ices
Data Size
Is In
ld b
Se q
STR O
MO DI
peg asus
ĠRes ult
Ġmatch ing
ALIGN ED
syn tax
F eedback
H Z
z en
Ġ INIT
ĠS ty
th at
Ġi mplemented
Ġre ds
ĠC var
Ġr lvl
(" -
ĠA DD
oc sp
ĠO p
ĠL D
Web kit
Read Only
trans late
eg r
from UTF
IF LA
Ġlog in
STRING NAME
Auth or
PL AN
ĠRenderFrame Host
Ġtx n
Ġswap l
Activ ate
DT D
ĠList Value
ĠSTAT US
M IC
S uggestion
a cpi
h ist
n link
u f
Ġ ath
se parate
ro zen
Ġp key
ĠN ID
ID B
CO UN
min us
xml ParserCtxtPtr
Ġtime val
Message Received
Ġinter n
Ġme an
drv data
band width
Ġsupport s
Sk ia
REP LACE
ĠHe ader
rsv p
ĠMem ory
H over
S elf
S prite
Z LIB
] (
f allback
i if
k ern
de sktop
Ġc alculate
Ġd bus
Ġg ive
ptr ace
ore ign
inst ant
Native View
Ġrec v
ĠBU F
Ġ': ')
four cc
ErrorUnsupported Setting
H INT
I SS
R AD
a si
k buf
m six
t data
Ġp ick
Ġb pp
En coded
ĠL ock
Web LocalFrame
Th umbnail
sub scri
olic ies
Ġid s
Not Supported
Video Frame
Ġim mediately
Ġtable s
PRO XY
TRY CATCH
hel p
disk s
Dispatcher Host
Ġes cape
mems lots
pas sphrase
Writer Exception
uar ante
spaw n
B GP
O OM
m LastTrack
Ġ edit
st age
tr ash
Ġa ren
SE PAR
ht t
Ġk TIFF
Size s
ĠJ STest
ENO BUFS
BIN DING
Ġcre ation
Ġflow i
psz Value
eas y
R NS
V is
t ss
y ond
en queue
Ġ0 0
Ġm di
ĠS oft
RE PEAT
Ġi phdr
ON D
Ġg False
GE lement
ĠGL float
Time Us
ĠRe port
tain ing
PRE SS
mod ify
DIS CARD
Ġinitial ization
band s
Generic Debug
Ġreser ve
flo ppy
DONT WAIT
ĠChild Process
Att ached
ĠGetNext Token
I CC
g pa
Ġ esc
Ġ* ((
or al
ar ies
Ġs ort
Ġf c
Ġi x
Ġr ather
ĠM ode
file size
obj p
ĠRe store
var iant
Track s
Number Of
resol ver
Mod ify
ĠNE TIF
Ca ret
PAL ETTE
& )
S ID
S ound
h ba
p error
p wd
Ġf h
co lour
inode s
Ġopt s
Ġback ing
record s
OPT S
TRANS FORM
ĠNET DEV
UNDEF INED
F X
b id
h al
p Bt
z stream
ro ker
Ġm Buffer
In secure
Ġa es
Ġr w
ĠP V
ĠG enerate
Ġstr str
pc ap
Ġreg ulator
Coord inator
effect ive
az z
EST ABLISHED
ALGOR ITH
xmlStr Equal
= ",
D L
G ID
O OB
U B
e fer
f u
ur ther
ad min
is suer
im ate
Ġd ictionary
St encil
Ġtr ansparent
EX CL
ĠV ER
Page Agent
TH ROW
Ġq true
nl k
DIS PLAY
Ġho le
Ġcr ash
CacheView AuthenticPixels
Ġscan line
Cap acity
ĠBR CMF
Ab out
PAS STH
2 7
M ID
p y
ag raph
Ġp ur
err p
IN CLU
get ter
Ġr fh
ĠF P
CT ET
ind x
Event Listener
URL s
enc ryption
TH IS
Ġswap s
alle l
ENOS PC
' .
i pt
l r
m ot
p Output
in ject
in coming
ĠĠĠĠĠĠĠĠ Ċ
tr ap
ot ify
ul ly
OR ITY
cp up
ĠP N
ĠA PP
Ġe hci
Pixel Cache
SR P
List Value
PAR TI
STRING L
gl Get
Desc endant
Ġload ing
ALI ZE
Ġpk iDebug
mems lot
Ġma jor
) "
A W
F rontend
G oto
T REE
d put
p ress
Ġd w
ĠD ix
ĠB IG
De fer
En sure
sh p
ĠL IST
PAR T
Destroy ed
DIS C
Ġbound ary
Gr id
GENER AL
Ġ', ')
l ass
m us
o h
pt or
list s
Ġv isual
sg e
Se maphore
debug fs
Ġlo st
Pl ace
LOCK ED
cr ash
GS O
JS Value
Send Error
Alloc ator
SPE ED
Insert ion
abl kcipher
aren a
EndOf File
ĠCONT ENT
htt ps
I me
L M
a con
b roadcast
p adata
Ġ eth
he ld
Ġf uture
im its
Ġd en
Ġw rap
val s
Ġa ac
Ġh b
ĠD Bus
SI Z
ng Info
Ġstart s
ĠRe lease
c losing
f ram
t ip
ex e
Ġw ifi
em bed
ra ptor
ĠX FRM
rec ent
ĠJ ust
part s
Ġpr incipal
PRES ENT
2 9
N PP
U CH
U SR
c ctx
j big
z z
en ctype
ad Exception
he rent
tr im
Ġd ist
anag ed
ĠIn s
AB S
xml NodePtr
RO LL
open ed
Pl ane
Stream Tcp
SP I
cert s
Sub tree
NET WORK
Red uction
AC Y
Logical Left
Ġarray size
Ġadjust ed
rad ius
T x
d ch
e y
m ary
ile ged
ĠD etermine
md l
dis pose
ĠCON F
atal og
Scroll ableArea
WebContents Impl
limit ed
Ġthread s
Ġoper and
ww w
xide QQuickWebView
Alg orithm
ALGORITH M
PARTI AL
H A
T MP
T OS
] :
d cb
f ld
Ġw arn
il tin
ĠA uth
AD V
Set Integer
MP I
Sh are
Sh ape
lx c
go ogle
MIS MATCH
flo or
dyn amic
ĠAuto complete
MOT E
PASSTH RU
C LI
n op
v ation
x Render
Ġc g
ĠS a
Ġg pointer
AL EN
ĠD BUS
Ġxml FatalErr
TA X
ie ce
Ġsy mlink
po sed
Logical Top
Col lection
ĠTr ace
force d
ĠDownload Item
" )))
8 5
U Char
l ab
Ġ Query
on ce
ĠS tore
Ġg uarante
Ġl anguage
Ġr gb
Ġv dev
UN CH
Ġpro cessed
Un lock
comp ose
own ed
pre load
File Exception
format list
wh at
DI FF
ca ret
process ing
ĠMA G
Ġro om
RC V
GENER ATE
ĠSK B
ĠPI PE
mar sh
ierarch y
ĠSty le
) ++;
E lem
O UL
P ause
V OLUME
p ics
s fd
Ġ ))
Ġ vertical
et ter
ĠM od
BU Long
cl amp
ĠV irt
MP LE
trans mit
MS BULong
Pre vious
ĠWriteBlob MSBULong
Compos ited
Conn ected
RD WR
Off line
Date Time
PROPER TY
A UX
K ind
P ower
P anel
t ar
z bl
un i
Ġs ense
Ġn ntp
Ġm map
Ġch ro
ĠF ATTR
ĠF LOW
LE M
De leted
Ġout buf
ail er
Ġz lib
Ġxml Str
TO OL
Has Extension
An on
eer Connection
Wait For
defer red
P id
P rec
R ound
Ġt d
Ġf w
is space
Ġ" _
pro duct
Ġchar set
rite ms
DR I
sy scall
Ġcomp iler
Key s
pm c
Ġsub tree
Navigation Entry
As sert
GetPixel Blue
prot ected
LIC IT
Tell Blob
F H
M NG
a id
Ġ* __
Ġd wc
th d
Ġg int
ĠP PP
ĠM UST
pro f
om x
ĠG tk
cl r
Ġon es
Task s
ĠQ QuickWebView
Ġrender buffer
Sync Service
GRO UND
Resol ve
Ġhapp ens
Ġacc ording
RAND OM
Ġfil p
c ross
p ch
p mtu
Ġp at
Ġi r
Ġh alf
ĠP ID
ĠB l
EX TR
NO TE
Trans late
pm cra
Ġoff s
Check ed
UD IT
QU AL
BACK GROUND
chan ism
xFF FFFFFF
Semaphore Info
pmcra id
A cc
B ImgBuff
G RA
K DC
R W
T AP
b df
h ardware
l sa
Ġp w
un g
um ax
Ġd ie
gn ame
ĠI d
free ze
Res erved
MP LEMENTED
Ġname len
cap ability
Source s
Content Settings
spe ct
resol ved
Ġgl Bind
strn casecmp
TRAN SP
rot ate
Any ToQuantum
ĠNum ber
N K
info p
Ġl aunch
DE CODER
AR GE
rc b
To ggle
cl s
sh ip
ance ll
inter p
EM IT
Ġap pear
termin ate
Ġsimpl y
Backing Store
STRO Y
Reduction Proxy
9 5
D rive
G RP
P ak
c ing
o unt
q mf
at ory
Ġre use
Ġ' =
ĠR enderer
FI LEN
Ġun expected
Ġpath s
sig algs
ized String
ĠAL IGN
spec ial
Tag Name
URLRequest Context
attrib s
ĠReset MagickMemory
Unexpected EndOfFile
A K
B and
D RAW
D esktop
R andom
p bs
in a
al en
Ġs uffix
Ġm sl
Ġr sp
ĠR oot
ĠR APT
sa mpler
Web InputEvent
cmd line
option al
mt pt
PAGE S
ĠDis able
Http Request
jsv Is
rat elimit
ĠRAPT OR
G RE
P ag
Z STR
m rt
Ġ reached
re o
ad get
he aac
ch romium
con version
ul ative
Ġcon sole
Ġre ceiver
ĠG PM
Ġk w
TI CK
ĠH ash
ty p
Index ed
Window s
Method Method
Layout Tree
TER M
ĠUn register
Ġtag s
ĠApp LayerProtoDetect
=' %
Enc ryption
heaac d
D IG
E AS
Q ETH
R atio
S imple
X ATTR
] (%
t ap
Ġ ul
re claim
Ġm igration
Ġre size
Ġa ux
Ġl l
AR P
ang les
TY P
Comp ressed
CR C
Long Attribute
Ġback end
Ġim ap
second ary
Ġad opt
GetPixel Green
short cut
orb is
D HE
J ECT
T ry
g st
o reground
s With
t age
Ġc ross
si cc
ent ially
Ġf it
tr b
ĠE LF
Ġv lan
Ġ' #
mo grify
FI FO
Web Plugin
Th reshold
Ġan al
Ġget ting
local s
cm nd
Var iable
hs list
pin o
OPTION S
Ġmis match
AttributeAttributeSetter Callback
Ġ655 35
ĠBu ild
ĠWebLocalFrame Impl
E p
m cb
r data
s co
un ity
tr ibute
us hed
Ġto ol
ĠK K
Check ing
ĉĉĉĉĉĉĉ Ġ
Ġauth or
scan f
DestroyImage Info
Wh itespace
Ġstrn cpy
G raphicBuffer
W PG
p cp
in i
Ġb f
tr l
Ġcon struct
Ġa ead
Get Entry
ĠC om
Ġis sue
CH K
port Index
Set Page
Ġex cept
Un til
ord inal
be havior
parent Node
mount ed
bar rier
Write File
fin i
ĠSetPixel Alpha
Ġmod ify
ĠMO DE
CU BE
---------------------------------------------------------------- ----
ĠDirect Class
TIFFReadDirEntry Err
E EXIST
I ED
g ame
n y
s sid
str chr
Ġm i
ĠN eed
ĠA D
ĠA UDIO
bo okmark
Is MainFrame
Attribute Setter
Handle d
Ġtrans mit
Default ed
Ġskip ped
SIGN ATURE
ENUM ERATION
lev ant
ĠGPM F
L eg
O I
c vt
g reg
g iv
m cast
n dr
r sk
id ct
Ġif ace
Ġs ur
Ġm Current
)) ->
Ġre pl
Get Default
SE VER
ĠD IS
IT ER
back up
Download Manager
Ġgr ub
Dispatcher HostImpl
Ġtrunc ated
SEVER ITY
D G
T D
U GH
V dbe
c str
c ptr
e cessary
m utt
s min
w mem
st ored
de structor
Ġt b
str icted
IT IVE
SI MPLE
Ġand roid
ĠMagick OffsetType
SA CK
Inter lace
ĠRender ThreadImpl
fn he
SER I
Ref resh
Ġsy mbol
MIN OR
verr un
World s
ropp ing
Ġdup licate
Ignoring Case
Unrecognized Attribute
arb age
C SUM
F ence
U SHORT
Ġ Validate
Ġc enter
as ing
Ġm c
Ġm onitor
Get Window
ĠF UT
IT OR
ĠO ID
mode s
EXT ERNAL
IF TYPE
sync able
ĠInt Size
ugg ested
ĠPI CT
E BAD
J son
V FS
d ib
e vi
f it
g tk
set key
Ġw atch
bu st
RE CE
vi de
ip addr
Ġx d
ra ise
context s
Qu ic
usb hid
Ġdef er
ĠJ ava
Short Pixel
layout Object
Bitmap Header
Pack age
Decl Handler
ENOS YS
VIRT UAL
TUN NEL
F ONT
L ower
W heel
m ic
p Buffer
Ġ ignoring
Ġt reat
Ġf fs
ase cc
err y
get u
Get Resource
Ġg pa
sc m
Ġpro be
SU SP
Ġid entity
Color Format
Time s
Ġuser space
Layout Box
Ġro se
Ġ... )
Ġ'/ '
H ardware
R UP
g y
Ġ Lo
at ype
un try
con straints
Ġd t
Ġi sis
Get AuthenticPixels
ĠF lush
ir ks
cur ves
UN LOCK
qui val
ĠCon n
BUFFER S
Texture Info
mul fx
sw apped
Ġev t
INDEX TYPE
mov ing
Ġalign ment
EOF Blob
vir Domain
Ġvariable s
Ġce il
circ uit
F ake
O pt
p api
ĉĉ ĠĠĠĠĠĠĠ
Ġc atch
Ġs upp
as semb
Ġi ocb
vi sibility
ĠT ask
DE STROY
pl te
Mo unt
fl t
location s
prog ressive
Ref Count
Ġnl h
Ġ**) &
Ġbr anch
namespace s
6 9
7 3
R LE
p ag
p referred
s ince
Ġ EN
co herent
In DOM
In crement
RE MOTE
Ġh r
cpu c
ĠH ttp
sg l
Ġan chor
ĉĉĉĉĉĉ ĠĠĠĠĠ
Input Type
atter ns
Ġallow s
ĠAl low
uted Style
Cre ation
ĠRegister MagickInfo
Ġsplash Mode
C fg
K RB
Ġ queued
st ops
en sure
Ġst reams
ĠP M
ĠM ove
rc c
char p
ial ias
ĠO UT
Buffer Info
iz ing
config ure
Ġpre view
Op ener
ĠRes ponse
Ġ12 7
Position ed
LOC ATION
Model Type
OPEN MP
ĠView Msg
Ġet c
COUN TER
8 000
H itTest
R SS
Y C
in spector
me an
as hed
Get WebContents
Con d
ĠD LOG
PE ER
AD AP
Set Boolean
ler t
sub stream
parent s
TIFF free
scale d
Ġar c
domain s
(' \
Ġjs Cast
Ġenc ryption
NOR M
Off screen
cli ck
LEG ACY
kv no
ĠSer ver
Fi red
ErrorBad Parameter
iser ver
c sp
c ib
h ib
n av
t sn
Ġc put
Ġp ub
lo pe
ER VER
ĠD B
col lection
OP CODE
par ity
object id
Ġper iod
flow label
Append Switch
compos ite
ĠOBJ ECT
Drawing Buffer
Experiment al
ĠThrowMogrify Exception
ar ded
Ġf irmware
Get Prefs
ĠD BG
AD B
OP R
String Iterator
ĠV IDIOC
Ġat ts
Ġcomp no
mis s
ĠCon catenate
Ġad apter
CB C
observer s
Ar ch
EXTENSION S
jected Bundle
, '
8 9
E INTR
T erm
X FS
] "
_ ("
z er
re moved
Ġc amera
ER E
ST AND
cp utime
Ġx free
port id
du al
Object Storage
CM SR
*) (
sys fs
Ġpr inter
bi os
virt io
GetString Info
TRANS FER
tc cp
ĠCl uster
firm ware
FRAG MENT
hy per
TRANSP ORT
) *(
. ,
A CPI
d j
p vc
w ctx
st ype
Ġp trace
Ġs vm
is csi
Ġm akes
Ġd vb
Ġin v
lock dep
Ġh istogram
ĠP RE
DE ST
ĠA ND
Ġe at
Ġe malloc
ĠR O
AN ON
form ance
sub frame
Ġreg isters
Int Rect
not es
Ġip addr
Service Impl
document Loader
Ġsy m
let ion
DOWN LOAD
Ġatt ached
ENTI C
nBufferCount Actual
C WebServer
S ink
n orm
p list
er ies
ag ma
Ġp fn
In to
ĠF IL
pr agma
ĠB lob
De precated
From String
Up dated
has htable
cond ition
Ġip mi
gr adient
wait queue
ĠFA IL
Ġiter ator
Ġtoken s
Ġdescriptor s
Pr inter
RESER VED
% "
- (
L atency
P ublic
S ITE
b ine
c av
l g
on es
if d
Ġf urther
SE CTION
ĠA E
ĠA CT
Pro t
Ġse en
PR N
ĠO r
Ġun its
Quantum Format
unn able
Offset s
EQ UAL
As sign
Exec State
Ġalign ed
Runtime EnabledFeatures
pit ch
eas ure
R elinquish
_ %
s Param
re order
un icode
Ġs hell
Ġf atal
ex act
ot ype
pe ech
ve red
Ġre v
ĉĉĉĉ ĉĉĉĉĉĉ
ip x
ĠE MUL
ĠW EB
col on
Context ID
rect s
rt i
IP er
Ġstate ment
Time stamp
Sample Rate
++] =
null s
WebContents Observer
cg i
Download Item
Decode ImageHandler
Rout er
Save ImageTag
INTERRUP T
Ġproper ly
cav lc
6 7
I EEE
J MP
m req
o v
Ġp Src
Ġw ho
Get Origin
ort ype
Qu it
sub sys
Id entity
Window Handle
Ġblock ing
Scale ShortToQuantum
Last Error
ĠMS PACK
DIR TY
Ġfilter s
Ġmat ched
she lf
Ġlogical Top
ĠSee k
SQL ITE
ĠPDFium Engine
* ((
O CTET
e flags
m ont
Ġc i
si p
Ġp e
Ġs prite
Ġw orld
Ġg row
Ġl if
Ġv f
For Child
Ġnum bers
VE C
ĠSet up
config uration
PP C
find Value
CI E
Scale AnyToQuantum
User Agent
Plugin s
Ġtab s
ces ses
abs olute
SELE CTOR
INTERRUP TI
ORIG IN
I LAB
f ra
h rtimer
Ġ END
str val
il ing
RE LEASE
of ile
ĠA v
Ġbe yond
Ġen coder
Ġsc r
rap her
ĠHT MLElement
Layout Unit
DIS POSITION
Back Forward
Coder Error
ĠAl so
fix up
Ġlib png
Ġfid p
Own ed
ILAB LE
* >::
N B
m ust
y es
ur bs
Ġs leep
do g
Ġnot ifier
di rent
Event TypeNames
Web Core
PRINT K
TE E
Ġtrans late
ĠDocument Loader
RC U
Ġcor respon
Ġear ly
Ġflo or
Ġgre ater
A sc
P iece
R List
b printf
g adget
m key
o ctet
Ġt ot
Ġp d
Ġn n
In struction
op lay
ĠD OWN
ĠH as
server s
Ġstr ict
CI RC
Ġcl s
Ġtask s
cred its
Navigation Type
Sync Next
ĠSetPixel Index
xslt GenericDebug
Ġ!! (
Ġpm u
Ġgener ated
Ġgc ry
Watch er
POW ER
ĠAp ply
Enough Arguments
Ġcput ime
SyncNext ImageInList
6 1
X cursor
h alf
s pte
Ġ ed
Ġc ctx
ad join
Ġb drv
ĠS pec
Get State
Ġh i
ĠP os
msg hdr
Ġsk cipher
ĠU P
," \
Ġxml New
service s
VALUE S
Ġconfig ured
right s
alt setting
vp x
ĠAP IC
ĠVIR GL
CSS Value
Ġfetch er
Extra Data
ĠClone String
D ot
D istance
n skb
t heme
u art
re ceiver
Ġp rior
as pect
IN F
Get Boolean
Ġst roke
ĠI mp
Ex pected
be at
ec dh
File Resource
GL ong
FOR WARD
ĠAV MEDIA
find Int
vid ioc
Valid ity
Ġro le
Ġtest s
Did Finish
Record ing
ĠALOG D
neg ative
Ġcre ating
Could n
Ġsr pt
ĠPass word
WH ITE
AVA ILABLE
Pred ictor
ĠBIG NUM
IPer mission
. "));
R unning
R anges
U A
e Profile
l ha
n pages
in herit
ex change
tr r
err str
err msg
Get View
data base
ĠA ES
Ġret rans
ĠH EAD
Event Target
Client s
RO AD
ĠThe se
fin ite
hand ling
ADD ING
Ġsuccess ful
Pr imary
Ġcorrect ly
Ġ` %
Execute Script
Ġgn utls
8 4
G uchar
e Level
st t
at tempt
ct s
Ġw char
ĠC ancel
ĠGet ContentClient
Ġcomp are
\" :
ĠSC SI
Sub Type
Sub mit
ĠAdd ress
resp len
EG AL
ĠChrome ContentBrowserClient
support s
ABORT ED
PRI ORITY
ĠVP X
ecpoint formatlist
quival ent
C leanup
G ame
I ENT
Q COM
a vio
ag ate
Ġp rc
Ġo vs
Ġd ct
Ġh state
ĠA SS
Ġu d
Ġ2 3
Ġex ceed
ĠV AR
Ġ3 6
update s
Ġgroup s
SHA RE
Ġmark ed
js Value
History Item
ĠSh ared
Backend Host
ĠPre pare
Ac count
ĠNOTI MPLEMENTED
egr ity
ROAD CAST
A ST
B ig
G LA
M V
g row
i info
p anel
t ml
in Header
Ġw pc
th dr
th rott
Ġg fs
Ġto s
Ġl atency
Ġr fc
ĠD PRINTF
Ġle ading
Ġor g
0000 0
call er
Bit Stream
Ġpr imitive
Ġgen l
lif e
Ġmbox list
ĠDW C
InDOM Tree
5 3
o buf
Ġt a
Ġs ax
ing er
ĠN ext
and atory
Ġin correct
ho ur
mem move
port Defn
ec rypt
ĠIn st
MO USE
dp x
Ġdev tools
Dest ination
Tree Data
Scroll ing
Float s
vp n
oth ers
Ġindic ate
anal y
Colormap Index
A MA
P reference
c ma
c amera
err al
In strument
Ġin dices
Ġr m
ĠP TRACE
ime m
Ġth us
Ġe strndup
ĠW ork
alloc ator
node set
bl t
Object Ptr
FO RE
IC AL
sum med
Check sum
gl Bind
Ġline size
pack age
Ġprofile s
VAR I
Ġprot ect
ĠInt Point
Ġhint s
ĠTrans form
Specific s
D WORD
M is
c cp
d ash
l ft
un written
ot entially
ack ed
ĠA nd
Ġx id
ĠW HERE
vm et
Web Page
Page Transition
IL ITY
Entry Box
Service Factory
Sy mbol
Inte gr
Ġsec ure
IfN ecessary
egot iation
watch er
THE CONTEXT
8 1
B MP
C lean
H tml
I PE
c ale
d q
n Flags
Ġn exus
EN CODE
Ġl ang
Ġr sa
Con tig
key block
Is Active
Se parator
Quantum Scale
Ġxml Parser
og rapher
cce ed
stop ped
pk init
vq s
Ent ities
activ ityLog
Ġhel lo
tim ers
orb ell
E SP
F older
L ARGE
k OutOf
p Src
an za
Ġif p
Ġb n
Ġw in
Re cip
to String
cp io
ĠF ont
art beat
ib ution
cl c
Un its
List en
Request ed
Text ures
are st
VI R
buff ered
apt ive
mod s
TIME S
ĠFrame Msg
ĠCUR LE
Tra versal
Ġcap abilities
Ali as
Ġct m
Pix map
N aCl
W S
n Frame
p grp
r to
w t
Ġt bl
Ġp seudo
un init
)) {
Ġsize s
Ġend ian
Ġup load
Invalid Argument
ĠSt orage
ĠTIFF Error
Switch Value
mer ged
Cmd Data
Ins ufficient
Preferred Size
H ex
L inux
M easure
O V
b ank
o sp
x chg
et ic
Ġt iming
Ġb i
len ding
ab ling
Ġa ut
Ġin c
ry p
Ġh ard
ĠI RC
IT S
Co ding
ML X
Ġas sign
Color Ptr
Ġcl a
wq e
HANDLE D
GetNext Token
abl ished
ĠSY N
D ist
G MAC
h nd
t size
Ġ* ));
de sired
Ġc pl
Ġif a
ĠN ative
Ġre nd
Ġa m
Get Controller
Ġin coming
AT T
ĠM AP
ĠA CPI
out Header
ĠG r
__ )
TR AP
Ch allenge
EX TRA
CON TAINER
Ġal ert
ĠIn line
work queue
blk if
fl ac
Update s
vector s
Video Decode
pair s
ĠLayout Rect
Ġsu bject
meth x
ĠService Worker
% .
S EN
\ ",
b undle
l cat
n P
s len
s low
t fs
an sient
Ġs anity
Ġn c
ch ans
con g
** )&
Ġ' !
PR IO
FI RM
Ġas path
Ġreg istered
sm all
User Data
Ġinterrupt s
Cred entials
Ġabs olute
ĠCache View
QUI ET
Io Status
O mnibox
P ADDING
e vice
f abs
h h
l cd
m Data
in cr
it Card
an a
un e
Ġi ph
Ġre ject
dr ain
cp ath
Ġto Render
read dir
qu ote
Ġ2 04
FF IC
IP v
CA PE
DI M
From WebContents
ĠRender Block
has TagName
Local izedString
ĠTest Obj
Ġwant s
Ġconvert ed
UNI CAST
Ġhold ing
ĠCL ONE
HY s
ĠBY TE
Serialized ScriptValue
kOutOf Bounds
8 7
M aster
d ont
f lex
h File
l n
Ġ UNKNOWN
re cover
Ġm ix
Ġ" *
ST A
ĠM in
ip ut
num eric
UN PACK
PR OB
FI ER
ĠO ff
client data
On MessageReceived
Ġsi d
recv msg
ĠTr ue
UST OM
Ġacc um
COR RUP
4 7
5 2
A CC
H RM
T ick
T ake
U UID
Z STD
p I
s Out
v en
int ro
ol key
Ġh ci
Ġr l
ĠX GMAC
VER TI
NE G
off load
IF D
first Child
MI SSION
FE AT
Draw Info
ILL EGAL
Encode ImageHandler
nodeset val
0 9
E st
N exus
Y R
k hz
r chr
t mpl
z isofs
Ġf ew
Ġo mp
ĠS P
Ġh p
ĠC ode
ĠF lags
ĠE IN
MA IL
ĠB e
Ġj ump
ok ed
AP LOG
ĠSet ting
Par sed
Format Context
Ġsi l
sect s
JSON Reply
compos iting
Ġreal m
ĠLIB CURL
Rel ative
GetLast Committed
SHAD ER
Ġcss ValuePool
Dup licate
ĠPN GLong
d v
k ctl
k uid
l azy
t file
t cd
er ation
Ġs ol
Ġn do
Ġ" \"
ol l
es p
Ġre load
Get Widget
Ġv iff
Ġk Not
Ġk ern
For Target
omm u
bl ings
pth read
COM MENT
EC DH
pol ation
slt Date
ĠFile System
Binary Exception
Ġoper ations
ĠNotification Service
Sw apped
sil on
+ =(
/ ",
N eg
] ++;
e le
Ġs low
mp olicy
as hes
il t
ig ori
Ġre gno
Ġconst ant
ĠM T
ick ness
ĠE CC
Ġco ord
Ġex ponent
View Source
ĠGet Image
On IO
SU RE
SU ME
STR IP
CC tx
Ġcomp uted
Ġxml GenericError
send msg
Ġcl azz
Ġpl gctx
Ġline ar
sm tp
Ġvalid ated
draw able
tt ps
Min imum
ĠRenderView Host
cancel led
CRE AT
OWN ER
fol low
strto ul
synchron ize
ĠAv ailable
A lert
F N
d ur
n x
s up
re x
in cognito
Ġc info
Ġc leared
str icmp
Ġs core
Ġd r
ode v
ĠS B
Ġa io
ĠC lip
do i
do ff
sign in
Ġr val
ĠI RQ
Ġk v
En crypted
Is Undefined
ild card
Se parate
Ġun supported
leg ated
blk s
Ġport s
Navigation Params
Ġsi z
assoc iated
Form Element
pad ded
APP LY
YS QL
ĠIO CTL
gre es
INST ANCE
SAS L
ERE START
E PT
T SC
k iocb
o hci
p ick
ret ries
Ġp cap
ch at
tr acer
Ġreturn ing
ĠN EW
stat ion
Ġh u
read ing
pr im
Ġres ume
EX PORT
ĠGet Document
ĠWeb View
Text Track
Ġcount ers
Ġop acity
Ġdis position
Header Field
ĠString Info
PL TE
ACT IV
compat ible
ĠInput Method
Spl ObjectStorage
Margin Before
AMP LE
meth y
ĠVer sion
Ġear lier
ĠOut put
Ġer rout
ĠOmnibox View
ADAP TER
E FER
G ap
L NK
s name
z v
Ġc cc
im iter
In ch
vi ps
Re maining
Ġg True
to o
out file
CT R
ĠW avpack
Ġtr ap
reg ulator
String Printf
ĠL IN
ĠL IBU
Ġcomp ound
auth ctxt
Ġfunction s
Sy s
ĠCHECK SUM
Ġexec ute
ĠTestObject V
Ġwrit es
Ġbet a
ĠNP ERR
Ġuc ma
Exist s
ĠLIBU SB
C USTOM
D W
c rm
f ptr
Ġ ER
uct xt
Get SecurityOrigin
AL K
ren ew
St ub
IT CH
Error s
NO FS
bl ank
ĠWeb RuntimeFeatures
ĠThrow FileException
Bound ary
xdr s
function s
ĠCo unt
SecurityPolicy Impl
Referrer Policy
Go ogle
Unsigned Long
8 3
B LA
J NG
L ive
O JPEG
f un
m dev
Ġ RETURN
in str
st able
ut c
Ġf rontend
as ure
ic ate
Ġa aa
Ġin o
** *
sp ool
Pro ducer
ĠV GA
node Tab
Buffer Type
Ġle g
RO UGH
Add Interface
ĠRender Layer
Child View
oot er
Line ar
Did Commit
ĠSU B
Ġrq stp
vo ice
Activ ation
ĠAutomation JSONReply
acces sibility
C var
G G
K GD
X IO
o ob
w ide
it ch
is sue
Ġo sp
Ġo hci
get s
ver ity
Ġch an
ĠP icture
ĠA ct
Ġe crypt
()) .
event fd
LA UNCH
TYPE S
play er
KEY S
Ġdef inition
Exception Messages
Or Create
Stream ing
BO OK
Ġstring Builder
writ able
cre ation
Ġwork s
WebView Helper
resolution s
ĠDis card
ĠSe arch
Ġexp ression
Cap abilities
Ġreplace ment
quant ize
ateg ory
cho oser
Stylesheet s
lipp ed
PUB LIC
Ġecrypt fs
> ");
P ayment
a ud
c df
d ropped
n ump
s ans
Ġc url
an sion
Ġp Dst
Ġb bb
Ġm utex
Ġint ra
Get SwitchValue
ĠT C
SI L
Ġbe come
ok en
Ġxml Node
Ġid ata
Sh ot
Ġadd ing
PO SE
ĠQ OMX
Ġsi bling
clu sion
Ġsocket s
ĠTest ing
exp iration
ĠSk Bitmap
Tex Parameter
mg mt
Ġdig it
stand alone
Support s
A RE
D ID
b tree
c FYI
p ReplyData
q eth
u h
Ġd dd
Ġin crease
Ġst a
of putil
DE LI
Ġv endor
For Test
Ġkey board
Cur ve
Pre v
aint ext
ĠOn e
ĠThrow WriterException
Ġover lap
ĠCh annel
ĠFrame HostMsg
ha sis
CLA IM
ĠSync Image
ĠQuantum Range
pValue Size
C ros
M ENU
d cmd
e rest
g lob
k a
p al
p el
s list
s ll
x cr
it of
an out
ing Box
im ap
ĠC annot
St reams
ĠA RG
per net
ID R
ind irect
Ġout er
ĠAV IOContext
cred it
ĠSV G
SLA VE
itof x
G IS
H AL
M ul
R x
U sb
b or
c string
f cc
k unmap
Ġc li
str ategy
info s
Ġa cpi
Get Size
Ġh fs
ĠT SC
Ġr untime
ĠG lobal
Ġk Num
ĠB LINK
Ġex ample
cb p
input Type
mt ab
Ġ'\ '
TO UCH
phy sical
Unique FileResource
Ġsec ret
Temp orary
Ġel apsed
Gener al
TabStrip Model
H UP
P a
P ict
V OL
c wnd
k addr
q dio
r layer
u ce
w ow
Ġ VALIDATE
Ġs x
fo ld
li ance
es caped
Ġa st
AL GO
ĠM PEG
ĠG AH
ĠE vas
fs blk
ĠB P
Log ging
Render Manager
HT MLElement
=% "
Ġuser s
Pl us
tem pts
Tree HostImpl
EC DSA
Sp acing
Post greSQL
Bl ank
Ġmod ulus
sack ed
ĠLayer TreeHost
Ġindic ates
ĠDevTools Window
Visibility State
NEGOTI ATE
ENTR IES
marsh al
ĠWEB KIT
: ");
F ATTR
P aste
h ance
p keys
Ġd tls
es n
Ġg state
Ġr ules
** /
ĠM ult
pro d
Ġu dev
Ġk Key
Ex if
pa used
ĠO ption
write back
Time To
ĠEx tract
Ġaddr s
Ġinter pret
Script State
render buffer
spec ified
Native Handler
Ad ded
Notification Service
Bytes Per
Ġhw addr
Ġ'. ')
Ġfib er
Ġld ap
ĠMAG IC
E FLAGS
M ix
j h
j id
p Parse
q id
re interpret
ar ison
Ġt cm
Ġp list
Ġ" =
Get Data
ip er
per ms
Ġe of
net device
next Sibling
ĠGet Process
ĠEX IF
ĠEX PRESSION
PC LIENT
sig set
ĠQ ETH
ĉĉĉĉĉĉĉ ĠĠ
Ġmay be
MSB Short
imp eg
ĠReadBlob XXX
Uniform Location
workaround s
ĠLD AP
DRI VER
R TP
] ];
d ating
l ator
p skb
u ous
Ġp Sprite
he mer
Ġif def
Ġs rp
is HTML
Ġre m
name d
ĠM ap
SE x
out er
Ġx attr
ID AT
UR LA
ĠR untime
Ġbe havior
ĠL ink
ler ated
From List
Memory Info
sig lock
ĠCon fig
MI X
ten ded
Ed itor
TX t
Fetch Context
Mod ified
Ġresol ve
Ġsign in
listen ers
tre es
4 9
5 8
B asic
F lex
V GA
e uid
g ain
h slot
j bd
p chg
t dir
re map
In Progress
li de
Re start
ĠC RC
ĠM M
LE T
ĠG IT
io a
qu ad
Image Format
SI BLE
EX PI
ant ic
ĠX MP
Web Bluetooth
File Error
are Data
PP ER
Inter cept
SC ROLL
CI FS
Ġsub mit
hw nd
Ġopt arg
All Worlds
Debug ger
ĠSc reen
ĠSk Color
LIC ATION
pSMB r
abl ish
Anim ations
Ġattach ment
Ġcast edThis
Ġrout ine
ĠSa fe
ĠGAH PCLIENT
5 00
8 00
d imensions
g raph
s max
u ched
w mb
Ġp ptr
im ization
Ġi mplement
ac cel
ma Value
ĠA UDIT
sp d
ĠR DMA
Ġstr tol
PA USE
TE CT
UP SD
Ġvm ci
PRE F
DB L
true size
Parse CommandOption
sist ency
Codec Context
100 1
Ġ# %
ĠAX Object
Ġnlmsg hdr
ĠCLA MP
J NI
N AL
P N
Y PH
a mount
d sp
f ps
i et
i sed
Ġt c
Ġt emplate
Ġs up
Ġd ropped
get Bits
ĠA SIC
out going
Ġ' ]
ĠB ind
new file
PR NT
ly ing
sa o
Tr acing
met er
Met ric
ĠCon tainer
START ED
ĠIN S
ĠIN TR
Ġextent s
orith ms
sort ed
DEN IED
ĠDet ect
7 9
B ROADCAST
P ipeline
W ide
X cli
h ig
o chrome
s V
s ol
v net
x save
Ġ locale
or ol
ue vent
th etic
vi ation
dr a
Ġg index
Ġg rp
OR B
col ortype
Ġres pon
Ġse parator
Ġex tr
ĠV NC
valid ation
List Length
*/ ,
ĠRender ProcessHostImpl
del alloc
Status Type
Ġqu it
exec ution
As String
Ġreference s
expi re
Ġtrunc ate
arc msr
site Settings
Acces sible
EXP AND
Cor ner
INTERRUPTI BLE
ĠImp ort
S upp
V T
c list
c upsd
e val
g pr
Ġ ig
Ġ likely
Ġ Video
Ġs ays
Ġs scanf
Ġf ds
Ġd ra
li pt
RE CIP
Ġre present
Get RenderViewHost
Ġh orizontal
(" [
sc b
length s
Str ide
ance led
net bk
Ġ8 0
VER B
Text EditCommand
Ġreg ular
Exception State
DO UT
web Page
Observer s
ĠRes pond
ĠUn known
rv h
rd a
IB LE
Ġ%% "
Ġ'< ')
ĠLo ok
ecrypt fs
ĠEIN A
S lice
W alk
b ble
h rd
m dep
t RNS
ar cb
Ġp referred
tr ns
im ated
Get MainFrame
Ġst m
SE CTOR
ĠA rray
Ġ' *
ĠW arn
av en
ta ined
Frame Owner
Ġerr buf
Ġun compressed
Browser Test
Destroy CacheView
Ġim m
Ġref count
Ġexec ution
88 88
ĠOFP ERR
DIRECT ORY
Ġexplicit ly
negot iate
orol a
E m
P papi
c grp
g raphics
n ritems
x A
re quire
se parator
Ġc df
un supported
str str
Ġn orm
im ers
Ġr anges
Ġde al
ĠP ATH
Ġu v
io b
Set Window
EX IF
log s
mod ifier
Open URL
AUTH ENTIC
STOP PED
ĠCA ST
TIFFGetField Defaulted
SCRIPT OR
GetInteger v
Ġprom pt
CANCE L
lipt ic
m ock
m aybe
o len
Ġc losing
ex pect
as signed
bu bble
get UInt
EN XIO
ĠP ort
ĠG N
Res ume
ĠWeb GLA
ĠIn ternal
Ġat of
Resource Type
qui et
Ġhe ld
ansp ose
Layer Info
ĠAL PROTO
den y
havi our
ĠNP N
Ġ655 36
VERT EX
BROW SER
instant iate
! (
4 00
L etter
i CCP
m cl
t wo
Ġ* );
ex periment
el t
res ync
ĠS ign
AT IME
Ġr dp
ĠP ref
St age
ĠĠĠĠĠĠĠĠĠĠĠĠĠĠĠĠĠĠĠĠĠĠĠĠĠĠĠĠĠĠĠĠ ĠĠĠĠĠĠĠĠĠĠĠĠĠĠĠĠĠĠĠĠĠĠĠĠĠĠĠĠĠĠĠĠ
Ġx en
Ġtr acing
Ġco lour
Ġout len
EX CLU
Ġan imation
trans act
cast edThis
From Milliseconds
Input Handler
Ġspec ify
Ġfd ctrl
Ġseg ments
QU ANT
ĠSe lect
pri me
44 4
WID GET
ĠBit map
imem ory
D AT
E CC
F oreign
S u
c Role
d pi
p ctx
q f
r n
return ed
Ġs RGB
end p
Ġw or
Ġa hash
Get Authentic
to c
Ġl iteral
Ġde crypt
ĠM et
ĠM NT
out bound
ĠI PP
ĠI FLA
io Buf
To o
reg istrar
attr val
], &
Ġq mf
ĠPro gram
IV ED
AG ER
Hel lo
Ġprevious ly
Ġcompat ibility
Ġlogical Left
fib er
author ized
SHAD OW
UIT hread
F TP
I HEVCD
c losure
Ġ REQ
ĠP IN
ĠP CAP
Con tr
SS ID
valid ity
Comp at
Ġcount s
12 7
qual ification
ĠSetPixel Opacity
EXEC UTE
ALIGN MENT
GetImage Artifact
OVER FLOW
Ġpf key
PROM PT
Ġrf comm
) =
L B
P anoramiX
S ent
a ura
l disc
n emon
r pl
x path
at of
se e
ce eded
un safe
Ġs uppress
In side
il ar
ac ce
LE TED
mo jo
Set Bounds
Ġex pr
dir name
\" \
Pos sible
gl ue
Task Type
DIS CONNECT
AV FormatContext
Ġbyte buff
Parse Geometry
exp n
ĠEXT ENSION
SYS ENTER
CRY PTION
Sa ver
Delay ed
Ġsmart list
nto hs
eo location
DG RAM
2 10
D PRINTF
M achine
c al
g m
k Network
w m
Ġ" #
ĠN ormal
Ġd ynamic
and alone
RE COVER
do orbell
ac cessed
DE SCRIPTOR
AN AL
ib us
comp parms
Ġwh y
opt name
ess ence
Ġq cow
Ġlog ger
change Data
Ġnon ce
PG conn
Ġgd Fixed
oper and
ReadBlob MSBLong
Paint Property
Push ShortPixel
ASCI IToUTF
Ġsmall er
normal ize
rf comm
pur ge
SEx changeData
" )));
F mt
c arrier
p Data
ret ch
Ġb roken
ff inity
ot on
Ġo vl
Ġd ont
RE DIRECT
Ġch ip
Ġh s
ĠC OL
ĠF rom
(" _
io arcb
Frame View
her ited
DI ALOG
Int errupt
Ġper m
den om
Ġspace s
Pref etch
bm val
ĠSecurity Origin
ĠWebPlugin Delegate
Prec ision
hemer al
ORB IS
> "
D en
G IT
G UID
H MAC
S um
l ut
p reserve
p HYs
u cm
Ġ ash
Ġ illegal
Ġp anel
Ġf lip
im s
ren a
ac ent
ĠG dk
SI M
comm ended
PA Y
Ġmo ved
FO URCC
bs sid
Tab Helper
Ġsi m
ĠDe bug
slot id
Ġpart s
PATH LEN
cat c
rot li
ĠScript State
Ġphy sical
ĠMK TAG
Ġlarg er
ĠAuth entic
ancell able
TIFFReadDirEntryErr Ok
ĠWebGLA ny
& (
1 16
J AS
O id
T OM
i vely
v cc
se qu
Ġs buf
ex ponent
pt odate
is digit
ch arge
In ner
Ġg raphic
OR M
ation al
ĠT IO
Ġst dout
valid ated
Ġen crypt
Read BinaryBlobMode
Ġtype def
Dis pose
Ġhandle s
br k
CL ONE
Field s
bi as
Ġsa mpler
Sk Color
Ġcap ability
INITI AL
,"% .
Anon ymous
Arch ive
STAND ARD
C LEAN
F avicon
M IG
N AV
P assed
X FER
h va
x ps
st anza
Ġs vg
Ġn dp
Ġm ot
con sumer
IN HER
bu iltin
RE LOAD
Ġg b
Ġl data
), (
AR CONFIG
Ġk XMP
ĠR LE
vm Status
Ġse parate
Ġex port
For URL
Id ent
og g
ĠID AT
Layout Manager
cred entials
Err Memory
ĠResource DispatcherHostImpl
Ġmm u
The Record
ĠHe ap
WebKit WebView
Ġconsume d
ĠLIN UX
3 7
4 6
E LEM
S uspend
c n
p ir
st k
Ġ( ~
Ġt alloc
un set
ase s
CH R
ĠG ROW
Inter stitialPage
Ġqu ot
CUR VE
Ġlay ers
Ġlock s
AC COUNT
ĠNO TIFY
ĠALOG W
Full Screen
BR ID
COMM ON
Compositor Frame
uggestion s
ALLOW ED
rlvl s
sOut PortDef
% %
6 2
S ynchronous
X Ptr
h row
k Not
s Enabled
t link
Ġ ctb
et c
Ġs in
Ġm er
Ġd len
Ġd pi
get uint
Ġi ke
EN AME
Con tinue
ĠF inish
DE CRYPT
ĠG IF
pl er
red s
CE IL
CO W
ĠU DF
Index Queue
test s
Ġindex ed
Command s
signal s
ĠCh ange
Ġversion s
man y
Ġcp umask
pix map
Ġsys ctl
Ġpol ygon
ĠCSSProperty Webkit
Ġpcm Params
ĠTabContents Wrapper
Ep silon
nemon ic
' )))
= ((
f to
k On
n ul
w dev
Ġ icc
st y
as path
ĠN R
RE START
** )
row bytes
pl s
Ġk ind
Ġk Invalid
Ġit t
Un pack
be acon
ĉĉĉĉĉĉ ĠĠĠĠĠĠ
READ ABLE
Par agraph
Ġper cent
TIFF SetField
Ġcl c
uri A
initial izer
Post GIS
Ġconnection s
vol tage
utof illed
Ġsuccess fully
Gr avity
TF M
Wait ing
ewk View
Program Info
HCI State
Splash Coord
Place holder
B F
C alculate
D im
E FFECT
M e
N TP
t LVM
v isitor
x C
al proto
Ġs Type
Ġde tach
ĠM PI
sp acing
Ġret rieve
IS REG
ĠU LONG
acket s
pc r
Ġext end
Blob Size
DR M
MS C
TH RESH
ĠTh at
Int ToString
Ġdis connect
gr CX
SP ER
Long Pixel
screen s
Failed To
ĠBrowser Context
float ing
we ep
Doc Ptr
bucket s
Link ed
Ġproc Name
Ġscreen Info
ĠWindow s
Ġband width
Missing Argument
ĠWebPage Proxy
pan ic
M otion
P GSQL
] *
k w
m igration
m trr
w heel
x i
Ġp Cur
Ġm Data
Ġo fs
ĉĉĉ Ċ
Ġint f
ve lo
Ġi rc
ĠC ommit
cp p
Ġl ittle
ĠP h
sp p
Ġv op
mo oth
UN SPEC
node Nr
UE V
po of
Next Image
Sp ell
ĠEXT ENT
ĠHTML FormControlElement
fil tered
Component s
Wh ite
Ġbind ing
Ġprovi de
Unicode Set
Ġcirc uit
Ġexact ly
letter s
utomat ically
Constr ain
OPR OTO
> ());
@ @
B C
F oreground
L azy
L ines
d gram
ex c
IN COMPAT
Ġint r
Ġi ucv
Get Value
Ġch m
Ġch anging
ĠT IPC
Ġ*) ((
ction ary
UN SET
Pixel Info
message Data
ĠMagick Max
GL YPH
IC MP
HT M
ĠAV Stream
og us
nl s
DOM Method
WA KE
ĠFrame View
Ġinst ant
fil m
******************************** ********************************
Off TheRecord
acc um
Make Unique
ASS OC
Ġcorrespon ding
ĠTesting AutomationProvider
sV enc
E CP
J s
Q T
S ites
r tr
x mi
Ġf seek
Ġf ully
is Auto
Ġn buf
Ġn ick
tr k
set attr
res v
ĠS eg
Ġi rda
Get Tab
EN V
ix es
ĠI SD
De pend
Ġse p
Error Code
di ctionary
SR CH
DR IVE
task let
Ġdef ine
bin file
Max imum
Ġ6 3
mount point
sd kp
ĠPro perty
ĠRE S
Ġne igh
Ġreport ing
activ ation
ScaleQuantumTo Short
ĠAn y
comb ined
nof id
BLA CK
& =
B TIF
R OT
d Value
e ol
e pi
if addr
ar ry
Ġt erm
is n
ĠS te
ĠT able
pro ceed
io mem
node mask
Ġdis c
Method Call
SP S
call ing
MAP PED
Ġmod ifiers
ĠIndex Packet
ROUT E
Ġfact or
ĠQu alifiedName
Ġcpp Value
VideoDecode Accelerator
ĠReadBlobXXX Long
B erry
D BUS
[ ])
d ither
l ated
r ps
ro ps
Ġf ar
Ġb box
Ġm Num
Ġ! *
ĠS helf
Ġre loc
Ġre verse
Ġa pe
Ġin Header
ST S
ren gth
SE LF
Ġv sock
Ġ' [
EX ACT
For Navigation
Frame Msg
Ġcode s
Tab Util
BO OT
Block s
EC N
ai ptek
Del iver
Ġsm tp
ĠException Messages
CLO EXEC
Ġsee ms
ĠFO LL
pref etch
Same Document
TAIL Q
Ġsyn tax
ĠSig maValue
Ġhu getlb
OPROTO OPT
P V
P k
X M
n cm
w id
Ġ Quota
re paint
Ġp Chn
str buf
ĠS imple
Ġa fs
to ur
ren egotiate
ĠD CCP
eb o
ĠE L
UR B
ĠW IN
ĠL et
nd p
Ġstr m
Comp ile
chunk data
ĠJ SP
ĠRender Object
Op code
Ġbit stream
Ġinter lace
EVENT S
Loader Client
crypt d
ĠTI ME
HTML Names
tm r
Ġcontrol s
APP LICATION
ĠJS ON
MAN AGER
Horizontal WritingMode
RENDER BUFFER
Exist ing
ĠRuntime EnabledFeatures
B LOB
D IO
e pos
j avascript
re ject
co alesce
im ulate
um idi
ĠS IO
OR RECT
ĠT SK
ĠF ix
CH AIN
msg len
ĠV ert
inter stitial
Dis k
Ġreg ex
create Value
Ġser v
Style And
Reg istration
Has Key
Ġro ck
ich dr
Profile s
job s
ĠThrow BinaryException
ĠLayout Point
INST ALL
INITIALI ZER
Tool bar
' d
8 2
A REA
D RA
H D
W ALK
d SubType
f light
m ad
p Page
s qlite
u data
Ġ OR
in val
Ġp Win
Ġf illed
is or
Ġn x
as y
fo pen
Ġm achine
Ġg ap
Ġ/* ************************************************************
ĠP ush
UR ATION
Ġk vec
Ġps FilterNode
PA RE
DR OM
dest ColorPtr
Ġq tdemux
Create New
FO C
Inter pret
IC S
Module Export
DOM Getter
Array s
JS Object
loader s
lic ense
Def ined
Sa mpler
ĠWebGL ImageConversion
ĠScript Value
ear ly
ĠPer mission
Ġpas sphrase
Ġike v
F AN
I ZE
L atin
a fi
t napi
str ap
ex clusive
() \
Ġo dd
um ing
ab ric
Ġl len
ĠF ixed
ĠB DRV
Vi a
For bidden
time scale
server name
pp i
Ġstart up
Ġmax len
DI C
Ġtime o
cc m
dup licate
reply Size
gd TrueColorGet
Ġgd k
ĠExtension Service
mul ation
cle ared
su ite
ced ence
Ġvir Report
ScaleQuantumTo Any
ĠMP OL
ĠUser Metrics
Composite Op
Ġsas l
kChrome UI
Ġdeli very
kData Format
anit ize
ĠPos ition
JNI Env
ĠSeg ment
D a
D lg
I ER
c ue
g pgsm
t tf
w k
Ġ* ++
Ġ" ]
ĠS END
Ġin flate
Ġr and
ĠM ust
ĠD WORD
ĠD esc
ĠG o
rc d
Ġv rrp
Ġtr k
Ch aracters
PR IM
cl asses
ĠH FS
sub s
point ers
space s
Document Parser
Not e
PER MISSION
CHAN NE
Texture CHROMIUM
BL UE
ĠPG M
Ph y
MULTI P
authentic ation
ĠAd just
ENOT CONN
ARGUMENT S
WRA P
rol led
. _
= (*
F id
R areData
S peed
l seg
m ib
n oc
p nt
al ternate
it ter
Ġf read
Ġb ogus
pt p
() [
ic u
im r
ĠP ath
ĠM ON
ĠA CCESS
ĠE INTR
qu irk
ĠR D
CE PT
Set Needs
OP S
Ġout Header
ED GE
header len
UT LS
by pass
uint ptr
spin lock
Ġpar allel
CR IT
Per cent
Ġqu ote
Sample EntryBox
Init iator
over lap
pin ned
Ġpass wd
MM IO
Swap Buffers
det ect
Ho ok
Sm art
depend ent
empl ace
taining Block
9 7
9 15
B M
a utofill
d tls
f async
l at
s qu
s uspended
t BTA
y start
Ġ ether
at ives
Ġt sc
IN ACTIVE
ĠT ree
ĠI G
ĠI CC
row size
CT hread
Ġe ver
red uction
string l
add resses
Ġco ding
String Piece
Ġj p
ĠV olume
At ts
Ġstr casecmp
Ġle ak
sy mbols
Ġreg istration
Al t
ĠRe verb
AND LE
Browser Main
Ġpl us
Ġserver s
Var iant
ĠFrame LoadType
disable SAX
factor ies
Ġrv h
ĠRenderView HostImpl
mon th
INC ORRECT
Fl ash
ĠNET LINK
Ġ14 55
Fatal Error
Cred ential
Cred itCard
Ġhex dump
nv ram
Vis ited
A rena
D ash
L UT
U GO
f q
h alt
k Default
s rgb
t cm
en ch
al pn
Ġc ma
id t
Ġp Reader
Ġs dp
is olated
set Parameter
ĠS PL
th rough
Ġcon sider
Ġint ent
ver def
Ġh ack
ĠF LT
ĠĠĠĠĠĠĠĠĠĠĠĠĠĠĠĠĠĠĠĠĠĠĠĠĠĠĠĠĠĠĠĠ ĠĠĠĠĠĠĠĠĠĠĠĠĠĠĠĠĠĠĠĠĠĠĠĠĠĠĠ
Ġk map
Ġk dc
Ġstr rchr
IO Data
SU PER
ĠRe place
Up per
Ġlist s
Input Stream
Per form
EL F
Ġbl ank
ĠFrame buffer
descriptor s
Ġlook ing
ĠInspector PageAgent
ĠCO DEC
deli ver
xsltTransform Error
Defer red
Grid Layout
E ADDR
F W
P UR
Y G
b ing
c am
g fs
p DLS
Ġ ion
Ġc at
et ween
Ġt re
Ġp This
Ġb alance
um ount
us r
ĠC LO
Ġ' _
Ġse ed
Ġal en
Ġen vironment
ĠRe size
ĠFor ce
ĠAdd Extension
Audio Context
plugin s
seek able
ĠSetImage Colorspace
Ġrecord s
Mult ip
Ġlin enum
Timer Fired
ĠAS F
Clone Image
nBuffer Size
Ġwake up
ThreadTaskRunner Handle
Ġcorrupt ed
Ġhig her
ĠChildProcess SecurityPolicyImpl
Ġchro ma
ĠISD N
J SAMPLE
N e
S uite
S MALL
d get
i req
re cursion
se i
Ġm t
ren try
Ġr sv
ĠP anoramiX
SI VE
ind ent
ĠO ffset
sb a
Ġor phan
iz z
Ġstate s
seq no
Ġpath In
timer i
nfs err
ls ap
Storage Context
Ġlink ed
SEC URE
Throw TypeError
ĠPrint WebViewHelper
Ġct r
guard s
pas ses
ĠTL V
Accelerated Surface
MUT EX
ĠPref Service
C rop
H ARD
M IPS
V aapi
] -
b im
c file
c db
Ġ ke
in len
Ġc ib
ar row
un ge
Ġs rv
Ġn t
con cat
Ġi pt
Get Plugin
ĠP art
Sc alar
start code
Web Socket
Ġun map
Ġun iform
Stream Info
Valid ation
ĠOn ig
Ġinvalid ate
Register Command
REF ER
sel ves
Ġ"< /
MIME TYPE
Raw Ptr
Wrap Unique
Br idge
indic ator
Ġix heaacd
ĠId entifier
RECE IVED
G ot
K URL
c HRM
l addr
r nd
Ġp Cluster
Ġb m
Ġd ix
Ġd ang
res cale
ĠS LAB
EN OPROTOOPT
Ġg if
Ġh al
Ġ/* --------------------------------------------------------------------
ĠF ilter
Ġj sl
Ġex change
sh mem
Ġnew info
ĠU ART
max len
sb h
ush ort
task list
Index Config
COM PRESS
ĠRe ferrer
Window TreeHost
Ġdefault s
Ġip x
Ġmode s
ĠSt ub
Open Disposition
Ġover write
MER GE
Gr anularity
FIN D
upd ated
Images Tag
Ġax is
ITT EN
N OP
f at
t z
u V
in um
st m
de struct
Ġp ict
Ġs at
Ġm ss
con sistent
th resh
ĠC RL
ĠP AM
art ifact
ptr s
ĠI SO
ĠW PG
comp ile
sub set
Ġuser faultfd
ero us
WR ITTEN
Ġformat s
Var s
tg id
Ġinit iator
IB us
Ġli ve
Ġcould n
Ġho me
Ġrel ated
Ġtermin ate
GEST URE
Ġpack ed
launch er
under flow
Syn tax
Leg acy
dra ft
RegisterCommand Code
C AN
M icro
] )));
h state
p assed
s bit
y uv
ar ily
id ing
Ġp Page
un ce
Ġs q
Ġs port
Ġb arrier
Ġn api
end points
ĠS PI
ĠS YS
get Node
Ġh aven
sign o
(" .
est ing
par s
RA ID
Ġname idata
version s
Int Point
irq fd
Stat istics
Format ErrorMessage
Status Code
tv buff
PAT CH
App List
Transform Feedback
AF TER
ĠFormatLocale File
Ġdif ference
Ġpg off
cmpt parm
nn tp
ĠSE CTION
kInvalid Arguments
ĠSIOC SI
SYN TAX
Ġstrn cmp
mbed der
ĠONIG ENC
Pol ygon
ingObject Set
ĠSy stem
ĠCLA SS
ĠGraphics Context
9 2
I OMX
J o
k ick
l ba
s cp
w v
el apsed
Ġch allenge
** */
Ġu addr
ĠE lf
ĠR CHECK
En crypt
ant ed
ĠL Y
Ġstr array
ns Nr
OMX Component
sy stems
play back
Int Parameter
Ġpos sibly
Ġhe lp
10 1
Ġqu ality
Byte Count
fmt s
ĠVM W
Chrome OS
Ġcom ments
adjust ment
ĠAt tribute
Ġ'. '
Ġxmp p
Ġ") ";
Ġenter ing
Ġscr atch
Recip ient
C ue
F x
F UTF
M peg
P ick
V op
] "));
a e
a utomation
b Cr
c andidate
f info
h ang
k Unknown
n Offset
v n
v ing
Ġ angle
in formation
se x
Ġc andidate
Ġs alt
Ġn Comps
end ptr
Ġi mplementation
Ġa cb
Ġr buf
ĠM issing
log y
Tr unc
At tempt
pos al
Ġsh mem
Create From
Par cel
Run Loop
Ġme chanism
MIN IS
Over scroll
Ġfrag ments
mul ated
cms UInt
Alloc ated
ĠNavigation State
herit Exception
Ġsoft ware
Ġ204 8
H EX
T M
j spe
k vp
l mp
m as
w bio
in use
me xit
int ptr
un share
Ġn params
ff f
ic cp
Ġd ay
Ġg pgsm
Co verage
Pro duct
bit rary
ĠU ID
Ġle ts
Ġmem move
mask ed
TE M
Message Handler
sig info
SP LIT
vl c
tm size
dh cp
ĠY R
Shared Buffer
We ight
Present ation
ĠSy s
( ",
4 22
= */
A ng
B I
C losing
G LI
H adException
L ang
b KGD
g ui
h mi
k Check
n B
p CmdData
r mem
x start
Ġ( )
un initialized
Ġn one
In cognito
get Num
ss can
Ġr id
DE SCR
SE P
LE EP
Ġe mbedded
Ġtr usted
Set MagickInfo
De mux
ĠV CARD
time wait
ep o
Ġor dered
TH ROUGH
fl g
Cache Info
bound ary
Ġinter mediate
pb i
Ġback log
End point
ĠFrame TreeNode
Ġcap acity
compos ition
import s
nn z
ĠPOLL IN
Ġewk View
ĠWebPage Private
VIRT U
Wheel Event
Asc ii
ĠSpec ial
BRID GE
A E
O US
S LAB
l it
p dy
r size
at usb
Ġt akes
ad vert
Ġs co
ch dr
tr ial
Ġw iphy
ab out
ĠS wap
Re peat
sc atter
Ġx malloc
fs uid
num cmpts
De ep
Ġco eff
Ġout line
Ġj object
ml x
Magick BooleanType
ild iv
CON V
next hop
app ings
NE EDED
IG ATION
PP ING
From BrowserContext
Ġdis p
Ġvi ps
Ġport Defn
wr ong
ĠUpdate PixelTrait
Ġhdr len
Ġff io
ALI ZER
ĠPrint HostMsg
expi red
arm up
ĠSIOC GIF
SEG MENT
ĠGD K
HU GE
tgt port
Ġta ken
D AN
G if
K DB
M ngInfo
b ut
d ac
q s
w char
x E
re cursive
Ġt BTA
ce ildiv
err buf
Ġw b
ĠS R
Ġre ce
ĠC G
ac quire
fa v
ter ms
per s
Image FromList
UN IF
Vi olation
cl k
cl ut
Is String
nd ig
hash val
Request Info
Dis connect
not ice
Ġinter cept
frag ments
Ġtest ing
lib xml
Ġshort cut
Ġtcp hdr
Parser ContextPtr
GetPixel Alpha
rpc ap
snd buf
Ġhand lers
ĠWebKit WebView
Equal s
cf m
Ġeffect ive
=\" \"
VoidMethod Method
WillBe RawPtr
Isolated World
Ob serve
OUL D
ĠContainer Node
C ent
E scape
F uncs
H H
M s
M igrate
N AT
S ND
S aved
a mpler
d bl
f write
f anout
n serv
s st
Ġ verifier
in strument
Ġs it
tr ailing
Ġm ock
IN I
In v
rea uth
Ġint ro
vi ct
Re striction
Get Host
Get Screen
Get RenderWidgetHost
Ġu uid
ĠD rop
ERR BUF
cur vel
ĠX cursor
Tr ansparent
ĠU rl
Buffer Done
Resource Loader
Document State
HE IGHT
Format s
dup rintf
Property Attribute
Ġhost s
Ġwrite back
Ġskip ping
LINE AR
Font Family
Pending Stylesheets
GetString FUTF
Http Response
Ġpix map
soft irq
Ġrelease d
Ġsched uler
Ġbuff ered
ĠFloat Rect
Ġai ro
My String
ĠDownloadItem Impl
RefCount ed
E SRCH
L arge
P ressed
R ai
b mc
p ms
p WriteFile
Ġ ĉĉĉ
Ġ roll
Ġ* **
co d
tr ailer
Ġ" ,"
ĠS upported
Ġre cursive
Ġa cm
Ġin buf
Ġin direct
EN SURE
ms b
of day
ĠF Z
Ġv is
Ġk PortIndex
ĠR ange
Ġco medi
Ġco mplex
To Client
ĠV A
Ġstr lcpy
ld z
fe at
Ġget This
PA C
Inter action
INVALID ATE
Browser Window
STATE ID
PO OL
MODE L
IR DA
place holder
invalid ation
ĠCo uld
sw p
ĠRelinquish UniqueFileResource
Ġsmb Xcli
Ġxslt Transform
Ġsys log
Ġcompos ite
HU FF
TERMIN ATION
FFIC IENT
) }
E SIL
I t
J P
V F
b cc
l k
Ġ annotate
in voke
al pd
ur al
ag n
et ched
mp mu
Ġh aving
ĠC S
ĠT x
ĠP MC
ir is
(" \"%
ĠĠĠĠĠĠĠĠĠĠĠĠĠĠĠĠĠĠĠĠĠĠĠĠĠĠĠĠĠĠĠĠ ĠĠĠĠĠĠĠĠĠĠĠĠĠĠĠĠĠĠĠĠĠĠĠĠĠĠ
Ġx x
Ġe vas
Ġco okies
new page
(( __
Data Type
ale d
pre multiply
ler ator
pp ing
Read File
pc x
comm unity
By pass
ĠRender ProcessHost
BA SIC
ĠUn lock
ĠFA LL
mult isample
40 96
ĠMO JO
cmpt no
ĠOFP UTIL
gener al
Hint s
ĠPK T
Side Effect
AVA IL
loud Policy
RAD IO
ĠMode l
YSQL ND
B P
F it
H al
H IDE
N eeded
Q OMX
m ctx
in Queue
ag greg
ce du
he artbeat
Ġs uspend
pt able
is sor
Ġ" "));
con straint
ĠS D
Ġcon t
ir med
++ ));
sp arc
ĠI HEVCD
UR M
new f
TI G
ant ialias
ĠO xideQQuickWebView
Qu ality
gro unded
Read Pixels
SR GB
PP S
head room
session s
From UTF
REG ION
TO DO
SY M
Current buf
Did Fail
gd Free
ĠDocument State
RT S
connection s
pred ictor
RenderFrame Impl
Bad MethodCall
iso ent
FIN AL
Ġwr iter
Ġcommit ted
Temp oral
ATTRIBUTE S
XF ixes
78 16
rlvl no
Ġproble ms
Ġdecl aration
Linked List
Constrain ColormapIndex
cedu res
BadMethodCall Exception
' },
W avpack
d len
i ommu
n ice
p Storage
Ġ OM
-> __
de fs
an o
Ġp ri
Ġp ak
Ġf mode
is Text
Ġm atter
vi sed
Get File
Get Child
Ġst age
ĠF alse
SE S
ixel s
qu ic
Ġ2 1
String s
ĠH ANDLE
CON FIRM
exception s
debug ger
ĠJ big
Start er
ĠOP TION
document Element
br ush
mod ifiers
ĠIP STATS
PL T
serial izer
Ġjsv StringIterator
Call ing
Ġent ropy
wq h
Ġlin ux
ĠRT N
ĠEvent TypeNames
Ġhow ever
OLU TION
allo ut
SPECI FIED
ĠBl ack
ĠAddExtension String
epo ch
curvel ist
C trl
F s
F REQ
H OME
I HDR
W I
c count
d ll
p ct
p Drawable
Ġc in
ur tle
Ġm andatory
ER S
Ġd port
ig ure
ĠS FE
Re quire
Get Settings
ĠC UPSD
ĠF ound
ĠI TEM
Ġv r
Ġ' &
Ġ2 9
ME MB
reg istration
ta ct
For MainWorld
Frame TreeNode
Event Router
no mem
IO Device
ses Exception
File Chooser
Ġadd Reply
Add Filter
Ġcan onical
wait q
ĠCON TEXT
New From
Did Receive
protocol s
Print Settings
Storage Partition
Ġvar s
cy cle
high light
magn itude
round ing
Single ThreadTaskRunner
ĠPass RefPtr
Pin ned
rle ctx
NAM SIZ
FOC US
sscan f
% +
* =
, +
E GL
U ptodate
a dev
d saf
h ug
r ase
s do
v sock
z ier
de png
Ġs ds
ĠN B
LL IA
IN FORM
Get Uniform
Ġr len
sc he
bo ur
TI LE
Frame Buffer
index ed
time spec
priv ileged
Ġun defined
Ġsh ut
ge o
usb i
FILE S
BO ARD
Ġurl s
apt ers
assoc iate
position s
prefix len
cre ator
pk tin
security Origin
VAR S
Private Property
Ġcred entials
Notification s
Wh at
ĠPrint Msg
coord s
Proc Render
Ġbus y
Ġrot ation
ĠAcce s
remain der
ĠFUT EX
PAY LOAD
pir lvl
# %
A ut
D istr
N MI
T TY
c v
d quot
p Cluster
in verse
st ale
an cy
int o
In dices
oid c
Get TaskRunner
Ġh d
dev num
ĠE T
Ġtr ash
ĠB LOCK
SI DE
bit len
pp md
*/ );
Ġq str
") .
Ġav g
cap len
Ġsub set
Function Template
Ġsession s
Ġvalid ation
BE FORE
BUF SIZE
RES OLUTION
Ġsl ab
Ġglyph s
200 3
ArrayBuffer View
Ho me
ĠDOWN LOAD
BOOK MARK
hig hest
> <
A tomicString
C ut
L V
L TR
M UX
c ircle
o res
s gnd
v len
w ps
Ġ others
at o
Ġc blk
Ġf ence
ff ic
im a
ĠS IGN
get This
Re paint
Get ContentClient
Ġin cluding
ĠC K
ĠC ell
ĠC LIENT
sk ew
Ġst mt
SS P
Ġth ing
Ġe valuate
Ch anges
ra de
Ġpro duct
ĠL Z
iter ia
default s
usb video
ĠEx pect
sample Table
ak mp
Layer TreeHost
Base d
run e
Logical Right
pop ulate
SYS ERROR
ĠJS Object
ĠCOM P
coeff s
Ġsecond ary
ĠBO UND
ENCRYPT ED
PLUGIN S
Ġperform ance
Termin ation
ERESTART SYS
Ang le
, ("
> ",
> (),
E vas
S uppress
U ED
b rowsing
c les
n acl
p Cur
s conv
t dev
in ate
in ally
Ġs ps
Ġs prev
Ġs lots
pt ree
Ġg sicc
ĠC md
Ġst e
ĠP ut
pro m
ĠG Bool
ĠE CD
fs h
em alloc
new np
To Right
av or
ta ke
Ġex clusive
ĠU SER
Ġname d
Render Process
ĠTh en
IF DIR
ram erate
irq chip
Ġsp an
CODE S
Ġback up
Ġlevel no
scroll ing
report er
ĠIN C
ĠIN PUT
fil led
SW F
mplet ely
Ġlimit ed
SUB MIT
Bad Message
ĠSync BackendHost
Ġproperty Name
RUN TIME
mk dir
ĠSTR IPE
ĠBack ground
LZ W
TIFFError Ext
NAM IC
" '
C lock
I p
P ad
c as
k Has
k adm
o be
v dec
Ġ util
ur st
Ġw allpaper
RE CTION
ĠC FF
ĠT ARGET
Ġl c
ĠF ake
Ġu len
Ġchar code
ĠW AR
Ġ2 6
user space
To List
ĠGet Magick
ĠGet SharedMemory
sg list
unc hed
Ġun i
hash info
head s
BUFFER FLAG
tra verse
Navigation Controller
Table s
ĠTIFF Read
now led
Ġbin der
Audio Output
]= '\
Location Bar
ĠHe re
ĠGpu ProcessHost
Sandbox Flags
ĠBO OL
ciphers uite
ĠSAS L
Ġxp ctxt
ĠWarn No
izz le
> %
I mplemented
M erge
b map
i ating
at oi
de ep
id at
Ġb asic
is In
ch root
pe ak
)) +
im ity
Ġa dev
Ġin complete
out Queue
ĠD esktop
Ġth ree
cur se
os en
pl ink
Ġv len
Ex cept
em ulation
PR Id
---- +
lay no
ĠL inux
MP LS
ĠGet StringInfo
Ġmem ber
Node List
0000 1
tab strip
atter y
DIS P
AV CodecContext
Init iated
loop back
Ġthere fore
TRAN SA
Model Object
24 116
ĠEn abled
ĠSH UTDOWN
ĠCOM PS
CONTR O
Make Request
BG R
VertexAttrib Pointer
alle st
EXTR ADATA
ĠConcatenate MagickString
Relinquish VirtualMemory
GetSwitchValue ASCII
) >>
9 8
T reat
Z ip
l h
n ip
p atterns
t ipc
Ġ Lookup
mp ol
Ġn or
Ġm ul
Ġm otion
Ġre name
Ġg ain
Ġch o
ĠC ommon
gn t
Ġst ale
sc hema
sp r
ĠE Q
ĠW ASM
Ch romium
String Type
dis sector
ition s
Ġ3 3
sub system
Ġrequest ing
sy mtab
Client Socket
Ġ"% "
Trans lation
PRE V
cred ssp
RG BO
Ġlevel s
ĠDEBUG VAR
ĠST ART
Ġpr im
mult iple
RT C
Register Function
ling er
Ġcred it
Ġbr idge
Stop ped
ĠChrome ClientImpl
Ġes p
equal IgnoringCase
Needs StyleRecalc
EXCE PT
Ġserial ized
vis ited
ike v
Ġic u
ĠCompos ite
ĠNavigationController Impl
Flat Tree
Ġleg acy
UNIF ORM
C DATA
F re
S ender
T SO
a ia
c Params
e Ret
p phar
p Segment
Ġ Keep
al ware
Ġp x
Ġp Data
ER IC
err Exit
Ġd pb
ĠS AMPLE
Ġa id
Get All
Ġg raphics
Ġst t
ĠP IX
ĠG EN
ĠĠĠĠĠĠĠĠĠĠĠĠĠĠĠĠĠĠĠĠĠĠĠĠĠĠĠĠĠĠĠĠ ĠĠĠĠĠĠĠĠĠĠĠĠĠĠĠĠĠĠĠĠĠĠĠĠĠ
ID ENTITY
Ġex sltDate
ĠH DR
Is Geometry
Ġthis Object
ĠL DB
bl u
conn s
dst ptr
END POINT
Create With
DI CT
ĠOP EN
Ġpl s
Ġbo okmark
ĠExtension Prefs
Action s
SD P
need le
Ġpad ded
Report ing
Ġsignal s
lap sed
Zoom Level
Ġtermin ated
watch dog
EXP LICIT
Rad io
ratelimit ed
ĠAcces sibility
E CONN
I m
S LEEP
c orrupt
g mac
h be
k Max
s ensor
u zbl
w data
y te
re write
Ġp pos
Ġs un
mp d
ab c
ig ade
ĠS L
ĠS VM
ĠS AX
Ġi bus
Ġin dent
Ġh ttps
ĠT ex
ĠT EXT
text ures
Ġr wh
ĠE ffect
pl ite
mpl s
sa w
Ġy our
ep ctx
iv len
MS K
Index Of
VI SIBLE
10 5
Function Name
Navigation Request
ffect ed
Ġref resh
strn icmp
Part s
Ġtg a
Mult isample
ĠPrint Preview
ĠProfile SyncService
sql nd
Ġpair ing
ĠSTREAM TCP
ĠLL CP
655 36
Ty ping
ĠCLI Wand
FILEN AME
ĠSPI CE
F lo
W ave
g i
k gid
o jpeg
q op
q emu
s host
t buf
Ġ answer
lo pt
Ġ" +
vi a
Re verb
Get Display
file type
sp ot
Value For
ML INK
NO SUPPORT
Host s
FA CTOR
SA ME
ĠMA CH
ĠCon trol
WR ONLY
Do es
Ġupdate s
ĠPH Y
hid g
Show n
Renderer Host
Sa mpling
tw sk
MAN AGE
Navigate To
Transport DIB
Ġdiv ider
ĠVER IFY
ĠOr igin
FrameOwner Element
E sc
N API
c ryp
f mode
h ns
s init
z gfx
ct ts
Ġp tile
ex cluding
fo ot
tr ak
tr ansparency
ic ense
Ġ*/ )
Ġint erest
ack s
Get Property
ĠC ASE
ĠF I
ir PD
ip mi
oc fs
ĠG roup
CT LS
TR IG
ĠR AS
Ġj mp
EX CH
du ced
mb x
ĠU I
On UIThread
SU FFICIENT
-------- ----
Ġpath name
Ġbit rate
20 48
Ġqu ad
call s
po ser
over loadedMethod
ART BE
rcv buf
Col lapse
ĠAl ways
Notification Observer
AX Object
ĠPO SIX
crt c
ĠBack end
Ġlisten ing
ĠCompos itor
ĠSM ART
eerConnection Handler
ĠTIO CM
irPD cap
ARTBE AT
J avascript
N X
V KEY
W TF
c atch
d dev
f rozen
g AMA
i ri
k time
k Always
u fact
v ring
x end
at ches
Ġc ip
Ġt ar
Ġp SMB
Ġs ay
tr ig
ot ing
EN CAP
ĠC LOG
Ġr ss
ĠF oc
(" <
(" [%
list ed
Ġx kb
ĠW LAN
Ġ(( ((
ĠB IN
new val
En vironment
ĠH istory
CHECK SUM
MP TY
stream ing
fd ctrl
=( -
VER SE
Ġread only
blk g
FOR K
ca f
Start ing
match ing
Script s
Config ure
AV PACK
can on
Bound ingBox
rcv d
Ġmp eg
Ġgo es
transform ations
INTER VAL
Visible Position
Rendering Intent
chrome os
Ġaction s
HW ND
Ġpaint Info
ĠTrans fer
ĠSTR ING
Direct Class
ĠEV ENT
Ga ia
BROW SING
wa iter
TOS ERVER
Ġdix Lookup
nB Frames
. *
D OR
K B
N ID
N OMEM
P ADATA
S at
S peech
p buf
re queue
on ding
Ġc id
ret rieve
me asure
Ġp db
str tab
is Active
set g
Ġo ssl
ĠN on
Ġi asecc
Ġre ly
ver dict
ĠC ase
ĠD ump
ĠG ray
num rows
Ġstruct ures
Data Offset
Data ReductionProxy
Un safe
time ofday
ill ic
ĠL IT
FA X
Th ickness
ĠWeb GraphicsContext
Text Direction
Ġcomp ile
Point s
Per WorldBindings
ĠOn Set
Ġrender ing
Field Trial
All Sources
SAMP LES
ReadBlob Long
Authentic ation
ĠLayout Object
Ġmult icast
dat etime
AX Tree
soft c
ĠSer ial
ELEMENT S
High light
Ġins pected
ili ary
utomat ic
xsltGenericDebug Context
inger print
Recipient Info
kHas SideEffect
TRANSA CTION
) (*
C GROUP
G INE
I SIS
M GR
U CV
V D
d fs
e led
m Codec
n TimeStamp
o e
t alloc
se verity
Ġ* ))
de viation
Ġc list
un a
ER O
LL ED
ap ed
In FlatTree
es d
ĠS m
th umbnail
Ġre covery
Get Parent
Ġg uid
ĠP C
ĠP DU
error Value
ip cp
pro cedures
ment o
ĠD ec
ĠI SA
ĠE qual
CT M
Ġco mpletely
ec n
IO US
On Set
Comp liance
ĠWeb InputEvent
std in
Ġat l
Key word
troll ers
Ġsp in
Ġoff line
rate s
resol vers
ĠAdd LocalizedString
pk ts
Auto complete
dl c
ens ation
AX ObjectCache
Ġscroll bar
ĠxmlXPath ObjectPtr
ĠFOR C
soft ware
76 8
Ġinstruction s
Ġemul ation
GN U
Man ual
pam h
ĠNavigationEntry Impl
Pag er
kCheck Holder
2 88
B idi
I x
J UMP
M U
] )))
f list
l st
t ctx
v free
v start
Ġ ..
el liptic
ff d
len p
li ke
ĠS PE
Ġre member
Ġch n
ĠP ending
SE CC
ĠA B
ĠA fter
fs ync
Ġk DoNot
ĠB egin
Pro mo
ĠR CV
AN S
Ġse par
For med
Is OffTheRecord
time code
ale ct
On ig
Ġbuffer Size
Create Null
AM essage
Ġup dating
dup lex
Port a
Auto Fill
Ġwork around
Effect ive
Ġlua L
Ġschedule d
Ġofpact s
gate way
PUR POSE
fav icon
; "
E AR
G CM
_ ++;
m secs
q os
{ "
} );
Ġc q
si px
Ġp reempt
str act
Ġb tree
ĠN ONE
IN SUFFICIENT
ul ing
Re use
ĠC P
ĠC ERT
DE TECT
St mt
pro log
out line
os quit
buffer offset
Is MainThread
ĠV R
Magick Max
EXT ENDED
Ġxml Malloc
Char Pixel
Ġvi olation
Ġlog ic
Ġalloc ating
so me
mod ulus
With in
Run s
ĠCH AN
ĠResource Fetcher
PK TS
Ġdesc sz
Query List
Ġreport ed
Ġfull screen
NFS PROC
GetImage Property
Ġsu cceeded
STRU CTION
Ġmid dle
VMX NET
PQ clear
Ġce ph
Ġum ax
Ġscaled Width
--- */
Ġvfs mount
ntl m
xmlFatalErr Msg
INCLU DE
ĠUnregister MagickInfo
INFORM ATION
blu etooth
osquit to
C UT
C enter
P g
Q PT
_ )->
c error
c ancellable
d name
s si
t port
v be
ur g
si dual
Ġif index
ic ular
ĠC PL
Ġl ate
(" ");
ho ver
om ent
ĠG st
comp r
ĠV ar
ber os
Ġle ader
desc s
SH OULD
config ured
IG raphicBuffer
xml sts
seq count
ge red
ĠJ NG
cond itional
web Settings
Out er
DOM Object
sr f
Write BinaryBlobMode
Ġnl m
Sample Size
ĠFA ULT
Class Index
Float ing
ĠNot hing
ĠException Code
Ġprot ection
Insert ed
Ġunder flow
Ġmagn ified
Ġfix up
ĠAuto Fill
author ity
RENDER ER
ĠWebMediaPlayer Impl
Extract or
Sm all
Latency Info
MEMB ER
5 1
M utable
R FCOMM
S l
X PATH
f bo
h q
j ava
p ressed
y end
de coding
al ready
fo uri
In sets
ĠS rc
ms q
ĠC ore
Ġto Int
name sz
Ġr a
ĠP SK
ĠM ain
ĠA void
ĠD D
ĠR A
ĠR DP
user data
fault s
ĠH ead
Context s
Ġon ig
Ġen queue
Request ID
NE ST
Time line
Ġ++ ;
Process Handle
Command Type
ĠMA KE
URN AL
com ments
Ġtab strip
ĠPro to
Security Context
Ġiter ation
man ent
Ġsome one
prot ection
PM C
Ġresol ved
Ġlogical Height
Ġaccept ed
PSD Size
ENTI AL
ĠTexture Manager
variable s
ĠHW ND
Ġsaf ely
StreamTcp Packet
Prot ection
nul lopt
fouri er
E IN
J ust
c val
d cc
q com
s ensitive
v orbis
or z
Ġc irrus
() )),
Ġa u
Ġa ffine
able s
ĠC ert
ĠT ag
dev name
Ġst ub
Ġde precated
ho ff
ĠA ss
ĠG S
Ġe mail
io addr
ph en
LA LLOC
ĠO k
Read UInt
Ġor ientation
IP ER
mask s
Ġun likely
TA LLOC
vert ices
Out line
ĠBrowser Window
Open ed
Ġover lay
Ret ry
Ġspec ification
Conn ector
Ġexit ing
Font Size
Ġexec utable
Ġslot id
Right Node
Setter Context
OPTION AL
xmlXPath ParserContextPtr
intr fc
LOOP BACK
Ġld blk
Crash Key
POP UP
Phar Exception
ĠxmlFatalErr Msg
CHANNE LS
ĠGetSharedMemory As
A nt
D rm
E CTION
F ooter
b count
e hdr
o sed
o verrun
â Ģ
st ab
Ġ* >(
Ġt ex
Ġt packet
id map
Ġn ice
ĠN X
th umb
Re ject
Ġa utomation
Get Shared
Ġin verse
EN CRYPTION
ĠT K
Ġl ptr
Con verter
ĠA ccount
ĠW ill
Ex pect
Ġco mpl
En ded
no op
ug ht
ĠGL ist
iv ing
SU P
fd t
cb s
Ġ5 6
Content Type
NT LM
Control led
pk g
RES OL
Null String
FL T
Ġrt data
pix buf
Ġms String
gno red
Inst ant
Ġent ities
ĠInput Event
MEDI UM
Ext end
ĠRPC AP
Ġjo in
IMP L
ĠWindow OpenDisposition
ĠOF PR
Gener ation
Driver State
comb ine
AcquireImage Colormap
ĠParam eters
subscri be
PaintProperty Node
kOn Prototype
B IM
C andidate
I MAP
M ixed
_ |
h x
i size
s ma
y yn
Ġ vertex
Ġt er
Ġs hdr
pt a
co st
Ġn av
set opt
Ġre duce
Ġa head
ms leep
Ġl imits
ĠP SD
ir ing
ĠA ctive
ĠW AVPACK
ang o
Str ategy
Ġco verage
Un register
ĠH Text
start ing
Ġ8 02
iv size
sub req
Node Instance
From ID
Ġtime d
Ġpre p
Ġpos itive
Pl ain
append l
Ġpl an
Layout View
Script ed
Ġcopy ing
An not
Did Start
ĠPro c
upt odate
Ġgd TrueColorGet
Ġgl Get
INTER CEPT
TL M
SW ITCH
icmp h
ĠText field
Focused Node
rot ation
anon ymous
STRUCT URE
TabContents Wrapper
SYSCALL S
Ignore PendingStylesheets
NEGOTI ATION
sur f
Editing CommandType
ĠPoint er
Modal Dialog
SEPAR ATE
GRA PH
PROB E
ĠSte p
hug ep
1 02
G Y
Q EMU
d imension
j object
m ption
m cs
t as
w fourcc
se al
ar ity
mp hasis
im mediate
IN TRA
ab ler
ig et
get String
ĠP olicy
ĠP epper
Con sume
ĠM ID
sc ription
oc cur
Ġv enc
Ġk ioctx
Image Return
ps RightNode
Set Parameter
pos sibly
Ġsc aling
Ġlength s
Ġread s
usb dev
ĠRe ct
Cache Policy
OL F
Local Name
DOM Wrapper
ĠQ T
Ġim s
FE ED
ĠHTML FormElement
Ġfrag headerlen
pred iction
rs si
SV GElement
Throw DOMException
Framebuffer EXT
mime Type
FULL DEBUG
ĠLayer TreeHostImpl
ĠTrans late
Ġpin ned
ĠCan vas
Drawing Wand
Ġdispatch er
vis it
Ġsupp lied
thrott led
ĠAct iv
DAN GER
ĠWarnNo ImageReturn
C SR
L ab
h sr
l val
in era
in flate
it able
Ġn w
ch rm
Ġm cl
Ġd td
li a
ĠS ection
Ġre connect
Get Id
do cp
ree mption
ĠA BS
Ġ% #
ĠE G
Image Skia
ME TRIC
Frame Host
IS ON
File Descriptor
fd c
Ġun handled
min i
CC ITT
ud plite
Ġsh ading
Ġsh rink
usb midi
ĠJ OB
Ġlo depng
Ġ(" [
af b
LLO UT
br igade
MB C
Ġbound ing
ĠCo der
Ġinvalid ation
Output Buffer
Form Data
lin enum
Inst alled
Move To
ĠFOR MAT
Ġinsert ion
irr or
Ġoper ator
RU LE
Enc Params
ĠCF G
Schedule d
Discard able
pear ance
allo on
Ġlif etime
HAL F
ĠRespond Now
inera ma
2 02
D CCP
E PIPE
G amma
Q t
k db
k sum
l pm
l legal
p Win
r flags
u iserver
x image
Ġ Loop
in j
er pc
at ar
ret r
int egrity
Ġp eek
Ġf r
Ġf x
Ġb asi
as Object
ame l
ĠN TLM
Ġd ot
Ġw ide
Ġint el
ms rl
Ġ/* *
ĠP GSQL
ĠM E
per sist
addr len
Ġe valu
ĠW ith
MA PPING
print able
load Type
wit hout
tro py
Ġ4 00
ĠL ast
Web Em
Ġdo i
Se ed
Read Bits
OT TOM
ifi es
ifi able
Ġun initialized
DR S
enc ies
xml Parser
Ġreg ard
ĠJ peg
Ġsrc u
web gl
Ġuse ful
Ġcmd Code
temp orary
ĠPR OT
DEF INED
IM M
Ġar ith
CHE ME
Ġtrack er
-------------------------------- ----------------
Bar rier
Ġglyph path
Select Element
Password Manager
WINDOW S
Av ail
Ġemul ated
GIF LIB
bk gd
ales ced
sRGB Colorspace
Ġexpi red
Ġfour ier
VisibleSelection InDOMTree
Ġanal y
THRESH OLD
REFER ENCE
ĠStub GL
B ED
J big
R unnable
S ock
W ake
a void
h uff
m si
p per
t comp
x or
Ġ DEVICE
re lay
re stricted
Ġs parse
Ġb ta
Ġb elong
Ġn at
Ġm igrate
Ġm appings
Ġw ire
Ġi perf
Ġre cogn
Ġre cover
Ġre moving
Ġg lob
Ġh uff
Ġl a
LE SS
LE AF
ĠG IMP
Ġx ref
To Local
Ġnew ly
ĠH istogram
def inition
IS C
no ff
dd s
trans it
CP Y
Ġmo drm
ific ates
auth enc
bin der
TIFF FileName
sum mary
conf lict
Arg v
sr cp
DIS CONNECTED
Video Decoder
Origin al
ĠString To
ĠCh unk
Ġopen ing
Alpha Channel
Pending Entry
Ġstop ped
Call Getter
Container Node
ĠINT O
Ġes caped
final ize
Release Object
ĠScript Promise
Activ ityLog
ĠAt tach
IMP ORT
ArgMethod Callback
ĠWait For
Ġtw ice
Ġdeli ver
SerializedScriptValue Interface
kAlways CallGetter
E l
P ZVAL
R F
X ml
f abric
k ana
l bl
m ut
Ġc er
Ġp ret
Ġp alloc
Ġb len
Ġn args
pe vent
con structor
Ġo om
Ġo buf
ĠS ocket
Get NativeView
dev info
ter native
ID s
col lect
count ered
add itional
Ġj v
bl ur
Pixel Format
IO V
AS AS
ĠIn crement
min st
_( -
') ",
FO LLOW
DI AG
Up grade
vid ers
ĠCON NE
Style Change
Ġinter stitial
Ġcl usters
exec utable
ĠRead UInt
prot ect
Com bine
Ġfont s
ne h
wb c
Ġinterface s
ĠxmlXPath Comp
partition s
ves afb
nf si
Ġlet ter
ĠHO ST
fr ac
TICK ET
DIG IT
Instrument ation
ĠSyncImage Settings
A st
A ffine
B roker
D OT
L CD
Q String
R ew
R Core
U i
V IS
V isitor
c mm
c nf
d ial
f len
} ",
Ġ UT
at ial
Ġp ts
Ġb other
Ġ" |
ext ern
ig rp
Ġcon sistent
Get Client
Get LayoutObject
ay stack
Ġh num
to do
Ġl ru
ĠF ast
ĠD N
ĠD rag
Ġe strdup
Image Colorspace
De crypt
add ip
new path
Frame buffers
ĠH el
valid ators
URL Fetcher
ĠMagick Info
Ġget env
IP TION
OK EN
ĠJ son
auth key
pm k
NAME D
Sub frame
Line Box
Instance d
peer name
Can on
Ġmb entry
Ġvar iant
virt queue
kNo Cached
ĠSetImage Option
Ġsl ash
Gr ant
ĠPG conn
Ġmac ro
tun er
10000 0
Ġ'> ')
Rot ate
ĠCOPY THECONTEXT
MODI FY
CORRUP TED
GLI mplementation
ĠxsltTransform Error
ĠTex Image
ufact ure
amel lia
kNoCached Accessor
E CHO
] ==
j oint
k Setting
p val
v fl
Ġ verbose
de grade
Ġc msg
Ġc ritical
Ġf older
Ġm f
Ġ" &
ĠN AL
ĠN ull
rea ded
ĠS ACK
ms f
Ġg one
Ġh x
Ġh unk
to ggle
Ġ/* ****************************************************************
Ġl blk
Ġde compress
ĠM SB
St e
LE rror
ERR CODE
ĠR PM
De mo
De coded
Event Error
State Error
pos itive
Ġstr to
ec at
Se par
wh itelist
array Get
Memory Cache
SC AL
Destroy QuantumInfo
Script able
Sync CacheViewAuthenticPixels
can onical
Main Resource
verr iding
ĠCUR RENT
Logical Bottom
show ing
LAY OUT
PNG Chunk
SUB TYPE
reason s
Ġexp anded
Ġ'/ ');
ĠInput Type
HIST ORY
abort ed
ĠAcquire NextImage
Ġ'- '
Inline Box
Ġgener al
sq rt
ASS IGN
GetActive WebContents
Ġremain der
LAYER S
lipp ing
Ty ped
ĠConn ection
OV ERR
ĠMT U
OLF SSL
4 000
A DED
A ffinity
B AL
P ic
U t
b size
c dc
g em
i sis
m Is
r mode
Ġ LO
Ġ unc
re sid
str d
ĠN one
IN STRUCTION
ew idth
RE NEGOTIATION
Ġh ref
Ġde tail
ĠG Error
red uce
Ġex clude
ld blk
ĠGL boolean
SIZE OF
," /
seq num
From Seconds
By ID
output Buffer
PRE C
Navigation Handle
true Color
Ġwas n
Port s
ĠPR IV
HTML MediaElement
Ġcol lect
Audio Source
Ġcred its
Ġ'/ ';
DevTools Window
margin s
redirect s
Ġdirect ories
ĠRun Count
ĠWebFrame LoadType
ĠSW AP
ĠDH CP
COOK IES
Ġhig hest
AK MP
ĠSeek Blob
CEIL DIV
0 12
= [
M utation
c sock
e ColorFormat
f y
g z
k AllWorlds
n args
p count
t pr
se par
Ġc ent
Ġs aw
Ġ} );
Ġn pages
pe pper
ĠN V
ĠS ADB
Ġi e
ms sp
ĠT PACKET
cp l
Ġr printf
vm ci
Set Size
md io
Ġj spe
Sc hema
tp ixels
IS AKMP
Ġas signed
ĠU D
AS F
Ġvalue Pop
Ġle ase
UL TI
ĠMagick Min
Ġcomp act
CA CHED
ĠEX PR
Header Size
Ġip ip
Handle Scope
Pre Comp
tra fo
Layout IgnorePendingStylesheets
tcp i
Profile Level
ĠTr ansport
Trace dValue
cms Write
Sk Bitmap
Progress Monitor
interrupt s
Ġmount ed
pri se
attach ment
Canvas Element
ynchron ize
Gtk Widget
Ġ': ');
Testing AutomationProvider
Ġinclude s
sth resh
Pas sphrase
Click Signin
Under line
So on
Inv ocation
8 0000000
M X
N dis
P LA
e valuate
i hevcd
l hs
m Current
r rec
Ġ ATTRIBUTE
it ect
Ġp error
un defined
un iper
Ġf eed
ex cept
ch own
ĉĉĉĉ ĉĉĉĠĠĠ
ĠT ra
Ġl x
ĠM V
ĠA AC
pr v
row stride
CT S
Set Device
UN IPER
rom oting
AN CH
VAL S
load s
Ġnew block
Ġps d
nd x
met ic
sub device
NE VER
cb f
Ġend s
session id
FILE TYPE
irq s
Ġfree ing
Ġ5 7
CUR LE
Ġme ms
over scroll
Can onical
ĠRE SET
ĠResource Response
Ġqueue s
Ġsig info
Ġcms Sig
Reset LastError
Gpu Channel
SELE CTION
FEATURE S
ĠMedia Player
Ġlook s
Ġsu cceed
Install er
MOV ED
Ready State
ĠNotification Type
ĠBu cket
Ġplay back
negot iated
Ġsaf ecat
provisional DocumentLoader
) */
/ =
A do
D X
D if
H LEN
H uffman
L U
M PRNT
M unge
R tree
U ARD
d cache
g int
h mp
i or
k PortIndex
n os
s regs
x D
Ġ VALUES
st ref
er ial
if name
de ps
ag ic
it r
an c
Ġp sk
Ġp WT
Ġb dev
tr ing
ĠN GIFLIB
In c
ĠS upport
Ġcon tinuation
Ġthe me
Re cogn
Ġin voke
Ġg uess
ĠT UN
ĠT arget
ĠT emplate
Ġr ctx
pro mise
loc ity
SS tring
ĠI E
Ġtr anspose
Info Impl
Ġj int
Error Page
Is Loading
line To
no lock
CO LL
Buffer Data
pi comp
pixel format
rec ip
Sh ading
blk cg
ĠK DC
READ ONLY
Ġvi z
Ġ5 00
ATTR IB
Ġsub frame
DOM Setter
Arg Break
sr vr
Open File
MIN US
fh p
Ġar pt
Ġsa mpling
PNG Image
Ġdi rent
EA K
88 59
FIELD S
Coord Munge
ĠAX Node
ĠSE CONDARY
Ġword s
Shadow Root
CID evice
Pol l
Lifecycle Unit
Ġrad ius
Cor rection
LZ MA
RenderWidget HostImpl
PART ITION
Acc um
Ġkw set
ĠEMUL ATE
Listen ers
Except ArgBreak
Ġcip so
P df
S ol
b ined
d g
f ort
p Input
r idge
w ave
le ak
Ġp epper
Ġf write
co untry
ot ential
IN DIRECT
Get Device
Get Dictionary
Ġin len
ST E
ĠP tr
ĠE F
Co mplex
qu ick
AN A
FF F
Ġwe ird
For Request
du lo
log o
ĠH itTest
tp grCX
State For
CON STRUCT
ĠL ONG
Ġinfo bar
Attr s
Ġnet if
CP OPT
Ġz offset
AM D
Load Request
gr ub
Pl ug
Ġsp lice
WR IT
Layer Tree
script ed
origin ation
Ġconfig ure
ater ial
reference d
Debug Obj
show n
GRO W
eth tool
Ġrun s
rw state
UST ER
Needs Layout
ĠSync Manager
ident ify
ĠNL M
Zoom Factor
ĠCA CHE
SAFE TY
ĠCurrent buf
Own Ptr
Ġcrypt d
Ġdestroy ed
sPer Inch
Ġadopt Ptr
Neg ative
fto ver
----+ ----+
foot er
ĠCoder Error
B Box
D ynamic
E mbedded
H C
H M
J SP
N BL
b Interface
g char
g ather
i ans
m tx
n Cell
Ġ ve
de sign
de blocking
Ġi attr
Ġre levant
Get C
Ġch oice
AL OGE
ĠF E
AR SSL
pr une
code page
Ġtr ansparency
ĠB rotli
Co eff
Pro fil
En tropy
Ġj j
ns proxy
inter active
Thread s
Memory Dump
Ġno block
mis ses
SY MLINK
Ġcl amp
render View
Sp an
prefix es
Draw Elements
Ġwork ing
Space s
Network State
orig data
Feature Policy
Part ial
DevTools Agent
Ġpad len
expi ry
gray s
Replace d
Serial ize
termin al
Rad ius
TEMP LATE
live red
Ġflo ppy
Ġciphers uite
ĠBy te
Ġud phdr
Big Endian
Pa used
Jo in
B OTH
H Text
L imits
S ITIVE
S lide
T SK
T TEST
T STAMP
e match
g dev
v rend
st id
le ting
Ġf put
)) .
ĠS CR
stat fs
get bits
Ġre cursion
up s
Ġh ist
Ġh uffman
ĠC re
ĠC RM
ĠT TY
ĠT oken
sc x
out standing
fs Fid
Ġe quivalent
Ġk Default
Ġtr ig
Ġ2 7
En force
Un do
ĠH AL
Is Visible
ĠV aapi
dis covery
Web URLRequest
Ġby pass
FA LL
Ġcomp arison
check ing
input Cfg
Exception Code
\" :%
Task Queue
Ġ[ -
annot ation
Free Object
IR C
writ es
ĠExtension Install
serial ized
Alpha Quantum
the xp
with in
Ġprot ected
Ġmethod s
SV C
LAN E
ga u
Ġconf lict
Ġvir ResetLastError
Ġiw l
ĠCur sor
21 12
ĠExec ution
Sn apped
Ġsector s
ĠScroll bar
JO IN
Renderbuffer Storage
Ġ'; ')
Ġexpi res
Completion Callback
DUP LIC
ĠWork er
ĠOff line
wid thexp
Da emon
DESCR IPTION
A IL
E O
G PG
G eolocation
R MA
a hc
l pc
m h
Ġ icsk
Ġ UEV
re wind
in der
at r
Ġc Result
Ġp ull
Ġb atch
() )))
fo d
Ġm g
Ġo ctet
Ġi chdr
Ġre fer
Ġh wc
ĠP E
ĠF unction
ption s
om b
AR CMSR
ĠD IV
Ġth rott
cur seg
Ġv b
ĠB I
Ġpro cesses
ĠX ml
fi re
inter polation
LI FE
ain Ptr
IP HY
xml ns
ific ant
Cur ves
gr avity
Ġup on
UI Element
Ġcolor space
Sub mission
VP X
CB CR
ĠFA ILED
Ġobj id
Ġdocument Element
AG G
Ġlocal ized
QU ASH
Bits Per
html Parse
ĠApp List
Ġdec ide
Exp and
34 56
ti leno
ĠgdImage Ptr
trait s
Ġcalc ulated
backing Store
Ġfil tered
fram ing
GetLastCommitted Entry
ĠClip board
LET TER
Waiting For
PRIM ARY
elliptic curvelist
K ill
V NC
W B
W EAK
c flag
d buf
e report
e oi
g ers
k lass
s BIT
v mexit
w i
Ġ reach
ro utes
int ensity
Ġp q
Ġp Expr
Ġif r
Ġif ndef
str atum
set CString
ĠN AME
Ġd ib
Get Attribute
Ġ(! ((
Ġh y
ĠT ake
Ġr src
Con f
state m
per mitted
Ġk Web
vm f
CE n
To Console
load Event
dec rement
next hdr
work ing
try lock
blk addr
output Stream
Long Arg
New Tab
Ġcmd s
dump file
ĠLog in
rep lies
Root Layer
CONFIG URE
vol atile
Ġev dns
Ġsz Date
ĠPage Transition
ĠSF M
XF RMA
Safe Browsing
Ġver ification
tim r
Ġinstall er
ĠBO O
Ġum in
Ġdefer red
SUSP END
Ġsil ently
ĠOmniboxView Views
FEED BACK
9 1
D ang
Z OOM
f read
f sid
q scale
w ee
Ġ InfoBar
de ref
ar ith
Ġf lex
Ġm Camera
ap f
Ġch ance
ĠT PM
Ġde leg
Ġde crement
Ġth umb
code book
Ġk B
Ġk time
TR UST
num resolutions
user faultfd
ref erral
Ġres pond
PR IN
Is ImageFormat
ĠO HCI
tp an
Ġas cii
ail box
req sk
Web EditingCommandType
ec ause
cs w
File Type
old file
Page Model
pic set
Ġport ion
Ġany more
Sub resource
ĠIP MI
ĠTIFF Get
cre asing
ĠAdd Filter
GetPixel Opacity
IM UM
Dispatch Error
Left Node
Font s
Virtual Pixel
Ġnto h
GO OD
ĠTo uch
ĠCl ass
Protocol Handler
Replace ment
fib h
XY Z
Ġemul ator
oz hcd
When Disabled
WRA PPER
stitute Data
ĠGr ab
Runnable Method
IsImageFormat Handler
3 90
T PR
T one
d size
f cp
i attr
k Un
k Extension
n ss
n Max
n avigator
t q
u sion
z d
Ġ ORDER
re quires
is r
ch oice
fo p
tr i
con tact
Ġd imensions
In Process
ab ove
vi olation
Get Time
ĠT op
ĠP ol
sc alar
for w
buf type
ĠI MAGE
ĠG MAC
Image Bitmap
Ġpro visional
Value Exception
For Element
mb edtls
ĠGet Bound
Ġun do
Text Insertion
Render Box
TH AT
Time scale
proto ctx
Document Load
flow flags
Var iations
meta file
ĠIN ET
did Receive
Notification Details
focused Element
ĠFOR M
Begin Frame
)(( (
ĠURL Pattern
BG RA
Unsupported Error
ĠBuffer Info
Glyph s
sIn PortDef
Unexpected ValueException
Ġexpect ing
ĠMo jo
ĠPL ATFORM
Structure Class
DownloadManager Delegate
RECOVER Y
sequ ent
ĠvirReport UnsupportedError
ufacture r
, (*
A i
A FF
A tomic
B etween
F rac
S uper
Y CBCR
k str
m buf
r h
s sthresh
t n
w l
w ho
Ġ ATOM
Ġ LEGACY
Ġt pm
Ġd v
Get I
Get Text
Ġin herit
Con catenate
ĠA UT
per form
pl l
new ex
new sock
Ġres no
TI M
LA SS
ĠU S
bl it
Ġal ternate
app log
ĠMagick SizeType
Ġ3 00
cache s
ĠIn heritException
point size
Create For
ĠSSL v
Ġhas n
Ġweb rtc
rx q
xff f
script s
")) {
call chain
Sync Manager
Pixels Per
my sqlnd
insert ion
SAMP LER
CIP AL
ssh buf
Gr adient
Execution WhenDisabled
ĠInput Handler
logical Top
Ġvir DispatchError
Ġdraw ing
Allow ExecutionWhenDisabled
ĠYY CURSOR
Tile s
Ġimg CoordMunge
Bookmark Bar
fre quency
Scan line
Ġlarg est
VA IL
ĠPAR SE
Ġguarante e
EBAD F
ĠHEAD ER
TexParameter i
ĠGN UTLS
oton ic
hugep aged
ĠBOO LEAN
3 60
F B
L ight
b Enabled
b oth
g va
n bits
n Num
r md
al Header
et o
Ġt tl
si mpl
ro f
ro bust
Ġp gd
Ġp rio
str case
Ġf its
Ġn egot
)) /
set clientid
Get Path
Get Delegate
dr bg
Ġg p
Ġh idden
dev conf
ĠM at
CH LD
Ġth ink
Ġv if
UR A
ĠW rit
ĠB OND
free desktop
ĠĠĠĠĠĠ Ċ
ps LeftNode
Is olation
IS DN
Ġy Min
Bo ot
ĠWeb URL
Ġsock s
Render Object
Color Map
play Tree
IF MT
HT ABLE
bs d
Scroll Position
writ ing
Exec uting
Boolean Pref
Draw Arrays
pk thdr
ev p
Alloc Copy
Ġwrit able
Ġcom bin
throw DOMException
Ġdec imal
logical Left
Ġfol lowed
Ġconf irm
ĠURL s
CONTENT S
SharedMemory Handle
ĠAPLOG NO
PAN IC
ĠLe vel
zer os
ĠAuthentic ator
ĠPMC RAID
PRIN CIPAL
# #
B Z
C AB
G lx
H z
K nown
M idi
P W
b ile
c alculate
e qu
e flag
l vm
m ig
m log
o sip
u cmd
re cs
st ar
ar ia
Ġp Idx
ce il
ed itor
Ġb w
Ġ& (*
In ode
ĠS CM
Ġcon sumer
RE STRICT
Re verse
ms k
ĠF ST
sc aff
ĠD SA
Ġis akmp
Ġ' }
Ġe cc
Ġk adm
Ġtr im
ĠB MP
Image Properties
ĠR Bin
NO TA
Sc aling
dec ision
State ment
req ctx
Web RuntimeFeatures
Pixel Channel
Ġsc alar
unlock ed
ĠIn jectedBundle
Ġun icode
TA CHED
Ġread l
Ġpar ity
Ġcpu id
Channel Count
With Traits
mac ro
User name
temp Pool
Ġnl s
origin s
Open SSL
ĠPR Ix
ĠFA ST
Net Log
label s
aff inity
ENC Y
go al
Match ing
cent ral
logical Height
Fixed Array
Uniform Matrix
Ġsection s
Global Object
CRYPT FS
valu elen
Play State
gdImage SetPixel
lif ecycle
Ġgener ation
ĠPOLL RD
specific s
ĠCache Info
Ġexpect s
ker b
Signal led
fre elist
snapshot s
Ġoccur s
anim ated
Cross Origin
RESER VE
Ġcontaining Block
ĠJSTest Obj
GetStringInfo Length
VARI ABLE
InvalidArgument Exception
BAL ANCE
wee chat
/ .
D ont
N egotiate
R K
S uspended
S LOT
[ --
] %
c xt
e Type
e ax
h ue
p st
s al
w allpaper
Ġ LOAD
Ġc ols
si vely
Ġp ta
Ġp Storage
Ġs pi
el ts
as l
Ġm OMX
ata ble
In jectedBundle
Ġi ri
Get Response
ser s
of conn
Ġr cc
ĠA Codec
ime d
ĠD el
ick y
pr aw
ĠE mpty
Ġe ee
LO ADED
Ġof praw
ra ction
ĠV LAN
di ag
View For
State s
Size Of
MP LANE
Ġsc m
ess aging
tx poser
Log MagickEvent
Ġz er
Ġso on
Add Op
Ġdis pose
Ġav priv
HE ARTBEAT
vmx net
cnt l
NOT REACHED
DOM Node
Arg Goto
Ġad min
mi i
Plugin Instance
ĠPR INT
As WeakPtr
ĠUn able
Last Committed
DEF ER
HO LE
ev dns
sha de
Register BooleanPref
Ġlink s
Stop Loading
ĠFLA SH
ĠPG RES
BIG NUM
Ali ve
Spec ial
Ap pearance
success ful
Ġfa ad
inf light
SEG V
hdl c
Ġcause s
Ġcmpt no
sper strip
ĠRoot Window
YG ON
imity Position
ĠME SSAGE
A irPDcap
I RO
K MP
S g
T OT
V ID
] )),
d rep
h unk
j i
k control
n w
s ct
s ch
or ded
ad opt
Ġs min
ut s
Ġm pts
Ġcon straints
RE CLAIM
get Char
Re v
op m
Ġh dev
ĠC DROM
Ġr atio
St d
Ġ% -
Ġk Min
new ext
Ġbe ach
ĠH uffman
NO W
ĠO SExchangeData
Sc ene
time line
dec imal
height expn
Comp utedStyle
ĠWeb UI
rec order
local ized
input s
Ġstate id
not EnoughArguments
Message Source
Stream Decoder
Ġrc v
cr bug
Block DriverState
Out come
instance s
mod ification
ĠSt andard
ĠLog PNGChunk
exp anded
real path
ADD REF
ev util
Show ing
step d
Ġwant ed
impl icit
Paint Invalidation
Ġloop back
Ġenc len
Ġlogical Right
Report er
Ph oto
Margin After
ĠBU G
WK String
cx a
Reference d
Identifier Value
Remote G
ĠFloat Point
VR RP
DEN Y
DEL TA
Scheduler Impl
)| (
Ġ'\\ ')
Mon o
Vdbe AddOp
SERI ALIZE
ĠOUT PUT
GetStringInfo Datum
ĠTransform ImageColorspace
ebo ard
ĠSMART LIST
ĠISA KMP
widthexp n
NOTA VAIL
Ġmpts as
) ";
M ay
M apped
O c
S playTree
T ID
Z ATION
e X
o gs
p olate
t or
Ġc rt
ar val
int name
Ġp layer
un reachable
co olkey
ĠN FT
ĠS RC
ĠS CHED
RE USE
Ġr pm
ĠM XF
sp are
ĠD CB
Ġe i
ĠB ecause
ps rc
vm ptr
UN SPECIFIED
Ġex periment
Size Y
ld m
cs bp
FA M
FA CT
File MetaData
SU ITE
Text Box
xml writer
Or d
Start sWith
Child Frame
INIT ION
job q
Interface s
Ġlock ing
DEF INITION
ha pe
Output Surface
TRAN SL
Ġfl at
Ġgo ogle
Append ASCII
Ġapp Data
Preview s
ĠAP IPermission
Mark up
CSS Property
Ġlabel s
Character istics
UNI QUE
Ġunder lying
Ġdig its
ĠPer formance
respon sive
fre ed
strncpy z
MUT ABLE
POL YGON
Json b
Ġvf io
Owned By
ĠkNot TextInsertion
OnIO Thread
Deliver y
Phy sical
ench mark
sche mas
ĠkDoNot AllowExecutionWhenDisabled
ĠHel lo
ĠExecution Context
a ad
f dest
p This
y tes
re vent
at tempts
Ġc arry
lo ok
un icast
str ong
Ġs num
Ġf ront
Ġb ulk
tr ast
ic ated
LL ink
info bar
Ġin f
ser ved
ĠT ell
Ġde compression
ĠF LOAT
ĠM ac
vent ion
ter ance
ĠE AGAIN
Ġv addr
ĠW rap
TR R
Ch an
CE D
Set Up
To Chunk
Ġvoid Method
frame View
UT T
mb ig
Ġy Max
dd p
Comp ress
tl m
not ifiers
xy z
fl ash
Handle s
Method Invocation
pid s
CL K
Destroy StringInfo
ĠQ t
Ġsi blings
call able
Ġtest case
ĠRes ol
pf key
... \
writ ers
Red Channel
FRAME S
Download s
Left ToRight
TRANS PARENT
Ġep ctx
(_ ("
SetImage Extent
ACCESS IBLE
Ns Ptr
Ġbind ings
WebGL ImageConversion
DY NAMIC
ĠWK Bundle
Unicode String
Primitive Value
Ġcome s
CIRC LE
Ġexceed s
ĠStorage Partition
Ġextr adata
ĠmsString Concatenate
occur rence
Ġregard less
B i
B old
C ENTER
E mail
H y
P ast
S Q
S UR
g db
h ad
m its
m Num
w ell
w scale
Ġc ac
Ġc ycle
Ġp an
Ġp ud
Ġp reserve
Ġb ar
Ġn vmet
Ġm EncParams
ĠS ingle
Ġcon v
Get CacheView
Get NativeWindow
ver ified
Ġg pio
ĠC ol
ĠC IP
ĠT emp
cp pValue
Ġr png
ĠM R
sc rypt
ĠA C
ĠA r
Ġfor ced
os sible
port dev
ĠR B
und ant
ly r
Is WebGL
def rag
mb olic
State OrNull
Pixel Store
ec b
pp v
cmp xchg
ĠEX EC
DI RECTION
ĠRe mote
Load URL
Add Command
ĠOMX NodeInstance
Ġap ic
Char set
filename s
PH RD
control len
Child Process
Layer Mapping
conf irmed
Base line
mount s
temp ref
ĠAR CMSR
IM MUTABLE
NODE SET
Ġgr anularity
Ġimpl icit
Push LongPixel
convert ed
Scrollbar s
Character istic
ĠDE S
ĠAS CONF
Sn ap
Seek Blob
ĠValue StateOrNull
Ġcancel led
NF PROTO
Quant ization
ĠBe fore
ĠRect angle
. "),
E OI
I MI
U LE
a res
c def
m utable
n entries
p dx
r len
y ield
ar ly
Ġb c
Ġb roadcast
co mplex
li able
ul ating
get Name
Get ResourceRequest
able Stream
Ġh ptr
ĠC MSG
ĠC ALL
Ġl azy
ri be
type check
ĠM enu
out queue
sp ell
ĠI HDR
bo s
IT IES
ĠR IL
path len
ann ed
Error Callback
Error Insufficient
dis cover
ĠL EN
RA ME
pp po
.. ..
off line
Not EnoughArguments
ĠZ ip
TIFF Get
layer info
fc n
gl X
ĠTR B
po ch
Sample Index
Screen s
icon s
Ġvar ious
SN DRV
XML Node
Remove Command
present ation
Ġrect s
transfer red
syn th
Ġac ross
Ġreason s
Flow Positioned
Ġdp x
vo ip
hex dump
Ġlin eno
ĠRT M
Margin s
actual count
Sheet Model
Ġnamespace s
Ġkmem dup
want ed
Ġcalc ulation
Black list
HID DEN
ĠQuery Color
ĠInst all
DidCommit ProvisionalLoad
Ġnorm ally
ĠMON ITOR
ĠProto col
Ord inal
LLink Element
ErrorInsufficient Resources
D ay
M K
M YSQLND
R TreeData
T TL
a jor
b ot
f stat
g arp
k V
k l
n avigate
p RI
p olicies
al i
Ġc rl
et ches
Ġt num
Ġt ries
Ġs fp
ate ver
ame pad
pe bs
Ġm ixed
il ine
ĠS anity
ve al
Ġl ha
ime s
ĠD irectory
ĠE OS
Ġtr a
Ġout standing
String Value
For Node
Data Count
Is Object
ĠV ORBIS
ĠO C
Ġwh ence
Qu irks
ĠGet Extension
color Map
inter section
AP IPermission
sub RL
Ġq op
Dis covery
not hrow
fc all
frag len
ĠSC AL
Bit Rate
ĠPNG Type
ĠCH UNK
Native Value
Ġbo olean
DEF LATE
SN AP
Ġyy g
sw event
su ed
Throw Exception
Hash Set
ĠEn try
Ġglobal Object
Wh itelist
logical Width
Popup Menu
Ġpix man
Enum eration
xx xx
Ġfault s
Ġsw apped
Ġplace holder
ĠInter stitialPage
Ġ'" ')
Soft OMXComponent
Signed Long
ĠLEX ER
ĠCURL code
ĠCustom Element
fu sion
INCLU DED
Ġappear s
Ġtool bar
ĠFIL TER
Ġpri me
ĠCHAN NEL
ĠAss ume
Ġarith metic
" <
/ ");
C leared
D PRINTK
M anaged
S ince
S witches
W W
f size
f seek
h ind
k thread
m OwnedBy
p ce
p body
p Ins
q h
t nl
w ire
x B
y o
Ġ LAST
st buf
if ru
le ton
Ġp Bt
str lcat
Ġs pe
is a
Ġm Output
Ġm secs
Ġd ensity
Ġ- ->
RE CUR
Ġa utomatically
Get Browser
Ġin cr
ke leton
ĠT ABLE
Ġr data
ĠA cpi
Ġu buf
Ġ' (
Ġtr ansient
ĠB ool
num rlvls
new line
new inet
FF D
String Resource
Ġas m
ĠL atin
Read ing
LOG IN
Ġun register
rec alc
head len
eg id
Ġcurrent Time
cond or
Ġcpu c
Ġaddr len
Ġvm w
rx nfc
OG LE
gl Copy
ĠQ COW
malloc z
AV RC
ES CAPE
ĠRE VERB
ĠAR PHRD
MD L
ARG B
region s
download s
Tcp Session
ĠPage Info
Equal izer
ĠPer missions
Ġdup lic
Lost Context
One Shot
Ġabort ed
Ġ(_ ("
ĠICMP V
ĠDefault IsUndefined
655 35
ĠMediaStream Manager
Gahp String
HINT ING
embed der
ĠxmlStr dup
Ġfw net
Ġ'= ')
Ġ'! ')
floating Objects
EADDR NOTAVAIL
Ġroll back
ĠTemplate URL
mOwnedBy Us
7 54
A URA
B W
D CT
H FS
M essaging
S weep
c back
g pointer
m ing
w phdr
Ġ ctype
ag rams
et ric
Ġp ag
Ġp tmp
Ġ0 64
Ġs ensor
Ġb onding
Ġm icro
/* ************************************************************
ĠS CO
Ġcon structor
ĠC TC
sign ing
Con struct
ma j
ĠD CACHE
ĠI CB
Ġe f
ĠW alk
ĠB D
ĠR DS
Set Property
ĠV dbe
Web NavigationPolicy
ĠU sb
IO D
pp m
sl aves
Ġ_ ("%
Ġsh if
Dis miss
Memory Buffer
target s
Ġold XP
output s
ĠCON DOR
Ġvm cb
Content Info
PRE EMP
Ġsub type
TIME DOUT
Script Context
part y
pg p
ĠUn serialize
ĠExtension TabUtil
ĠSetPixel RGBO
Col umns
np w
Ġmod ifier
Ġsn ap
prot otype
Surface Id
clip board
Ġtx q
Ġrect angle
Play ing
Cap ability
ĠParse CommandOption
threshold s
Ġnormal ize
det ected
dw Flags
Unload Event
pat ched
Ġpred ictor
Ġstrip ped
RBin File
Clone ImageInfo
Ġai ptek
dead line
ĠONIG ERR
ORI ENT
Ġol der
iscsi lun
Ġsup posed
ĠBrowserWindow Gtk
Ġcer tain
3 00
A pps
A CCES
I AL
U DF
b cast
c rit
f handle
m by
t arg
Ġ ENOENT
re striction
le y
Ġc my
si est
id p
Ġp oc
Ġp tl
ad r
un ame
Ġs itu
is ing
Ġn m
Ġm aint
im ag
Ġw ps
In clude
Ġi dev
Re quires
Ġin p
ĠF e
ĠF low
sc n
ara Ndis
sp n
ĠG uchar
est ack
fs info
Ġe asi
Set s
UN WRITTEN
cpu hw
ĠH V
ĠH TYPE
Sc anning
time d
write page
Tr im
act or
LI G
ep ayload
her its
ĠIn stance
src ptr
OK ED
Thread Id
From Frame
Resource Bundle
IF REG
ĠRender Thread
create IdentifierValue
Op Eval
output Func
Ġport id
CL USTER
User Log
NET LINK
HDR LEN
ĠTIFF Close
align mask
Ġar m
Parameter Count
full path
orru ption
Top Level
GP IO
ĠAl loc
INDEX ED
NEW LINE
minor version
mov able
rw nd
ĠText Track
Mod ifier
Framebuffer Info
Ġhapp y
throw IfNeeded
throw TypeError
Ġdebug ging
extr as
Ġcell s
clean ed
termin ated
ĠGpu CommandBuffer
tool tip
MAY BE
Ġrd fa
allo ced
ĠResourceRequest InfoImpl
CRED ENTIAL
Ġrot ate
Ġask ed
ĠJNI Env
MID I
ĠUP DATE
xcr s
Intercept or
%+ .
Aut oplay
ĠBOUND S
EIN PROGRESS
B OTTOM
E TYPE
G arbage
M G
S ort
U id
g h
g tag
k ExecutionContext
l arval
m Header
p le
w arf
w ildcard
| =(
Ġ 96
in jected
Ġc ube
ent ities
un expected
ch dir
Ġm alformed
Ġm oment
set Data
bu i
ĠT S
Ġto V
ĠA PL
ĠA LLOC
ĠD C
Ġx ar
rr q
mo bj
add Member
UN ALIGNED
UN AVAIL
char code
Value List
ĠO FF
Ġen ctype
SH UT
input dev
Color Mask
ob s
\" >\
ĠEx pr
Rect To
Command Source
Ġinode s
Num eric
Service Name
FUN TYPE
Ġconn ector
br ight
so v
Layer ScrollableArea
MB OL
script State
Ġnl k
MEM CPY
Ġusb net
Byte Array
Ġimp lies
ĠVM CI
Ġgl Gen
ĠCo okie
Display Item
layout State
ĠTr ansparent
gen iv
BL END
Ġour selves
ĠIs Ok
Ġglobal s
Ġreser vation
Row ID
huge page
WEB KIT
dom Window
Serial izer
HOOK S
SAX Handler
interlace d
Anim ator
lz w
Ġanon ymous
Ġdead lock
TextInput Client
ntl mssp
AttributeGetter Callback
YC bCr
CIE dict
ĠTIFFRead DirEntry
ĠHead less
- \\
. */
> (&
A PE
A ux
I gnored
O xideQQuickWebView
S z
T ERN
W mf
d B
g w
n Length
n vmet
t Effect
v ram
re ase
Ġp Draw
un serializer
mp pc
Ġm r
Ġ" ..
Ġ" )");
ĠN I
Ġd cb
Ġ1 0000
get her
Ġre claim
Get Profile
Ġde pending
ĠP UT
), "
Ġu zbl
ĠG lyph
pr l
ĠE D
Ġk object
Image Coder
Set Visible
FF s
Type Enum
Ġret ries
For ced
Frame Sink
pa red
ĠGet Selected
Ġen s
Ġle aves
SR VR
current Time
VER Y
Log ger
ĠSet Up
Ġxml Dict
Ġq ib
Ġread able
From DataSource
am less
byte stream
append s
Ġ"\ \
... ");
Change Notifier
verr idden
Det ector
icon v
Record s
ĠSetImage Type
compat ibility
Ġcred ssp
Ġcom ma
ĠNFS D
Ġcompat ible
Ġca ret
xp ctxt
Focused Frame
Ġbody len
lim b
Ġlib usb
MessageLoop Proxy
Sandbox ed
Adjust ed
MON ITOR
Ġcupsd Log
Hand lers
Ġsort ed
Insecure Content
ĠPID TYPE
FILEN O
Preference sVar
DIM ENSION
wow l
EXPI RED
ĠFoc us
ĠAB ORT
GetShared Instance
Wmf DrawingWand
2 32
7 1
B ulk
C at
F LO
M ULT
N M
N FC
P ING
R ARY
R LIMIT
S em
V p
a req
b Enable
c name
h dc
n Channels
p size
p blk
al ic
Ġf pu
Ġf avicon
ff lush
Ġo cc
ĠN avigate
ĠN aCl
Ġ+ -+-+-+-+-+-+-+-+-+-+-+-+-+-+-+-+
RE JECT
Ġre fs
Ġa hci
ĠT IF
Ġr map
ip fix
ptr n
ĠD T
Ġk rr
PE rror
red ump
AD J
ib ble
EX PR
ann o
def late
Ġ4 4
req id
next Pixel
Object Store
pre pend
SH OT
PRINT ER
dest Ptr
PP P
MO TION
VI SION
Or Key
send buf
Le ading
Service s
rg ba
Ġlog ged
NUM HOOKS
range check
com ma
Navigation Throttle
PAT TERN
Sample ToChunk
ĠBrowser List
float val
tm x
Ġpart icular
PORT DEFINITION
QU IT
strip ped
xslt Style
Ġhttp d
intf data
Ġreference d
Custom Element
js Undefined
Ġdet ection
Cell Type
Ġgiv es
ĠBad Alloc
ĠTime Delta
Ġiso ent
ĠGData FileSystem
Connect Ptr
WE IGHT
Constr ained
virDomain Ptr
ĠFIL ENAME
GIT ERR
Ġ+-+-+-+-+-+-+-+-+-+-+-+-+-+-+-+-+ -+-+-+-+-+-+-+-+-+-+-+-+-+-+-+-+
PORTDEFINITION TYPE
G dk
H I
R AT
S parse
W OR
m icro
p cpu
r st
r phy
s mask
s ds
s rose
t class
se gno
if type
de quant
me mpolicy
Ġp olicies
Ġp itch
Ġb er
Ġb Have
is HorizontalWritingMode
Ġn bits
Ġo idc
ĠN autilus
end isk
In correct
li sion
ab uf
ĠS p
Ġint ensity
RE STORE
Get User
Get CacheViewAuthenticPixels
data Source
EN GINE
ir th
read able
ĠA b
ĠI A
CH G
CH N
Ġx i
Ġe ol
Ġk TexImage
ĠR ING
De grees
ED IT
Frame Type
start s
Context Data
Ġerr code
Ġal ive
Ġxml XPtr
FO pen
ĠJ CS
ĠRender Style
Ġalloc ator
Format Type
CL RS
track ing
ĠCH AR
Print Pages
QU AD
56 5
Framebuffer Texture
before unload
scheme s
Reason s
Ġfollow s
Shader Info
ĠPer form
ĠFF MIN
Enc Context
nest ing
ĠScale QuantumTo
Ġest ablished
Vertical Scrollbar
XMLTree Info
Ġeth tool
assemb le
Ġtre ated
LIG HT
CLRS PC
0 10
H w
H AN
I CTION
I llegal
M HTML
P ump
V ips
V IPS
W OW
Z one
c data
e os
i k
m Handle
n ops
v size
Ġt SMP
si gs
ro b
Ġp otentially
Ġo verrun
Ġw orth
Ġcon verter
get line
vi ction
Ġa fi
ms nd
Ġst encil
ip ip
ĠA ccess
te mpl
key frame
sp y
Ġu iserver
ĠD TD
ĠI map
ĠW ave
ĠR ound
ĠR aw
add recon
new Child
Data Manager
Ġnew Child
di rentry
sock ctrl
ĠL SB
Ġon to
Ġstr lcat
client hello
Ġ3 4
Element Node
NE TIF
Mo ved
obj path
Path s
check s
AM MA
Int Size
Count s
sec attr
Method s
Ġfirst Child
Code Point
PH OTOMETRIC
Ġsub sequent
Long AttributeAttributeGetter
Ġsi x
Ġback wards
NT STATUS
Ġreq line
Controller Impl
Ġme mpolicy
ĠImage Bitmap
HTML Document
ctrl pipe
Ġcol on
CTX T
Authentic CacheView
Acquire AuthenticCacheView
Ġent ered
ĠEn ter
Flow Thread
siz ing
SEQ PACKET
ĠLoc ation
IndexParam Audio
Ġindic ator
Single ton
Ġtermin al
OC SP
ĠAT RACE
COMPONENT S
DD X
ĠPlatform Sensor
Rad ians
Ġdh cp
Accessor Info
ĠState None
xFFFF U
ĠDisplay Item
======== ========
ĠPRE FIX
QUANT UM
ORIENT ATION
/ (
C y
C nt
D AC
G raph
J BIG
M CE
M UST
N OPTS
R INK
S LO
S CAPE
U AGE
X OR
[ ++
d rops
g malloc
h aps
k d
k Cros
m sec
p ast
p Sample
q n
v apic
or arily
Ġp bi
un handled
str ained
Ġf len
Ġf puts
Ġf igure
Ġb ubble
Ġo len
ode PNG
Ġre vision
ms PostGIS
AT YPE
Ġh op
ĠC T
ĠC LOCK
ĠC leanup
ĠT y
Ġr size
Ġde s
ĠF all
DE SK
DE TAIL
ĠM TYPE
ĠM EG
LE AVE
LE AST
te vent
ĠG UEST
ĠĠĠĠĠĠĠĠĠĠĠĠĠĠĠĠĠĠĠĠĠĠĠĠĠĠĠĠĠĠĠĠ ĠĠĠĠĠĠĠĠĠĠĠĠĠĠĠĠĠĠĠĠĠĠĠĠĠĠĠĠĠĠ
Ġx ps
Ġtr ust
TR O
ive Type
md ay
Ġco ver
Data Length
ML U
State Change
Web KeyboardEvent
Ġen ded
Ġnum a
version info
NE IGH
group ing
AM R
Int Ptr
Int ensity
Resource Handler
Load Timing
Load ImagesTag
Manager Base
ONE G
000 1
Update StyleAnd
omet imes
Style Resolver
Ġsub resource
Reg istered
begin ning
ĠTI MER
ĠWriteBlob LSBShort
Be ing
Control Block
Ġauto Lock
BLOCK ED
Ġmake fun
Output Dev
ReadBlob LSBLong
istog rams
GP S
Ġhton ll
CONNECT ING
Chrome Client
ĠReadBlob LSBLong
ĠReadBlob MSBLong
Def inition
ĠPO ST
ĠCPU s
ĠNP STR
install er
ĠBIT MASK
Sequence d
PROT ECT
Ġscaled Height
ĠThrowMogrify InvalidArgumentException
Ġperson al
Plan ar
MAIL BOX
experiment s
acce lerated
INHER ITS
PLA IN
Recogn ition
ĠRectangle Info
M NT
M MAP
O ctet
P ing
U IS
U ART
W X
h adException
m crypt
n Version
p Dst
w pa
w hole
z de
} \
de activate
Ġc af
Ġc bp
con tour
ol iet
Ġ- (
RE X
Re moval
Ġin spector
Ġh ot
dev c
Ġde x
ĠP PE
ir da
put fh
AR C
state ment
fs PDU
Ġe h
mo ver
mo ov
ps m
Str ong
new src
TI ES
context Size
Ġstd in
Read only
root fs
sl abs
MS GF
Render Thread
Ġid r
12 3
usb hc
From Menu
11 1
ia kerb
Ġav c
ĠZ ero
Point F
connect ing
NUM ERIC
Device RowID
Ġqu ick
Bu zz
Ġcall data
Sync Internal
OBJ CE
sz Buffer
report ed
reser vation
Active DOMObject
Root Box
Ġdel imiter
REF COUNT
Dialog Views
Bounds In
img Data
Platform Sensor
prec no
button s
exist ent
rad io
adjust ed
Ġinsert ed
WK Bundle
Ġ': '
ffffff f
BOO ST
ĠInspector Instrumentation
ONIG ENC
cq spi
CommandBuffer Impl
JO URNAL
adj acent
CANCE LLED
ĠPL UGIN
TextInput Type
Ġacces sibility
arf Buzz
LANG UAGE
Descendant s
fra ction
ĠASS OC
Integr ity
legated FrameHost
JNG Image
vict im
Hal V
Ġcq spi
) <<
D CH
P an
b z
b zrtp
c atalog
i buf
n or
p ml
p db
p New
u ck
v op
Ġ ON
Ġ* >
de precated
Ġc Dest
ro te
Ġp lease
ck ey
Ġf ine
Ġw q
Ġre lay
vi e
Re alloc
Ġa cquire
Ġa Src
ST AGE
Ġh h
Ġh mac
do s
ĠM CAST
ĠM ngInfo
sc at
Ġx sl
Ġk ex
TR L
UN HANDLED
Magick ImageCoder
ĠX ATTR
ĠL MP
ĠGet Widget
RA nal
Ġstr tok
Ġvalue Push
On Mouse
rb io
Request Type
Page Info
ĠTh us
Or Zero
Ġdis covery
has hed
CM ap
Ġneed le
TO OTH
DB LOCK
With Error
PO ISON
INIT Y
top ic
Media QueryList
Ġsy mbols
Ġreq ctx
po ison
Ġprocess or
As NullString
run length
ble m
Ġar bitrary
Dispatch Event
CIP H
Col lected
rpc apd
dl ci
INTER LACE
Ġcp uctx
ĠSetImage BackgroundColor
Ġjs TestObj
Ġcms UNUSED
ĠSe quence
Ġjsv Get
Link s
edit able
StringTo Int
ĠData base
ĠData ReductionProxy
Factor ies
mech s
Ġsuper block
REV OKED
Ġpred iction
Ġphy s
rsv d
ĠTexture Ref
BAND S
embed ded
ĠRO SE
RList Iter
ĠSafe Browsing
MIG RATE
Multip ly
IndexConfig Video
Sat uration
ĠEqual izer
Signalled Error
Ġzer os
bright ness
kCros HalV
2 24
C DC
D es
D CommandBufferImpl
E Core
E ina
G ain
I mm
J SC
Q M
Q SPI
b buf
h aystack
i ance
u Int
x v
x en
x ab
x ts
re ap
re moval
ar mpmu
Ġp ms
Ġp cr
Ġp ause
un p
Ġs mi
Ġf tp
ĠN A
Ġd printf
Ġre write
Get Error
Ġ(! (*
Ġl uma
ĠF USE
DE LALLOC
ĠM UTT
key code
ĠĠĠĠĠĠĠĠĠĠĠĠĠĠĠĠĠĠĠĠĠĠĠĠĠĠĠĠĠĠĠĠ ĠĠĠĠĠĠĠĠĠĠĠĠĠĠĠĠĠĠĠĠĠĠĠĠĠĠĠĠĠ
ĠE PT
our s
ID ENT
ĠW OLFSSL
Set Active
cpu set
Ġbe haviour
Value Ptr
Value Traits
Un used
ĠV HOST
ĠO wn
mb name
ill er
Tr ansient
ĠL ong
ĠL aunch
On Did
Ġun safe
cb cr
this Value
obj t
sy ms
UM N
flag set
UP D
FP DF
var name
Ġsub r
enum erate
ĠRead ing
Ġmet ric
ĠPR Id
Interface Descriptor
Short cut
ĠFrame Selection
BY PASS
PORT S
Null able
Storage Class
<< =
Tra iling
sequence Number
Ġprotocol s
DBG LOG
Connection Type
ĠNavigation Request
Ġcre ator
Attrib Location
replace ment
DP B
MM U
ĠCOM MAND
ste al
Enum erate
Ġdirect ive
StringTo UnsignedLong
WEB GL
TabContents At
normal ized
PRI x
ĠSW F
ĠmCodec Configuration
BOUND ARY
snap end
ĠEditor CommandSource
Ġtri ed
ĠAPP L
ModelType Set
ĠNative ValueTraits
MSC Warning
bing Parser
VIRTU ALIZE
Flo or
OrKey Binding
FromMenu OrKeyBinding
( ++
) >
/ >\
B tree
B ATCH
F our
I ss
M ost
N UMA
R id
S fx
b len
e oc
f gets
i asecc
s lope
Ġ DEV
in el
en vironment
or ph
Ġ{ };
Ġp iv
Ġp am
Ġp otential
un less
Ġn Value
Ġm aking
ĠN UL
In voke
RE LAY
Ġi a
Ġre vs
Re p
Ġh rtimer
Ġl icense
out ine
buf info
ĠD RM
Ġis olated
per mit
__ (
Ġk S
Ġk Flag
Image Element
De frag
UN AVAILABLE
Ġj boolean
event Handler
ĠH UB
Is At
Magick ProgressMonitor
ĠO paque
Sc anner
], (
Web GestureEvent
Impl icit
rt ree
ĠWeb Socket
Ġmem cg
He re
VER S
ud ge
IL Y
Ġcomp iled
ĠJ SC
Ġsrc Y
TO LE
apt ation
ak er
PRE D
EC DHE
Ġsy stems
Back ward
CAP AB
Ġad j
AV IOContext
Packet Size
Tag s
query str
NET BUF
Control Parameters
ĠFrame FetchContext
COMP LETED
ĠVM CS
Alpha Type
Ġtrack s
Ġcp us
HTTP S
EXIT STATUS
LIB PNG
Gpu MemoryBuffer
77 77
Overflow Clip
Cre ator
schedule d
coord inator
Ġlow est
Navigate Params
Ġxmp NS
Horizontal Scrollbar
ĠGData Cache
DELAY ED
ĠDraw Info
Ġimport ant
ĠRed irect
OUL DBLOCK
ĠVirt ual
Ġ'# ')
BLUE TOOTH
ULTI CAST
ĠPOLLRD NORM
ĠMEG ASAS
MagickImageCoder Signature
* >&
A IRPDCAP
C ERROR
E CHILD
F DC
H it
P MD
P eer
W Q
c ritical
d ctx
f ers
f mod
g sicc
h type
k Show
k Use
l and
u delay
in complete
on elist
de m
Ġc dc
Ġt icks
ro k
Ġf abs
Ġn P
Ġn acl
Ġm Node
ul ations
Ġcon current
RE GE
Re ceiver
Get Max
Get RootWindow
dr dyn
Ġg cc
AL GS
ĠC lean
Con tain
ĠF MT
ĠD IR
ĠD TK
ĠI FA
ĠI ASE
ĠG PG
Ġx event
Ġtr acer
Image ToList
ĠR out
Set Value
Set URL
av hdr
sh strtab
For E
Buffer ing
pc d
dst y
CC B
Al go
DI CTION
ĠRe c
chunk ed
Ġpre views
Rect F
aw ay
Ġbit len
TIFF malloc
CR TC
SY MBOL
Base URL
Track Fragment
plic ations
phy addr
Ġar riv
Send Success
Authentic ator
Ġ9 0
ĠLayout BlockFlow
Button Element
LIB RARY
network s
Acquire QuantumInfo
activ ity
ĠCSS Selector
Ġdebug fs
Activ ity
authentic ated
ĠDraw ing
ĠNE ED
ĠScale ShortToQuantum
PROPER TIES
ĠvirCheck Non
ĠvirCheck Domain
So ap
ĠDispatch Event
Ġguarante ed
analy sers
FAN OUT
Ġrsv p
ĠSIOCSI F
Distr ibution
Mixed Content
lyr no
DESK TOP
drdyn vc
ĠIASE CC
G st
H V
H OP
N igori
R IL
T ts
X C
l q
n ft
o a
o es
p fd
p vec
r state
u an
x sl
Ġ INTERCEPT
re validate
et y
ro unded
lo ver
un ately
pt ime
Ġn key
ĠS HO
Get PreferredSize
Ġg va
ss b
ĉĉĉĉ ĉĉĉĉĉĉĉ
ĠC SP
do ck
ĠT RA
dev el
Ġto HTML
ĠM y
ĠA CB
ĠG P
ĠE P
ĠE FER
Ex change
To Wide
frame Count
Ġj avascript
Error Handler
FI O
comp uted
LA P
Context Provider
Ġwh itespace
Tr ay
ĠGet BlobSize
Ġen vp
Ġen countered
fe p
ĠMagick StatusType
Ġnum eric
ary ing
sub prog
this Object
xml Node
ĠK M
TO CLIENT
Le ave
Ġweb frame
slice s
DB F
MI I
Ġback ward
ĠERROR S
Level Info
Level Type
Exec Context
Det ection
Storage Namespace
BL T
Ġput s
AUTH ORI
Commit Navigation
Ġssh key
gp lot
post ed
Ġplugin s
ĠComp are
ĠComp ression
wb mp
fast open
MM X
BG D
Ġhappen ed
Ġsu ite
ĠCl amp
99 9
gener ator
Ġhint map
ĠTG SI
SetPixel Red
Ġ'. ';
kKey MIMEType
Oper ations
neigh bor
ĠAutomation Provider
ĠDet ach
Dig it
LISTEN ER
PHY FLG
Termin ate
Ġgray scale
genl msg
URLRequestContext Getter
ĠConn ect
Cond ition
activityLog ging
osp ath
ARE ST
Delayed Task
CLEAN UP
ĠResize QuantumMemory
PREV IOUS
TRIG GER
Sol id
6 00
C ipher
D LE
D ns
H OLD
H alf
S ur
W IDE
b Num
c Src
g di
h con
i res
j j
k Cursor
p do
p Expr
q t
t IME
u ites
w ep
x dp
Ġ ur
in secure
if m
Ġt empl
Ġs he
ut put
ed ch
ch md
ch mod
len ce
err No
Ġd sa
Ġd bg
RE TR
get InterfaceDescriptor
Get Selected
ver f
ver al
ms a
Ġg arbage
Ġh sr
ĠC D
ĠC red
ĠP ick
ĠI AS
Ġv c
Ġk ick
ĠW as
qu irks
ĠR CB
To M
ll ink
Ġse ct
ĠV C
write Interface
ĠL UA
File system
ĠMagick Epsilon
iter ate
List Item
rb in
Ġend p
Log Prefix
ĠSet Needs
Ġsh all
IC R
Add Child
ĠEx ternal
blk bits
Ġcode d
bin s
web rtc
output buffer
env p
Point QuantumFormat
Ġtrans forms
Per f
xff ffff
Ġparam Data
pg m
Ġrender View
Port Settings
FORMAT TYPE
NET BSD
Ġpriv ile
REQUEST S
Min or
Ġtrack ing
IOC tx
Focus Element
Mod ifiers
Ġscript State
WITH OUT
Ġsys fs
Row s
ĠConvert Unit
NP Object
Ġpop ulate
Cr ashed
ĠReg ion
arm or
decrypt ed
Ġel m
ROUT ER
SetPixel Blue
SetPixel Green
MOV Context
PSD Channel
Ġ"[ |
ĠInter face
ins pected
decl Entity
Pair s
Ġarch itect
PortDef inition
tran sient
Ġescape GahpString
Ġden y
Ġir is
SERI AL
Game pad
ĠMult i
Ġmer ged
DRA G
pDLS Data
fsFid State
PixelStore i
ĠOC FS
Ġcmy k
ĠvirCheckDomain Return
writeInterface Token
( [
9 3
R en
b vec
c ch
d vb
e at
f ar
h page
k Error
n Size
s uppress
x s
~ ~
si blings
me mp
Ġ" $
Ġ" ")
ext len
con tinuation
im v
ĠN DEBUG
ap ps
res ampler
ĠS ND
get attr
ve y
Ġi block
Ġre map
Get Web
ST YPE
ST ALE
ms vc
ac ert
ĠM anifest
file Header
put char
key map
ĠG File
Ġchar string
Ġk lv
Ġk calloc
ĠR el
Ġj sp
Ġex ceeded
ĠH MAC
Ġ? ??
write able
Ġal proto
Ġset sockopt
cs len
SSL v
dir fd
sub obj
NE AREST
Met er
sy sex
card s
Mem bers
12 00
sig mask
Ġrc d
SP O
CI B
order ing
Long AttributeAttributeSetter
Ġpl aintext
Ġopt imization
Proxy Impl
PL ITE
draw ing
curr Ch
body len
Copy To
Bitmap Image
Ġstyle sheet
Reply Params
LD TR
Gesture Scroll
nc q
activ ated
Received BadMessage
Animation Controller
flo p
Ġstrn casecmp
CHUNK S
ĠCO OK
ĠSession Service
Ġ') ')
ĠTime Ticks
ynchronous ly
Accept ed
ĠNOTI FICATION
evi ction
Interpret ImageProperties
BrowserMain Parts
ĠUnlock SemaphoreInfo
Suppress or
K ernel
K IND
K HR
M CR
S ending
V LC
a utofilled
e igrp
i os
j v
j itter
o df
p read
u cc
v ac
re es
Ġ( ));
int val
Ġp y
Ġs pte
Ġn cq
set Attribute
ĠN FC
Ġin filename
ĠC ue
do ctype
ĠP r
ĠP AN
Con tinuation
ĠF B
ĠF ETCH
type handler
sc md
ĠA CTION
file p
Ġu vesafb
cur frame
Ġx y
Ġk FunctionName
ĠW arning
Ġco olkey
UN IM
Ġout going
Ġpro x
ant ics
IS LNK
ĠGet DrawingBuffer
ĠGet IntParameter
rt data
Ġ(* )(
input Nr
ĠĠĠĠĠĠĠĠĠĠĠĠ Ċ
Ġsrc X
source s
mis sed
SER V
gin es
append Character
ĠQ ueue
Ġptr diff
Ġserver name
ĠDe frag
Write ReplyParams
MAP TYP
Did Navigate
Change Event
Ġpriv ileged
ReadBlob MSBShort
sha res
Ġfl v
rel ax
Src Size
ĠDo es
Worker Pool
verbo sity
ĠReadBlob LSBShort
Acquire String
Platform File
ĠComp utedStyle
Ar row
Encode Accelerator
deleg ated
ĠLocal DOMWindow
Ġauthentic ated
author ization
ĠBase AudioContext
Sw ab
Ġpsz Expression
dccp h
GetActive Uniform
ĠDet ails
NF TA
flat ten
Mid point
Pak s
DELI M
TimeTo Sample
Flex ible
Ġrece iving
OVERR IDE
ĠTransport DIB
strcase comp
ĠFe ature
ĠOwn Ptr
ToM nemonic
UNIM ULTICAST
? ",
C loudPolicy
F MODE
G one
L R
L ike
M uted
O s
R IP
X MIT
d ang
e sil
k None
k About
s ound
v w
x free
Ġ ĉĠĠĠ
Ġ VideoCapture
re j
Ġ* (*
le aved
si dr
Ġp crypt
Ġp ipeline
un serialize
Ġf size
Ġb x
co vered
is co
is flagset
IN COMPLETE
ile vel
ĠS can
ĠS imulate
Get TabStripModel
Ġh Comp
ĠC RE
ĠC IR
++ ='\
read link
out l
fa ad
ĠG uint
ĠG RO
list args
addr conf
row Size
pl aintext
Ġk NavigationPolicy
ĠW allpaper
qu eries
Pro ceed
ĠR G
ĠR ST
page Agent
Ex tr
ra x
Ġj bd
Ġnot Implemented
ĠV IPS
Ġwh itelist
Ġwh atever
req tfm
RA X
IO Buffer
Ġcomp ose
TH ING
eg l
Key Code
ĠRe ject
tag Info
VM CS
HE AP
Point sPerInch
Ġren egotiation
append Literal
Check Result
place ment
ĠRes erved
vs x
PRO CE
Ġtcp h
GetPixel Channel
gid s
pv scsi
Clear Page
Button s
Ġexec uted
100 2
Location Set
ĠPO LLOUT
Ġowner ship
CSS StyleSheet
rans fer
ĠGetPixel Red
ĠCommand Buffer
Ġhigh light
respon d
authentic ate
Ġmime Type
sq r
EXIST S
ĠAutofill Popup
sPer WorldBindings
synchron ous
ĠPoint Info
Ġarc msr
ĠInst ead
nFrame Width
nFrame Height
EXCLU SIVE
hemeral Range
WindowTreeHost X
ĠFALL THROUGH
Ġmems lot
B K
D CB
F eed
G OTO
R VT
a Data
d F
d im
l atin
n th
p ent
r pm
y s
Ġ ue
in ame
in sic
); */
Ġc ork
ck Size
Ġif req
as cent
Ġm us
Ġ" [%
Ġo si
end Element
Ġd get
Ġd list
Ġ1 02
ĠS RP
Ġre plic
Re sized
Re stored
Get Num
Get Visible
Get Title
op le
ĠM IFF
ĠG O
ĠG ot
Ġx ph
pl gctx
Str ict
Ex plicit
To Radians
ph one
Ġof conn
16 0
16 16
**** */
path In
For File
Size X
ĠU t
Qu irk
link ed
GL Surface
LOG DATA
SR V
ĠSet Selection
Client Redirect
array s
Al ternate
_) .
sec comp
Command sFor
ERN AME
Ġsub scri
vector ing
Ġqu ic
Ġus able
Ġ[ ,
Ġ[ |
Bit Count
CAP S
Empty Document
ĠMAX PATHLEN
ĠResource Type
Bl ur
Ġservice s
CHROM A
Ġgr id
WAIT ING
DevTools Client
Ġmac vlan
ewk Frame
Ġpc x
Ġass uming
ĠLoc ale
boot strap
ĠSh ader
Ġcond itional
Ġfre quency
GRAY Colorspace
Ġrest ored
Adjust ment
ĠPRO C
nBufferCount Min
Evaluate Operator
Ġpur pose
mot orola
Ġll cp
ViewSource Mode
Forbidden Scope
TOT AL
sch p
FAM ILY
LOGDATA FMT
( {
) !=
/ "
B DF
G AMMA
H ierarchy
M b
M SL
O RED
O vfl
k Type
m Parameters
n ad
t urtle
u ptr
v nc
re voke
al an
Ġt str
Ġp n
Ġp gno
ck pt
ck ID
lo ss
Ġs v
Ġs data
Ġf flush
ex data
Ġb prm
im eter
ĠN IC
res ence
rea ctor
RE SUME
Ġre moval
Get List
op p
Ġin cognito
lock owner
Ġh ence
ĠC apture
ĠT CG
ĠP OL
St andalone
file Name
ĠĠĠĠĠĠĠĠĠĠĠĠĠĠĠĠĠĠĠĠĠĠĠĠĠĠĠĠĠĠĠĠ ĠĠĠĠĠĠĠĠĠĠĠĠĠĠĠĠĠĠĠĠĠĠĠĠĠĠĠĠ
ĠE ST
Ġx asprintf
__ ((
ĠB link
Set Name
Ex tended
UN INITIALIZED
Ġse xp
Ġj ava
cl oned
For Tab
ĠX C
be red
ĠGet RenderManager
bug s
Attr Getter
Ġun written
trans forms
box es
Ġdef late
Callback Interface
][ (
auth size
Update Job
cr iteria
Extension Function
And UnLock
Ġcl p
Pre render
alg orithms
Layer Impl
iver sal
COL UMN
Ġtag Info
Interface Provider
MIN LEN
JS V
cre ating
RT CP
Over loadedMethod
lin er
ĠRenderFrame DevToolsAgentHost
TX T
xslt Ext
da mage
fb dev
Paint ing
failed To
FIN ST
Descriptor s
ĠOFP TYPE
Ġstep d
FULL SCREEN
Password Form
ear Down
Ġhw sim
Ġclip board
VertexAttrib Info
home dir
ĠStat s
black list
ĠMo use
fac ilities
Ġdepend s
cor rection
PLAN E
ĠRenderFrameHost Manager
Assign ment
reorder ing
ĠBP LIST
Ġig mp
ĠPh ar
ĠIG NORE
Ġlate st
cmsWrite UInt
Degrees ToRadians
' %
A ud
A EAD
Q Name
S to
S ADB
T ail
g Info
i q
k sm
q mode
w ater
x kb
Ġ Loading
Ġ LETTER
in ct
if or
or able
Ġc ctxt
Ġc vt
ar ms
Ġp addr
Ġs ctx
Ġm Last
ap is
In Seconds
ĠS MALL
ĠS ERVER
Ġcon s
Ġre con
up grade
ss ap
ĠC SUM
to uched
ip cs
file path
file Handle
buf ptr
ĠD UMP
Ġth umbnail
CK ET
Ġx Max
map count
Ġe ff
Ġe cho
Ġk Have
MA CH
Image Profile
ĠR AND
AD PCM
UN CONNECTED
reg isters
Ġbe g
Ġse em
Ġse gs
TI PC
msg s
Ġimage length
CO S
nd m
Object Header
Ġun load
Page Size
EV DNS
Thread Vars
Rect angles
Ġnode mask
PRE AUTH
cert resource
ek u
Ġover head
lib png
ĠPro xy
Ad j
ĠResource Loader
auto complete
navigation s
ALL EN
Initial ization
sw izzle
Ġsm allest
pub l
term state
paint ing
Ġjsv Is
GLError Suppressor
Effect s
Menu List
Fill Color
GetImage Profile
COND ITION
Ġtermin ator
Swap Out
Writ ing
Align ed
Ġmissing args
INST ANT
Assoc iate
ALWAYS ON
ĠAd apter
quot ed
SetReturnValue Int
anim ator
explicit ly
NEED S
Ġsf nt
PLAN ARCONFIG
hib ited
SEN SE
URLA t
Supp lier
HTM LO
ĠQuota Manager
Syntax Error
scatter walk
vised User
Ġnegot iated
Ġ064 4
C data
C YC
E mbedder
L uma
P atch
T wo
d word
f str
m fc
Ġ edges
Ġ URB
re boot
re sidual
in active
Ġp vc
Ġb ss
)) ),
In Picture
Get As
Ġin spect
ms n
ĠT EST
Ġl ut
Ġst andalone
Ġde sign
(" ",
ip i
pro ject
oc clusion
ment ry
ĠD IG
Ġx nh
Ġk illed
io end
Pro x
Image Resource
ME LLIA
De cision
Ġnew len
ĠH EV
Is Fullscreen
TYPE D
On Saturation
SU ID
EXT Fn
Ġun aligned
Request Headers
trans lator
CA MELLIA
Render Block
Ġxml Hash
rl imit
Resource Response
ĠRender BlockFlow
Ġdis connected
FLA SH
medi um
ĠCON TAINER
Content Length
pid file
Ġcmd Size
ĠQ U
ĠQ TAILQ
TLS v
ĠIP SEC
esc an
Field Data
my data
Ret ires
15 4
ĠTIFF GetField
Internal Value
Ġsend s
Ġsample Rate
Agent s
Audio Track
ĠAl pha
AF NOSUPPORT
Mouse Move
Ġofp err
Acquire VirtualMemory
Metrics Provider
ĠGetPixel Green
ĠSIOC G
Ġxmp Prop
Decl aration
OVER LAY
andid ates
ĠEC err
na e
Ġcondition s
tran sid
retrans mit
Compute VisibleSelectionInDOMTree
prox imityPosition
IndexedDB Database
ĠParam Traits
Qcom IndexParamVideo
SUSP ENDED
Ġeat line
VARI ANT
Ġcoord inates
Ġcomputed Values
Ġdra ft
Walk State
GetAuthentic IndexQueue
Compat ible
NAV IGATION
rtr n
ĠSIGN AL
ĠSL URM
ĠWrit ing
FACT ORED
Ġens ures
Retires OnSaturation
% [%
: {
C rypt
K I
M CAST
P kt
R ATION
S PAR
] \"",
f lock
f data
p aging
r mb
r wh
Ġ lose
Ġ LOCK
re verb
Ġc u
Ġp gp
Ġp DLS
Ġs amp
Ġb count
mp a
Ġn ump
Ġ" (%
ER A
Ġw s
Ġint egrity
RE FACTORED
get value
Ġa req
Ġin otify
(& _
ST AR
able Event
to ff
Ġr hs
ĠP LAN
ĠF IN
ĠA w
Ġfor bid
Ġx sh
Ġ' |
PE L
vm m
Set Is
Set Should
ant s
log it
Ġnew line
ĠH R
Is Running
ers Loading
tp m
ĠL imit
Ġstr buf
Ġstr cat
Ġen force
ĠGL X
Ġnum cols
MAX PATHLEN
Ġq id
KEY WORD
tl ing
Ġav rc
BIT MASK
BIT RATE
Input Ptr
Browser Plugin
ĠThe y
nr bufs
Long AttributeAttributeGetterCallback
Ġdst Y
UI Bindings
ds ch
private key
802 1
ĠOn Update
po ses
Track ing
Del iv
owner Element
IV D
Parameter iv
Ġarray s
Send Request
Ġmod ification
fil t
Mouse Button
Ġjsv Object
Effect Type
Unique ID
trunc ated
ĠAX ObjectCache
rot tling
rad ix
Seg ments
Wr ong
ĠContent Settings
Ġmeta file
ĠBad Value
Bubble View
TOO LS
ĠSpl it
ĠQu ic
wifi ex
++= (*
ĠAN CR
interp olate
GetEntry Count
\": \"%
station s
ACTIV ATE
Walk er
ĠRLE Compression
Ne arest
ĠCell Type
CONTRO LS
QUASH FS
ĠICB TAG
ĠPLAN ARCONFIG
% *
3 86
C N
D iff
M SIX
M ajor
b urst
h ierarchy
h Dlg
k Internal
m n
m ce
p Next
r Def
s err
s key
t ctxt
er gy
er beros
ar mv
Ġp mem
Ġif la
Ġf rac
pt es
ue v
Ġn dev
", &
RE MENT
Ġi me
ĠC WebServer
ĠT GA
Ġst able
Ġde letion
sc ant
om ial
ĠG uest
pr g
Ġ' {
buffer Hdr
Image Property
ive c
ref lected
Set Has
Set Double
new entry
Ġres pect
ĠL vmStatus
ĠU SEC
Th rDef
File Id
pc b
Element Content
Ġuint ptr
xml DocPtr
Resource Id
Add ChildView
ĠEx p
TRA IL
AND IS
Header Info
Stream Context
output Cfg
Ġbit mask
Ġpoint ing
env if
Ġcl r
mark s
SO LE
Video Track
Loader s
Ġdocument s
Internal Format
Ġ*( --
AC ITY
Ġiter ations
pk to
Bl k
Token izer
CHAR S
Ġfl ushed
RD MA
Ġcp io
GP MF
paint Info
Ġprot otype
ba ud
AX Node
Ġca used
ced ure
Ġmodule s
Ġ'/ '))
COPY THECONTEXT
Spec ified
Ġsd kp
override s
Ġiv d
submit ted
ĠAT M
Skip Name
IND ENT
Ġda mage
BREAK POINT
Ġaes ni
ĠGtk Widget
recover able
spool ss
Contr ib
ĠECD H
ĠActiv ate
ĠxmlXPathComp OpEval
Coeff s
3456 78
well Formed
, =
; /*
C ircle
G MethodInvocation
L vmStatus
N ested
P reset
T ap
V nc
W STR
Y ES
] ");
a iter
b ta
f stype
i odev
k sba
m mp
m tree
n components
q name
s ar
s Value
s ites
v nr
x port
y i
z ap
in ary
in herits
id sp
int s
Ġp ow
Ġp Track
Ġn pw
Ġm six
Ġm cryptd
con verter
set Enabled
Ġd ropping
In tr
In File
Ġre cent
ĠT P
cp b
Ġl pc
Ġr df
ĠP SH
ĠP lease
ĠF b
sp ki
pr key
rc md
fs Path
Ġe asy
Ġk l
ĠB DF
num erator
ĠR tree
ME xception
md mp
To Use
print ed
Ġj ffs
ml db
sh op
use case
Ġnew size
by name
ĠSet Quantum
Test Server
Create Window
DI VIDE
By Type
ĠEx port
Ġpre render
am f
Process Id
Ġip gre
Method Callback
Browser View
BA SS
dy ld
Ġaddr info
PRE FER
rx opt
cipher text
pg path
fin ity
Sync Sample
track ed
Item At
NET DEV
ĠST F
ĠHTML SelectElement
insert ed
ĠAdd ChildView
report ing
Post DelayedTask
Ġinst alled
ĠTr im
RD X
Ġssh pkt
Scheme s
side red
Ġtop Dict
SUB FRAME
att value
Ġpp res
RESP ID
Protocol Is
yr illic
Graphics Layer
Ġuc vector
Gray scale
Ġet t
Anim ate
Ġspecific s
Transport Factory
Ġhuge page
Black Berry
Ġactiv ation
nick name
Ġrout er
ili ation
Ġlz w
ErrorBad PortIndex
CLI Wand
Ġdra in
CCITT FAX
ĠAXNode Object
Tone Curve
SLO TS
A ri
E AFNOSUPPORT
G row
S pice
U G
U ma
b Length
f st
f ip
g est
m ixed
m ips
p Rtree
s op
s uggestions
x gmac
z cert
re open
in vert
er ature
Ġc si
Ġs uggestions
Ġm Is
Ġm First
IN ACCESSIBLE
Ġd j
Ġd ds
Ġ- ----------------------------------------------------------------
th eta
RE TRANS
get env
Ġre queue
Ġin um
Ġto gether
Ġde si
ĠP anel
fa de
for bidden
break point
Pro bingParser
md at
BU CKET
bit field
Is Attached
ty ped
dis connected
Web URL
Web GraphicsContext
Size Changed
pre alloc
pre views
AS C
Th en
Read Access
IP Address
sub key
sub resource
Thread State
Add String
Add Handler
fl avor
Header Box
ca ption
Entry Impl
TIFF Close
byte count
Ġcl oned
Ġ[ ](
Compare Case
ĠUn icode
internal s
Ġnon zero
very thing
Ġpass ing
NODE S
NS V
NS AP
Session Id
DEVICE S
strip s
full Screen
Ġev util
Custom Bindings
Off load
UID ata
ĠxmlXPath NodeSet
ĠInput Dispatcher
Ġstat istics
ĠCSS PrimitiveValue
THREAD S
Dict s
Ġsu itable
Sequence Attr
Ġmid i
kv Reader
Ġhold s
ĠGetPixel Blue
icient s
Sw Dec
cho ose
Normal ize
OutOf FlowPositioned
ĠpType General
pur pose
ĠCLI P
Qcom IndexParam
MODI FIED
Ġchro maticity
Public Key
ĠASS IGN
ĠImport QuantumPixels
CHR ON
ĠGetStringInfo Length
ĠVR RP
ĠAUT O
ĠCOOK IE
D ip
D rc
E mphasis
L CK
M ip
R ename
S im
U ng
i ap
i loc
l acing
m Status
n Old
o FFs
s stat
x fe
Ġ art
Ġ ics
Ġ DEC
Ġ VisiblePosition
re mount
Ġc n
ur istic
Ġt event
Ġt xt
ro ld
Ġp Parent
un trusted
Ġif name
Ġs ink
Ġs ql
Ġf req
Ġn g
pe m
Ġm ut
con tainingBlock
im ator
IN USE
Ġd atum
ĠS YNC
get Ptr
Get Status
ver ting
ĠC ifs
ĠC ached
Ġst eps
Ġr ade
Ġde queue
(" #
pro j
ĠA ffine
out b
key resource
Ġ*) _
os b
Ġx Min
ME L
To Object
ll y
sh ut
ĠH AS
ĠV MA
ĠX v
ĠX DR
ĠU sing
ĠGet Current
ec dsa
sub array
rb p
STR L
main prog
config Data
Ġz isofs
Ġap pro
Document Lifecycle
gr id
Out side
Content Loaded
Ġsource s
alg t
mark ed
mark ers
handler Arg
Arg c
Array Object
VP ID
Back up
crypt len
OBJ PROP
Be aring
Be haviour
Sp dy
COMP LE
RC X
PG result
ĠRE PORT
oper ator
ĠCo mplete
Register Test
Remove All
Ġfloat ing
CHROM E
dx fer
SUB TLV
ĠDis allow
Ġrpc ap
ste reo
Ġ%. *
Export QuantumPixels
account s
instruction s
template s
Ġconnect data
ĠThere fore
ĠGData Entry
ĠSW P
Ġident ical
Ġcmpt parm
Ġoverride s
Stylesheet Ptr
dif ference
Ġmon th
HttpRequest Headers
MethodMethod Callback
DidFinish Load
Mis match
Ġsim ilar
Ġcho ose
Fre quency
ĠmCamera Id
Ġntoh ll
SUR FACE
ĠWave Header
Ġrade on
B le
C atch
H ack
H OT
I OP
J B
L SR
N ED
N esting
S UN
S ynchron
W O
] )->
d or
h ack
m ath
r si
r hs
s ata
t trans
in q
de mo
de term
Ġc sr
Ġc ksum
Ġp ress
Ġp ssh
lo red
un ged
co ff
Ġ} },
is ation
ch ang
ch osen
Ġm FileMetaData
ase t
Ġw ctx
Ġw bc
ab b
EN ER
Ġh ang
ĠC allback
ĠC TO
Ġr nd
Ġde sktop
ĠP araNdis
ĠF C
ĠF FS
ĠM Y
ip a
SE X
pro blem
ĠI M
IT HER
Ġv id
Ġv dec
fs notify
Ġe cp
ĠW SA
col d
ref ul
UN REGISTER
Ġbe hind
Ġse veral
low est
yn omial
ĠV OLUME
ĠL CD
Web Node
pos ure
Ġdo ff
UL D
Element Id
Request sFor
Blob Data
db cr
Ġat usb
play State
Ġadd ition
From Source
not if
Resource Load
tag len
dy symtab
Pre connect
Ġpl ug
Ġdst X
tv p
Ġnumber Of
PER IOD
Ġusb hid
AUT OM
uri Free
cd rom
ĠRE C
Ġgl Clear
IM PEG
Null ArgGoto
pen sive
keep alive
prop agate
od ak
Focus able
keyword s
Wrapper s
Edit Model
Gpu CommandBuffer
bb x
Ġalign mask
forward ing
Ġdriver s
ĠFF MAX
ĠUN DEFINED
Ins pected
Second ary
Ġpdev c
ĠAutofill DialogViews
ĠSV GElement
Ġacces ses
Hand shake
constant s
Ġauthor ization
ĠsplashMode Mono
Ġmix er
ĠGetImage ListLength
MINIS BLACK
ĠBlack Berry
Esc aped
Ġdeleg ation
GetCacheView Virtual
COMPLE TION
/ ..
; \
D LL
D XT
G UARD
H ang
L ig
S AP
i count
i hl
j d
k c
k Null
m nemonic
o ip
o logy
s dd
s desc
s mooth
t ci
re uc
in l
st sc
er ms
en ough
Ġc lipping
et t
Ġp ch
lo p
Ġs sid
Ġs aving
Ġb igger
Ġb asename
el low
tr ie
Ġm sec
Ġw dy
Ġw dx
Ġ- ----
get Pos
Get Int
Ġin jection
Ġh fi
ĠP arent
ĠP CIDevice
ĠF ield
ĠM ime
ĠM IC
sc al
ip vs
key size
sp kstr
ĠD P
ĠD up
ĠE GL
Ġv ring
ID ENTI
ĠW A
ĠW PA
Ġtr ailer
ĠR d
new block
OP A
one g
ill a
Ġy ear
ĠL C
ĠGet VirtualMemory
File Access
On Load
iv ity
desc endant
fd put
SH ELF
sub ctxt
trans lated
Key Down
tag ged
ĠK G
ĠXML RPC
TIFF Swab
Local Ref
PH ASE
Per cept
Per Isolate
Long AttributeAttributeSetterCallback
PF N
enum erator
Ġmin st
Sync able
Sample Info
Init Params
Ġmap s
bd str
scroll able
Ad aptive
CONFIG URATION
sf nt
mv pred
ane ous
Ġrt d
HTTP HeaderField
WebView Base
Ġcap len
ĠWebContents Observer
Group s
Bool s
warn ings
cli pping
Ġxslt Style
Exp ansion
RESOURCE S
Ġreplace ments
hi res
Ġ'- ',
ĠGetPixel Index
ĠScoped GLErrorSuppressor
Go od
Ġcor ner
ĠNew RunnableMethod
ĠDirect iveType
UTIL US
SOFT WARE
Preferred LogicalWidth
Ġacces sed
supp ressed
Ġiscsi lun
xsltTransform ContextPtr
Press ure
Ġsuppress or
ĠVert ex
Cent imeter
NewFrom Utf
ĠCLIWand ExceptArgBreak
ERO FS
CrashKey String
fort unately
sct pi
IMI ZED
Ġsitu ation
DICTION ARY
ĠCRE ATE
ĠGetVirtualMemory Blob
PerIsolate Data
Centimeter Resolution
" ",
" :"
- )
B SS
C atalog
E quivalent
I CON
M ed
M OP
P cm
R ational
U ALIZER
[ \
a string
b nd
b ts
b mi
c lo
e de
k File
l len
m ight
m update
p ay
p ss
p rior
Ġ ending
co alesced
Ġm l
Ġm gr
Ġd tv
Ġw m
In Page
ul se
RE N
get Pixel
Ġi pp
Ġre commended
Get Info
Ġin cluded
Ġg so
dev t
-- ,
ix heaacd
Ġfor ms
CH AT
00 4
os a
Ġv l
fs String
string val
ĠR CU
De coding
ant i
Un ix
ĠH PAGE
Is Auto
no d
ĠGet Tab
app cache
inter mediate
pp pol
File Header
File Transfer
rt n
met ype
tmp file
Ġmem bers
Render ThreadImpl
head index
Ġmo grify
Memory Usage
Contents View
Service ID
Service Id
pm onitor
Extension System
Check Range
Ġro unded
Ġcmd line
style s
Empty BufferDone
Ġpr inc
Red raw
bi k
ENO IOCTL
Ġlayer info
CLA MP
Ġprint ed
font s
Ġdesc endant
CLIENT HELLO
Pop ulate
cms Bool
Dir Name
Version Info
ĠSO AP
ĠY C
PS ocket
ĠCopy MagickMemory
Push Quantum
HANDLE TYPE
datalen gth
rot ated
psz Tmp
cx Ptr
ĠAt tempt
Ġcompos ition
Bluetooth Device
JavaScript Dialog
ĠPP B
Ġpsz Tmp
ĠPaint LayerScrollableArea
Io Control
ĠMo dule
ĠSY STEM
Abort ed
zrtp Packet
Author ization
ĠDix ReadAccess
Pag ination
atype s
VERTI SE
Ġ'] ')
AUTHENTIC ATE
ĠFixed Array
aggreg ator
ĠDesktop WindowTreeHostX
ĠTra versal
Ġ'( ')
MediaQueryList Listener
failedTo Execute
IDENTI FIER
ENOIOCTL CMD
; */
> ";
C ING
C CThread
D AY
E FS
E TIMEDOUT
L G
L SEG
M TIME
W ifi
b Have
c allout
c amellia
k malloc
k Win
m alformed
o cp
w buf
x tr
Ġ VALUE
in bound
Ġ( **
de init
me chanism
Ġp mac
str array
Ġf attr
Ġf aster
pt ile
mp m
Ġm Objects
ĠN u
Ġd name
Ġd ash
ol dest
Ġcon straint
Ġi buf
op arms
EN ET
ĠF W
ĠF inished
ĠM ost
ĠM PT
Ġfor bidden
ĠI DE
rc ds
CT IME
fs data
free Vector
mat erial
Set State
Set Text
To Java
Ġof ten
Data URL
sa fi
Un install
server Status
Qu alifiedName
sg id
On Update
Ġnum rows
comm its
Ġz rtp
Color Chooser
Ġop Stack
FO LD
ĠAV C
ĠAV Packet
auth z
Ġlo ss
Per ContextData
CL R
ĠQ MODE
IR WX
spec ulative
ADDR STRLEN
Ġne arest
Storage Type
gen id
unch arge
cms ReadUInt
ĠLayout Size
xslt Compile
APP LE
ĠY es
Ġclear ing
Ġrun length
Ġcom bined
Ġscroll ing
accept ed
Gpu ProcessHost
ino co
ugg y
ĠCSS StyleSheet
Ġlin elen
ipher al
crypted buf
Ġhid p
advance d
mlink age
Ġmis s
Ġtermin ating
plane stride
ĠPOLL WR
ĠAT H
AA AA
Horizontal Alignment
dot dot
Gener ator
Shell Surface
ĠLL C
Opaque Opacity
Editable Text
strto ull
ĠForm Data
Ġrad ix
ĠIndexedDB Database
snap len
Ġder ived
Quad Part
ĠOp code
GetOrigin al
Validation Message
Ġ/*-------------------------------------------------------------------- */
ndig is
Ant ialias
ĠOFPR AW
GRAPH ICS
Ut ility
AGG REG
Ġsix el
ifor ms
, ");
- \
- ->
7 11
? "
B attery
C RA
C anceled
J SET
N OM
N autilus
S uggested
Z Z
Z AP
b cd
d conn
i ot
k Android
m anaged
s en
s uid
s ptep
z illa
Ġ mess
en ign
at forms
or ation
de al
Ġt ki
Ġt BTM
Ġp C
lo fp
ce xp
str tol
Ġs max
Ġs api
Ġs uggested
Ġf pm
ex context
is finite
ext d
ig ible
ĠS DP
ĠS ynchronous
Ġ< /
Ġi req
Ġre jected
Get Site
Get Editor
Ġin vert
AT ER
to fix
Ġl ifecycle
Ġr lim
ĠP A
Con tainingBlock
ĠM ATCH
sp dy
ĠE ven
ure f
Ġ' @
LO GE
ĠB Z
num buf
Set Selection
Ġse cs
PR OGRAM
char strings
bit set
Frame Size
FI LING
Ġnot def
time zone
CON TIG
max color
ĠGet LastCommitted
LI VE
Ġen caps
Ġget pid
met as
Ġ3 60
OMX Params
trans lation
Mo of
Ġxml Buf
PP I
Window State
Ġpath len
Ġav pkt
Le ast
hw accel
NOT ATION
yy msg
ring s
Ġus ually
Ġio ctx
tile c
ĠBrowser Plugin
Ġroot Block
inst alled
Can Access
refe red
COMP OS
ĠAR CH
hs dsch
Ġgl Delete
LOAD ING
Bl it
Ġ'% ')
Ġvirt queue
Ġprog ressive
HAS HTABLE
rw q
Ġ# #
Ġcred s
Ġglyph Mode
ĠError Utils
Ġavoid s
equal s
Will Once
Picture InPicture
Ġshow ing
ĠSIG KILL
Ġok ay
Activ ated
plan ar
FileSystem Operation
psz Expression
xx x
Ġnormal ized
Ġmis c
Ġtermin ation
Ġ', '
IMP LEMENT
Ġabort ing
Ġhook s
ĠPre vent
aes ni
ins ns
Editable Element
decompress or
Ġrout ines
ĠMOV Atom
Db Page
depend ency
ĠSA FI
ĠIF NAMSIZ
Ġtri ck
Suggestion s
Contig Samples
Ġcla im
ele ms
ĠConfig ure
Ġdisc arded
Ġprim count
rmd ir
PROCE ED
ĠHEV C
ĠHR TIMER
D ial
F ine
J V
L RU
N by
P s
P gno
Q Q
W Log
W arn
W armup
Z EN
b di
f pr
j quota
k ssl
k lv
t fp
y p
Ġ vert
re init
Ġt errno
id ctx
Ġp value
Ġp ps
Ġs dev
Ġs qu
Ġf oo
Ġb ak
Ġ& __
as mlinkage
Ġm Next
Ġo ctx
ĠN UMA
um ption
us char
Ġd ts
bu dget
stat istic
data Size
ctx n
ĠC QSPI
ĠT FS
Ġl atter
ĠP resent
ĠF R
ĠF IR
ip sec
ĠD I
ĠD ST
Ġis suer
ĠG esture
ĠG SASL
est ablished
Ġv ga
mem dup
ĠR ight
ĠR AM
ĠR Class
De letion
Info Ptr
SI P
String Attr
Un map
NO WAIT
Tr ust
ĠGet Entry
pp id
move To
GL float
Text Node
Ġend points
Ġxml DocPtr
play Behaviour
RO ZEN
not def
OL KEY
Stream Id
Le arn
web socket
TIFF Write
Pos itive
CI RR
Code s
Ġtrans lation
method With
Module s
sr tp
ĠIP VS
Free List
origin ator
direct ories
Ġobj p
Print Msg
ĠCheck GLError
Ġref lected
Ġexit ed
LOW ER
SHA PE
Audio Input
step sizes
sw hash
SW AB
mbs Nby
Ġsl urm
Push CharPixel
Ġlogical Bottom
Component Name
ĠxmlXPath DebugObj
GUEST DBG
Req Type
ident s
Metadata BufferType
Cancel led
bt n
Ġnb char
ĠOpen URL
IndexParam PortDefinition
ĠWh at
Ġcipher text
mk write
Visual Overflow
Ġ'+ '
Anim ated
Accessibility Mode
Uri Members
ĠPRO G
Click ed
Ġactiv ityLog
Soft ware
ORI Z
Ġturn ed
TIMESTAMP ING
ĠvirCheck ReadOnly
sper pixel
ĠPop up
press ure
Ġwarn ings
ĠOne ClickSignin
pchg list
ĠBitmap Header
SameDocument Navigation
ĠSIO CB
Via PixelInfo
ĠWAR NING
ĠpWT Voice
\":% "
ĠxmlDict Lookup
SPO OF
scant able
ZAP PED
CIRR US
ĠvirCheckReadOnly Goto
> ;
D td
E LL
H LIST
M ute
M ailbox
O INT
P ur
U dp
X Res
] =='
b roker
c ues
e ob
g ly
g agement
i hevc
k Touch
m vc
m osquitto
n il
p Idx
r iff
x smp
z free
re ally
de block
Ġc ue
Ġt stamp
ro ff
ce al
Ġs info
Ġb undle
el n
Ġn serv
Ġm Config
Ġo mnibox
ig s
get name
Ġi rp
Get OrCreate
dr c
Ġh ide
Ġl g
text area
Ġst buf
Ġr am
Con straints
ĠF TRACE
ĠA re
key sym
ĠD LT
ĠW idget
buffer size
UN SERIALIZE
Ġnew sk
ĠV isual
node id
riv ate
ĠX P
fi leno
ĠL XC
CO AL
At Index
Ġal ong
Buffer Header
File List
GL Context
desc sz
are x
CC S
PRINT ING
enc losing
ee prom
array Buffer
PC AP
ĠJ ob
Add Resource
Add Message
Ġno mem
Box Layout
gr ind
Ġaddr cnt
SER VE
)( -
). \
Ġtext ures
NAME S
Ġstream ing
temp oral
Map per
Ġad b
Ġad vert
ĠString Builder
float ingObject
we bui
UD PLITE
RT L
real ize
ĠCUR SEG
Ġar p
PHP API
ĠRenderFrame Proxy
Network Provider
search paths
Ġcert ificates
Part y
CARD CTL
Platform FileError
CLO SING
Encoding Name
PASS WD
ga hp
[% ,
Ġlayout Object
Ġvir ConnectPtr
Ġdc erpc
Runtime Enabled
ĠDownload ManagerImpl
ARR IER
SetPixel Index
Ġpair s
ĠCO DE
ĠInit OMXParams
Ġsplash Clip
inv ocation
ĠCurrent ly
Uri A
ĠAs WeakPtr
HU B
Ġrs si
Ġoccur red
MR TreeData
ĠPL TE
Mon th
Voice Interaction
Ġciphers uites
Ġmean ing
Cond itional
Swapped Out
velo ped
Ġvis ited
RADIO TAP
Ste reo
bInterface Number
ĠAb ort
alan cing
%* [%,
A CE
B lending
C i
C op
C alc
F req
L vm
S uffix
c fi
d ls
g op
g pg
h cache
k What
m ff
n autilus
p M
p Tab
v tag
x args
y m
z value
Ġ il
Ġ ];
st retch
Ġt napi
Ġp ctx
Ġp Term
un mount
Ġif lags
ex ample
() ",
is ElementNode
Ġm Header
ic ial
Ġw mf
RE VISION
get Attribute
get CString
Ġre paint
Ġa ffect
Get SSL
Get XMLTree
Get LocationBar
AL IVE
ĠC AM
Ġl addr
Ġr limit
ĠP ack
ptr an
ĠG aia
num cols
ps vi
Ex pi
Ġco mple
UN INIT
AN TI
bit depth
Ġex its
ĠV FIO
Ġy p
Ġy ield
Ġsk ia
fi q
ĠGet LayoutBox
Ġvalue For
Host Port
pp nt
Ġle ad
Se p
Ġun set
Ġ_ (
Mo vie
Ġsh mid
Render Text
Render buffers
local host
COM PARE
copy right
PC ID
IF EST
Ġtime scale
blk size
blk dev
Or String
am aged
ĠAV Frame
STAT ION
Ġper cpu
Ġper mitted
ach ing
Point To
Style Engine
Per Pixel
NAME LEN
hw addr
Ġopt im
Sample sTo
direct ive
den ame
COMP UT
Class Ad
Ġimp ossible
DEF M
Ġref Bitmap
AG ENT
ĠSetPixel Gray
Copy From
Ġdel im
Float Rect
'); "
hint ing
Return ed
Ġexp iration
did Change
did Fail
Call Stack
ĠNavigation Throttle
Encoding Node
Ġmount point
FIN ITE
ĠPrint ing
ResourceLimit FatalError
digest s
mx net
Drag Drop
Fatal Exception
ĠGetPixel Channels
pcm Params
PIN NED
Ġewk Frame
Ġum ode
ĠAutofill Manager
Ġpa used
ĠPaint Phase
Pin ch
kChrome U
sil ent
crl s
Ġexpi re
Ġattempt ing
Ġdecl ared
tre x
ipp et
ĠLe ft
sit n
ADV ANCE
AttributeSetter Callback
giv en
ĠArray Buffer
ssi ds
Plain Text
Avail ability
Ġcent ral
VirtualPixel Method
Garbage Collected
RAT IO
WOR KER
FOpen File
ĠvirCheckNon NullArgGoto
ĠUt RegisterTest
uriFree UriMembers
ĠVertex Attrib
A void
A rc
B s
B ND
D CM
E arly
I ERROR
L SI
S ps
V Q
Y ou
b page
b cache
c ategory
d atal
f sp
g dp
k hugepaged
n Loop
n pts
p C
p ipeline
s work
u iv
x offset
re key
at F
Ġc sp
Ġc mm
Ġc losure
ag ation
Ġp Iter
ut ive
Ġf sn
Ġn blocks
Ġm req
ĠN M
ol low
th en
Ġre used
Ġin finite
Ġg ate
to i
Ġl b
++ ),
for get
key file
ĠI UCV
ĠG PAC
eb t
eb x
ĠW B
ĠW DDX
num Channels
En queue
To Int
Ġof m
PR S
ml d
ĠH S
Ġerr str
Ġbase line
write phy
CON SUME
ET HER
pre set
host ed
SET S
tmp stream
Ġresult ing
FS hape
US ERNAME
Create Params
ge om
KEY RING
Ġpre ce
Ġap prox
UP S
Ġper formed
Ġcontext Data
Not Found
cm an
bound ing
Has Instance
New Document
iov s
Ġcache p
ĠQ Latin
Scroll able
Ġexception s
Ġvalid ity
mi ses
Default Value
UND ER
man age
lin eno
First Child
ule b
Ġdi vide
post script
REF USED
Ġapp lied
Ġreport s
previous Sibling
ove on
syn ced
Ġinstance s
Ġknow s
Row id
QUE UED
ĠIO A
Ġclip Res
Ġmis sed
det ached
Quota Manager
Fullscreen Mode
Bookmark s
ĠGData Directory
ĠCIFS SEC
NodeSet Ptr
ĠSiteInstance Impl
Rot ation
Compressed TexSubImage
ĠFUT URE
evi ct
ĠDB CR
VIR TIO
NEG ATIVE
Ġrespon ses
Ġwor ry
DISCONNECT ING
Ġmot orola
INHER IT
tcm u
Ġdang er
ĠkPortIndex Input
Ġevalu ation
contour s
ocp arams
ĠCAM ERA
8 20
= <
A PR
C ENT
G ST
H ig
S RAM
S imulate
W PA
W EP
] --;
_ *
b pr
d ater
h pd
l gp
l kcipher
l ittle
o str
p fp
q len
u km
v eth
er Info
er rout
le asing
ar W
et urn
Ġt RNS
Ġp fb
un bind
un cached
Ġs ufficient
Ġf ac
Ġf cntl
pt aa
ue ued
tr ansp
Ġm ic
res uid
In set
ĠS witch
ĠS HE
Ġre dis
Re cursive
Get Raw
Ġst ops
ac rit
ĠP ict
DE MUX
SE SS
pro ducer
key type
ĠD S
CH V
ĠG eometry
ĠE BT
ĠE CRYPTFS
cur conn
bo unce
UR LError
Ġk TexSubImage
tent ion
Image Type
AN IM
EX t
Ġex ch
use cs
Ġ? :
Tr usted
CON VERT
ĠU SPOOF
Ġcur ves
Ġbu fs
app lied
cs descr
Ġle arn
Ġan c
ep ass
root s
Ġmem chr
rb g
PA STE
work ers
enc er
Ġsh p
LS P
KEY TYPE
Count ers
Or ig
Ġpre cedence
Ġno inline
Header Footer
sig action
10 6
Ġhas htable
Ġmsg len
Ġtrans it
Ġab lkcipher
Screen shot
Ġtemp orarily
fail Valid
PL UG
QU ALI
Auto Hide
ĠResource MessageFilter
Ġne ither
disk size
ĠLOG FN
search able
ĠSend Receive
Focus Appearance
Ġsearch ing
Ġho pe
ĠxmlXPath New
ALLOC ATION
Ġwr apped
agent s
MF B
CRE ATED
ĠAcquire MagickMemory
Histogram Allocator
Ġack nowled
Ġserial ize
sat uration
Ġthrow TypeError
STER EO
ĠTH READ
ĠPost greSQL
Ġprom ise
FR ONT
ĠPop ulate
Ġrlvl no
Ġaac Params
ĠJava Script
AppendSwitch ASCII
sup ply
Ġbecome s
ĠWebPluginDelegate Proxy
ĠShelf LayoutManager
Fx Evaluate
ĠSupported FromMenuOrKeyBinding
("\"% %[%
ĠNTLM SSP
ĠCONNE CTION
ĠSCR eturn
Dismiss al
Sto red
Ari a
ENER GY
' ,"
) ||
= ");
D ice
I Memory
L ut
R Type
R tc
T unnel
] |
_ )));
b ifs
d ff
d fd
k object
m ute
m Path
m unged
o si
p cs
p reauth
q al
s rq
u ches
Ġ LE
re levant
in otify
st udio
on ig
al ts
Ġt alk
si r
ro cal
Ġf raction
Ġb lending
Ġb uggy
tr ay
im etype
ĠN MI
us vc
res gid
Ġcon tained
Ġi pl
Ġa ir
Get Color
Get Target
Get IndexOf
ay out
EN SE
AL READY
ĠC SR
ĠC LEAR
to d
Ġde block
ĠF inally
), &
ĠA rg
arg est
Ġu bik
ĠI dent
Ġk sba
ĠR TCP
page ID
ib yte
FI BER
mm co
Is Initialized
ĠV I
ĠV EN
time str
CON SOLE
ĠL RU
max bytes
pos it
IP PROTO
Ġ3 9
tmp zval
SH IP
sub systems
Ġun reachable
Mo bile
ener gy
roll ment
KEY BOARD
tl x
ĠRe load
Window Id
ĠJ P
led ged
Ġno var
cip line
ĠZ RTP
With Type
ready State
Script ExecutionContext
stack size
Media Type
Media Source
Sub system
ĠImage Loader
WA Y
ĠExtension Error
ĠRE NAME
ENO DATA
Auto Resize
Model Assoc
*( __
IA SECC
Record Length
Initial EmptyDocument
Ġsig set
cy cles
ĠNavigation Policy
Corrupt Image
Ġca if
Menu Item
ONT AB
Meta file
ĠJS PARSE
SOCK S
NEXT PROT
RenderView Impl
xmlXPath ObjectPtr
ĠFOR GET
ĠNL MSG
Ġmov ing
VS X
Ġmargin LogicalLeft
ĠTrans lation
RU B
ĠUN IX
Ġunlock ed
ĠBad Match
REQUI RES
TEMP OR
ENOT TY
SetReturnValue String
GData FileSystem
ĠBlock Entry
ImageData InFile
indic ation
Ġ'\\ ';
DoNot hing
cor ner
MID DLE
Ġwho se
Insufficient ImageDataInFile
Mix er
Ġ'_ ')
dbl tofix
ĠAccessibility UIElement
Ġtrig gered
RenderbufferStorage Multisample
SHUT W
RTCP eerConnectionHandler
ModelAssoc iator
NEXTPROT ONEG
" [
0 50
> </
? ");
B OND
G GLE
S OL
S pool
V endor
W L
a ctx
c mpl
c led
c vc
d inode
g boolean
g aps
i log
m ct
n Alloc
o vl
p ssh
t SMP
x pos
st ores
at m
if c
al num
Ġc cp
Ġc am
it imer
Ġt val
Ġt class
me sh
Ġp count
Ġp Parse
un hash
Ġs ound
Ġf oveon
Ġn est
Ġm h
Ġm igr
Ġ" >\
err ing
In dent
ab i
get status
Ġre play
Get Program
AT L
ĠC ANCE
Ġ/* ****************
ĠT otal
ri ever
name Nr
Ġ% =
ĠD GA
Ġis on
ĠG DATA
ĠG LOB
ĠE ach
ub mit
io base
ĠR x
vm w
UN SAFE
To Be
---- --
Ġex e
For New
Data Re
Frame LoadType
NO THING
ĠX T
Tr ansparency
be ing
ĠGet ProgramInfo
ĠGet LogPrefix
device Grab
Se gs
On Get
On MainThread
ep c
Read Image
Ġ3 8
Page Count
db ref
FO REG
Resource Agent
has Pending
Attribute Changed
Document Element
sec info
Header Type
ĠFT P
Ġcontext s
TO GGLE
Method With
SP IN
Channel Context
PH YS
Check s
TIME D
ĠStr ip
lu ks
Run Count
End points
Empty String
As UTF
over write
Screen Handler
global Object
Security Error
RT NL
IV Size
spl us
Ġorigin s
ĠResource DispatcherHost
Ġsa mldb
Top Sites
Ġblk cg
Ġcap able
Ġgr KEY
CF GS
SUB SCR
rw lock
title Element
INC REMENT
Ġscroll able
ONT AL
:// %
ĠWebGL UniformLocation
edit ItemAt
Java LocalRef
GetDocument Loader
Region s
Ġdownload s
Select All
PD PTR
cla imed
ĠHe ight
Ġmargin Info
ĠSh ift
fr buff
Ac quired
OFP B
Ġman agement
SPECI AL
xit f
Ġgpg me
GraphicBuffer Source
SEN SITIVE
ĠOmniboxView Win
denom inator
MULTIP LY
ĠCRL F
Restriction s
Rai sesException
ĠkPortIndex Output
ĠHWND MessageHandler
DANGER OUS
Ġpret end
equ iv
Ren dered
ledged SrcSize
FOREG ROUND
( ;
* ));
; }
F ds
G I
G sm
K EX
L PC
M igration
N ATIVE
P SE
S id
S mp
b fd
c ctxt
e hash
f io
h Decoder
h rrq
j sp
k leave
n sk
n Index
q pc
t reat
v ps
v ty
w th
re aper
re liable
); "
Ġc ut
Ġp File
un consumed
Ġn op
Ġm dl
set Default
Ġ*/ ;
Ġd rbg
In spect
val p
ig mp
ĠS EG
Ġre wind
of m
Ġde crease
ĠP IC
ĠP ower
Con st
ĠA sync
fa ir
put uint
oc c
ĠD ID
ĠD UP
ĠD DS
ĠG UID
Ġ*) __
cur v
cur Source
der ive
Ġv pid
Ġe pid
PE M
TR C
ĠB E
Ġ2 57
ps nd
av l
ng rade
For IsolatedWorld
ĠH FI
Ġimage width
Event Listeners
app able
UL AR
rt able
pc nt
desc ent
Attr Setter
Page Load
CP US
Render MessageFilter
local Name
From Element
SC ISS
Attribute Value
Manager Connection
gr ace
VM error
Command Controller
Le af
ĠHT M
Ġtrans hdrlen
Ġcl ause
Ġsub st
Ġsub RL
mod al
No Details
802 3
com ics
destroy ed
ĠCh romoting
Ġcol lection
Ġinitial izing
Ġimp ro
real ms
ĠAR MV
sid x
pin s
spl ash
Ġauth ctxt
ĠResource Error
Download Request
ĠSetPixel ViaPixelInfo
UInt Length
Ġsome where
HEADER S
Ġfloat ingObjectSet
Mouse Down
Virtual CacheView
ĠText Granularity
Resol ved
Acquire MagickInfo
Acquire VirtualCacheView
03 00
ĠComp onent
ĠEn hance
ĠPO LICY
tunnel s
Chunk Header
stor ing
RECT ANGLE
RenderView HostImpl
perm utation
NP TYPE
Ġalg orithms
Cap s
07 0
Transfer Buffer
Ġmetadata Key
ĠVMX ERR
kv free
ĠClient Hello
Ġatt ack
sIn to
tool bar
Ġown ed
Ġcrypt ographer
EXTENT S
)| ((
Ġman age
ĠLocalFrame ClientImpl
*> (&
Ġbg Color
FR MA
MIC RO
ipt c
ĠTrue Color
ĠFileSystem Operation
Den ied
Ġsim ulate
MULTIP LE
Fs Context
Ġfence Fd
ĠBackend Impl
DUPLIC ATED
Quantization Table
ĠED GE
CAPAB ILITY
ĠDIG I
ForIsolatedWorld sPerWorldBindings
SCISS OR
B ilevel
F ROZEN
H P
P STATE
V ME
[ :
a alg
e per
g uess
n aux
p str
p gno
p discard
r key
r ka
u len
v af
v da
re vert
in ite
Ġc name
Ġc di
Ġp ss
Ġp cp
Ġp Next
Ġf ifo
el come
Ġn h
ic b
Ġ" ')
end io
res level
ĠNULL STRING
Get QuantumRange
Get StoragePartition
up np
data blob
Ġg pi
Ġh ierarchy
Ġto copy
Ġl f
Ġst amp
ĠF rag
ption Element
ĠM ET
ĠĠĠĠĠĠĠĠĠĠĠĠĠĠĠĠĠĠĠĠĠĠĠĠĠĠĠĠĠĠĠĠ ĠĠĠĠĠĠĠĠĠĠĠĠĠĠĠĠĠĠĠĠĠĠĠĠĠĠĠĠĠĠĠ
ht ab
Ġk g
back ward
mat ic
user is
new Size
new keys
To Window
ph ab
String Arg
ĠH orizontal
IS CO
ĠX FRMA
ĠL abel
ĠGet UIntLength
Ġstr val
pp api
On Error
bug i
Loc ator
current FocusElement
sub path
sub mission
Ġun ne
gs f
Page Ref
enc aps
xml NsPtr
Sh ut
Time d
Thread Set
proto sw
Resource Context
Ġpre load
*) "
flow s
Ġswitch ing
Local DOMWindow
Trans formed
Point Info
Content Rect
append c
hw ahc
Check For
Sub Data
core Frame
sr pt
fin up
tile width
Port Format
bitmap s
Packet s
Did Get
SIG BUS
Class Name
dbg arg
scan lines
right ness
Ġag greg
OBJECT S
SN PRINTF
Query EXT
CURL INFO
Configuration Box
FD CS
PM U
Ġcom ing
Mat ched
compos ited
Coord s
ĠMedia Control
completion s
clean se
div x
Ġredirect s
Ġprop agate
ĠGpu Channel
Named Getter
Ġnotification s
lz h
Tool tip
Ġppp ol
THE ME
[...]
