{"<s>":0,"<pad>":1,"</s>":2,"<unk>":3,"<mask>":4,"!":5,"\"":6,"#":7,"$":8,"%":9,"&":10,"'":11,"(":12,")":13,"*":14,"+":15,",":16,"-":17,".":18,"/":19,"0":20,"1":21,"2":22,"3":23,"4":24,"5":25,"6":26,"7":27,"8":28,"9":29,":":30,";":31,"<":32,"=":33,">":34,"?":35,"@":36,"A":37,"B":38,"C":39,"D":40,"E":41,"F":42,"G":43,"H":44,"I":45,"J":46,"K":47,"L":48,"M":49,"N":50,"O":51,"P":52,"Q":53,"R":54,"S":55,"T":56,"U":57,"V":58,"W":59,"X":60,"Y":61,"Z":62,"[":63,"\\":64,"]":65,"^":66,"_":67,"`":68,"a":69,"b":70,"c":71,"d":72,"e":73,"f":74,"g":75,"h":76,"i":77,"j":78,"k":79,"l":80,"m":81,"n":82,"o":83,"p":84,"q":85,"r":86,"s":87,"t":88,"u":89,"v":90,"w":91,"x":92,"y":93,"z":94,"{":95,"|":96,"}":97,"~":98,"¡":99,"¢":100,"£":101,"¤":102,"¥":103,"¦":104,"§":105,"¨":106,"©":107,"ª":108,"«":109,"¬":110,"®":111,"¯":112,"°":113,"±":114,"²":115,"³":116,"´":117,"µ":118,"¶":119,"·":120,"¸":121,"¹":122,"º":123,"»":124,"¼":125,"½":126,"¾":127,"¿":128,"À":129,"Á":130,"Â":131,"Ã":132,"Ä":133,"Å":134,"Æ":135,"Ç":136,"È":137,"É":138,"Ê":139,"Ë":140,"Ì":141,"Í":142,"Î":143,"Ï":144,"Ð":145,"Ñ":146,"Ò":147,"Ó":148,"Ô":149,"Õ":150,"Ö":151,"×":152,"Ø":153,"Ù":154,"Ú":155,"Û":156,"Ü":157,"Ý":158,"Þ":159,"ß":160,"à":161,"á":162,"â":163,"ã":164,"ä":165,"å":166,"æ":167,"ç":168,"è":169,"é":170,"ê":171,"ë":172,"ì":173,"í":174,"î":175,"ï":176,"ð":177,"ñ":178,"ò":179,"ó":180,"ô":181,"õ":182,"ö":183,"÷":184,"ø":185,"ù":186,"ú":187,"û":188,"ü":189,"ý":190,"þ":191,"ÿ":192,"Ā":193,"ā":194,"Ă":195,"ă":196,"Ą":197,"ą":198,"Ć":199,"ć":200,"Ĉ":201,"ĉ":202,"Ċ":203,"ċ":204,"Č":205,"č":206,"Ď":207,"ď":208,"Đ":209,"đ":210,"Ē":211,"ē":212,"Ĕ":213,"ĕ":214,"Ė":215,"ė":216,"Ę":217,"ę":218,"Ě":219,"ě":220,"Ĝ":221,"ĝ":222,"Ğ":223,"ğ":224,"Ġ":225,"ġ":226,"Ģ":227,"ģ":228,"Ĥ":229,"ĥ":230,"Ħ":231,"ħ":232,"Ĩ":233,"ĩ":234,"Ī":235,"ī":236,"Ĭ":237,"ĭ":238,"Į":239,"į":240,"İ":241,"ı":242,"Ĳ":243,"ĳ":244,"Ĵ":245,"ĵ":246,"Ķ":247,"ķ":248,"ĸ":249,"Ĺ":250,"ĺ":251,"Ļ":252,"ļ":253,"Ľ":254,"ľ":255,"Ŀ":256,"ŀ":257,"Ł":258,"ł":259,"Ń":260,"ĠĠ":261,"ĠĠĠĠ":262,"re":263,"in":264,"ĠĠĠĠĠĠĠĠ":265,"st":266,"ĠĠĠ":267,"er":268,");":269,"->":270,"Ġ=":271,"en":272,"at":273,"Ġ(":274,"on":275,"ĉĉ":276,"se":277,"if":278,"Ġ*":279,"or":280,"de":281,"le":282,"ct":283,"al":284,"Ġc":285,"ar":286,"ur":287,"Ġ{":288,"ag":289,"it":290,"et":291,"Ġt":292,"si":293,"an":294,"ret":295,"id":296,"me":297,"ĠĠĠĠĠĠĠ":298,"ro":299,"ent":300,"int":301,"Ġp":302,"ck":303,"lo":304,"ad":305,"ce":306,"un":307,"ĠĠĠĠĠĠĠĠĠĠĠĠĠĠĠĠ":308,"urn":309,"Ġ0":310,"he":311,"return":312,"Ġif":313,"::":314,"str":315,"Ġs":316,"ut":317,"Ġf":318,"ed":319,"ex":320,"Ġb":321,"ing":322,"Ġ&":323,"age":324,"pt":325,"ion":326,"el":327,"ue":328,"ĠĠĠĠĠ":329,"()":330,"co":331,"ze":332,"Ġ}":333,"mp":334,"is":335,"ate":336,"Ġn":337,"as":338,"ff":339,"ame":340,"ch":341,"size":342,"fo":343,"tr":344,"len":345,"ot":346,"pe":347,"Ġm":348,"Ġ==":349,"ic":350,"Ġ\"":351,"uct":352,"/*":353,"ase":354,"))":355,"ext":356,"struct":357,"con":358,"set":359,"im":360,"ER":361,"Ġo":362,"ata":363,"Ġ*/":364,"Ġreturn":365,"ĠN":366,"LL":367,"um":368,"err":369,"IN":370,"us":371,"ap":372,"end":373,"ĠĠĠĠĠĠĠĠĠĠĠ":374,"ile":375,"Ġd":376,"res":377,"ol":378,"Ġw":379,"ĉĉĉ":380,"In":381,"ode":382,"li":383,"ul":384,"ULL":385,"es":386,"Ġ!":387,"val":388,"ab":389,"bu":390,"info":391,"rea":392,"il":393,"Ġ-":394,"\",":395,"and":396,"Ġ1":397,"ype":398,"ig":399,"ĠS":400,"oid":401,"th":402,"Ġ+":403,"ew":404,"Ġcon":405,"stat":406,"ĠNULL":407,"void":408,"Ġ<":409,"Ġthe":410,"Ġint":411,"RE":412,"get":413,"ve":414,"Ġi":415,"Ġre":416,"vi":417,"ack":418,"image":419,"Re":420,"Ġa":421,"Ġ!=":422,"Get":423,"();":424,"op":425,"dr":426,"Ġ(!":427,"up":428,"Ġin":429,"ON":430,"ver":431,"(&":432,"else":433,"Ġ|":434,"ST":435,"lock":436,"data":437,"ay":438,"EN":439,"ms":440,"ser":441,"Ġg":442,"Ġ&&":443,"));":444,"ss":445,"ke":446,"ctx":447,"OR":448,"ĉĉĉĉ":449,"reak":450,"Ġch":451,"able":452,"ry":453,"AT":454,"AL":455,"Ġh":456,"ĠC":457,"ation":458,"to":459,"gn":460,"sk":461,"Ġ/*":462,"do":463,"ĠT":464,"ffer":465,"ect":466,"rame":467,"32":468,"sion":469,"ree":470,"dev":471,"cp":472,"ren":473,"ort":474,"Ġto":475,"Ġl":476,"ri":477,"--":478,"ult":479,"que":480,"text":481,"lag":482,"unt":483,"Ġst":484,"sign":485,"Ġsize":486,"name":487,"ac":488,"of":489,"Ġr":490,"ĠĠĠĠĠĠĠĠĠĠĠĠĠĠĠ":491,"Ġ>":492,"Ġelse":493,"Ġde":494,"ĠP":495,"ix":496,"Ġconst":497,"Con":498,"**":499,"error":500,"ĠF":501,"type":502,"ir":503,"DE":504,"(\"":505,"ption":506,"ite":507,"ho":508,"ĠĠĠĠĠĠĠĠĠ":509,"ĠM":510,"sc":511,"static":512,"ara":513,"ip":514,"vent":515,"++":516,"ma":517,"SE":518,"bj":519,"),":520,"read":521,"St":522,"pro":523,"ĠA":524,"Ġfor":525,"file":526,"all":527,"LE":528,"out":529,"fa":530,"te":531,"\");":532,"for":533,"Ġ%":534,"ffset":535,"put":536,"key":537,"oc":538,"om":539,"sp":540,"art":541,"loc":542,"SS":543,"buf":544,"ptr":545,"ime":546,"arg":547,"Ġ||":548,"lags":549,"signed":550,"AR":551,"ment":552,"Ġu":553,"oto":554,"ĠD":555,"Ġis":556,"ick":557,"ath":558,"ĠI":559,"unsigned":560,"CH":561,"case":562,"ĠG":563,"value":564,"ter":565,"OM":566,"00":567,"ader":568,"ERR":569,"gth":570,"rent":571,"eb":572,"Ġth":573,"Ġchar":574,"state":575,"list":576,"vice":577,"per":578,"ĠĠĠĠĠĠĠĠĠĠĠĠĠĠĠĠĠĠĠĠĠĠĠĠĠĠĠĠĠĠĠĠ":579,"pr":580,"ist":581,"addr":582,"ĠE":583,"Ġ*)":584,"dex":585,"ub":586,"cur":587,"alse":588,"ure":589,"CK":590,"entry":591,"bo":592,"Ġcase":593,"code":594,"row":595,"rc":596,"IT":597,"os":598,"ine":599,"our":600,"Ġx":601,"pl":602,"ask":603,"est":604,"CT":605,"der":606,"Ġv":607,"const":608,"ource":609,"ID":610,"ction":611,"ock":612,"Ġ'":613,"fs":614,"map":615,"mem":616,"rr":617,"quest":618,"ht":619,"Ġe":620,"UR":621,"agick":622,"__":623,"Ġk":624,"].":625,"mo":626,"ĠW":627,"Ġ((":628,"tent":629,"mage":630,"break":631,"length":632,"ast":633,"bject":634,"buffer":635,"PE":636,"io":637,"Ġtr":638,"TR":639,"ace":640,"LO":641,"ixel":642,"MA":643,"ĠB":644,"port":645,"free":646,"red":647,"Co":648,"ĠĠĠĠĠĠ":649,"ang":650,"qu":651,"ong":652,"goto":653,"rite":654,"Pro":655,"flags":656,"ow":657,"num":658,"Image":659,"Ġ2":660,"string":661,"lient":662,"Ġbreak":663,"Ch":664,"Ġstruct":665,"status":666,"ĠR":667,"back":668,"ive":669,"())":670,"page":671,"col":672,"ps":673,"Ġsizeof":674,"vm":675,"Str":676,"count":677,"CE":678,"ME":679,"mat":680,"cess":681,"AD":682,"user":683,"ref":684,"Set":685,"());":686,"De":687,"ity":688,"ory":689,"Ex":690,"add":691,"Info":692,"md":693,"Ġco":694,"em":695,"UN":696,"];":697,"new":698,"64":699,"SI":700,"En":701,"offset":702,"uffer":703,"rom":704,"AN":705,"To":706,"Val":707,"und":708,"ream":709,"FF":710,"av":711,"OP":712,"cpu":713,"Type":714,"ph":715,"Lo":716,"Ġwe":717,"()->":718,"Ġof":719,"ll":720,"16":721,"reg":722,"ind":723,"Vi":724,"_->":725,"ache":726,"rror":727,"Ġout":728,"andle":729,"(),":730,"Ġbe":731,"heck":732,"Ġres":733,"ight":734,"INT":735,"Ġse":736,"Ġvoid":737,"Ġ:":738,"ception":739,"_.":740,"mple":741,"GE":742,"ans":743,"print":744,"BU":745,"ost":746,"mpl":747,"TI":748,"PR":749,"Ġret":750,"String":751,"frame":752,"arams":753,"VAL":754,"ra":755,"ib":756,"char":757,"****":758,"ass":759,"Ġpro":760,"ta":761,"one":762,"----":763,"ERROR":764,"dow":765,"alloc":766,"path":767,"bit":768,"((":769,"Ġj":770,"ng":771,"ize":772,"//":773,"load":774,"cl":775,"low":776,"Ġ)":777,"EX":778,"ml":779,"ant":780,"lement":781,"skb":782,"ED":783,"Ġex":784,"ann":785,"sh":786,"Value":787,"For":788,"Ġit":789,"use":790,"Ġfalse":791,"ument":792,"idth":793,"oint":794,"msg":795,"Data":796,"ly":797,"aram":798,"event":799,"reate":800,"sa":801,"ĠĠĠĠĠĠĠĠĠĠĠĠĠ":802,"ĠĠĠĠĠĠĠĠĠĠĠĠĠĠĠĠĠĠĠ":803,"Ġ+=":804,"ial":805,"Error":806,"init":807,"fault":808,"Frame":809,"ard":810,"ING":811,"TY":812,"attr":813,"FI":814,"ML":815,"Ġnot":816,"index":817,"ash":818,"Un":819,"url":820,"du":821,"pa":822,"Ġ<<":823,"ĉĠĠĠ":824,"lob":825,"ctxt":826,"log":827,"Ġnew":828,"ok":829,"header":830,"mm":831,"ĠH":832,"ool":833,"Is":834,"def":835,"ink":836,"line":837,"NO":838,"comp":839,"Ġand":840,"yn":841,"Ġdata":842,"ĠV":843,"Magick":844,"Ġerror":845,"LA":846,"ance":847,"ĠO":848,"allback":849,"date":850,"UT":851,"wit":852,"ild":853,"Sc":854,"by":855,"valid":856,"++)":857,"di":858,"ers":859,"View":860,"time":861,"start":862,"ENT":863,"net":864,"context":865,"tes":866,"ord":867,"TYPE":868,"ECK":869,"Context":870,"ange":871,"endif":872,"par":873,"indow":874,"Ġerr":875,"Ġtrue":876,"dec":877,"Ġ?":878,"uint":879,"Ġimage":880,"mb":881,"Event":882,"tp":883,"ender":884,"ale":885,"IS":886,"Res":887,"ute":888,"unk":889,"ill":890,"no":891,"node":892,"Ġ__":893,"Ġy":894,"Ġbase":895,"ax":896,"Ġps":897,"write":898,"riv":899,"ĉĉĉĉĉ":900,"Ġwh":901,"Ġlen":902,"ĠX":903,"State":904,"Ġthis":905,"Ġlong":906,"ust":907,"annel":908,"ith":909,"sock":910,"ty":911,"inode":912,"mode":913,"ress":914,"server":915,"tro":916,"Ġas":917,"view":918,"Ġsk":919,"fi":920,"ension":921,"omm":922,"ave":923,"Tr":924,"base":925,"rect":926,"CON":927,"ull":928,"Ġ4":929,"block":930,"fig":931,"ail":932,"URL":933,"req":934,"UE":935,"dis":936,"CHECK":937,"lay":938,"],":939,"ĠL":940,"Web":941,"Size":942,"(*":943,"CO":944,"printf":945,"be":946,"++;":947,"ION":948,"ĠU":949,"At":950,"bl":951,"next":952,"ber":953,"nd":954,"Ġstd":955,"ug":956,"Impl":957,"Object":958,"Ġ>=":959,"max":960,"rowser":961,"act":962,"hdr":963,"MP":964,"ork":965,"Ġunsigned":966,"Qu":967,"stream":968,"ated":969,"Ġ);":970,"pos":971,"Ġcur":972,"ĠGet":973,"ition":974,"Ġon":975,"Ġal":976,"RA":977,"Ġstr":978,"Ġby":979,"arget":980,"device":981,"INVAL":982,"Ġfile":983,"acket":984,"tents":985,"Pixel":986,"witch":987,"conn":988,"Ġdo":989,"own":990,"ld":991,"Ġbu":992,"mess":993,"ator":994,"ec":995,"ync":996,"pu":997,"ns":998,"Buffer":999,"message":1000,"color":1001,"app":1002,"gro":1003,"Ġset":1004,"ET":1005,"ript":1006,"IO":1007,"ZE":1008,"irst":1009,"request":1010,"inter":1011,"AP":1012,"pre":1013,"ATE":1014,"LI":1015,"vel":1016,"sert":1017,"Ġen":1018,"AS":1019,"arch":1020,"sg":1021,"fe":1022,"ĠGL":1023,"eld":1024,"cs":1025,"idx":1026,"Ġvalue":1027,"host":1028,"Host":1029,"ler":1030,"FA":1031,"pp":1032,"SSL":1033,"olor":1034,"().":1035,"Ġle":1036,"Th":1037,"Se":1038,"Bo":1039,"handle":1040,"client":1041,"ain":1042,"pi":1043,"ctor":1044,"UL":1045,"Ġan":1046,"result":1047,"Ġsc":1048,"ses":1049,"form":1050,"File":1051,"queue":1052,"atch":1053,"rypt":1054,"dd":1055,"On":1056,"ep":1057,"her":1058,"args":1059,"ĠMagick":1060,"SET":1061,"ĠĠĠĠĠĠĠĠĠĠĠĠĠĠĠĠĠĠĠĠĠĠĠ":1062,"Ġget":1063,"Read":1064,"rt":1065,"ded":1066,"uth":1067,"height":1068,"sed":1069,"width":1070,"sb":1071,"Ġnum":1072,"Ġ8":1073,"Ġbool":1074,"SIZE":1075,"Ġor":1076,"BUG":1077,"IP":1078,"antum":1079,"reen":1080,"bool":1081,"uld":1082,"move":1083,"object":1084,"met":1085,"face":1086,"Ġ3":1087,"Ġoffset":1088,"Name":1089,"pc":1090,"nt":1091,"link":1092,"Ptr":1093,",\"":1094,"dir":1095,"GL":1096,"priv":1097,"params":1098,"cmd":1099,"anag":1100,"abled":1101,"pixel":1102,"ocument":1103,"cop":1104,"Ġext":1105,"root":1106,"hod":1107,"ister":1108,"ary":1109,"iv":1110,"Comp":1111,"opt":1112,"anager":1113,"unlock":1114,"Ġbuffer":1115,"Ġ|=":1116,"Ġtype":1117,"Ġinfo":1118,"SU":1119,"ĠĠĠĠĠĠĠĠĠĠĠĠĠĠĠĠĠĠĠĠĠĠĠĠ":1120,"bug":1121,"OT":1122,"comm":1123,"OMX":1124,"cmp":1125,"LOG":1126,"tmp":1127,"table":1128,"ush":1129,"desc":1130,"vcpu":1131,"Attr":1132,"cache":1133,"fd":1134,"Ġframe":1135,"Ġlength":1136,"SR":1137,"Ġbuf":1138,"Loc":1139,"iter":1140,"exception":1141,"ĠWeb":1142,"ore":1143,"VE":1144,"List":1145,"=(":1146,"unc":1147,"Ġname":1148,"Ġgoto":1149,"andler":1150,"Ġsock":1151,"]);":1152,"Element":1153,"current":1154,"SH":1155,"ĠIn":1156,"********":1157,"EXT":1158,"sub":1159,"Ġpage":1160,"Ġmem":1161,"Ġthat":1162,"Ġuint":1163,"Ġkey":1164,"ommand":1165,"He":1166,"iled":1167,"False":1168,"ĉĉĠĠĠ":1169,"Ġresult":1170,")->":1171,"bytes":1172,"ting":1173,"ifi":1174,"mask":1175,"version":1176,"Ġun":1177,"hash":1178,"Node":1179,"ĠDCHECK":1180,"yle":1181,"pon":1182,"ined":1183,"rb":1184,"Request":1185,"ray":1186,"NULL":1187,"dule":1188,"FS":1189,"iz":1190,"lean":1191,"--------":1192,"'t":1193,"VER":1194,"Blob":1195,"AB":1196,"sl":1197,"olic":1198,"option":1199,"PA":1200,"ken":1201,"DR":1202,"trans":1203,"ify":1204,"NE":1205,"avig":1206,"src":1207,"cb":1208,"KE":1209,"tin":1210,"this":1211,"eed":1212,"nal":1213,"dst":1214,"pty":1215,"ft":1216,"lear":1217,"ending":1218,"Ġflags":1219,"param":1220,"min":1221,"STR":1222,"SL":1223,"Id":1224,"main":1225,"ake":1226,"update":1227,"unction":1228,"Text":1229,"olicy":1230,"old":1231,"Ġend":1232,"Ġrequest":1233,"Ġstatus":1234,"stance":1235,"Ġ_":1236,"MAX":1237,"Ġ>>":1238,"point":1239,"are":1240,"Ġ(*":1241,"std":1242,"ibute":1243,"Mo":1244,")))":1245,"Ġnet":1246,"rint":1247,"DEBUG":1248,"CC":1249,"gs":1250,"MS":1251,"Page":1252,"Met":1253,"ess":1254,"ply":1255,"tx":1256,"ud":1257,"uble":1258,"db":1259,"space":1260,"Log":1261,"OK":1262,"work":1263,"Ġ<=":1264,"ilter":1265,"cpy":1266,"rec":1267,"pth":1268,"02":1269,"END":1270,"PRINT":1271,"ener":1272,"_(":1273,"ert":1274,"Ġat":1275,"obj":1276,"ont":1277,"task":1278,"lose":1279,"Index":1280,"group":1281,"\";":1282,"sy":1283,"ait":1284,">(":1285,"rag":1286,"tinue":1287,"UM":1288,"US":1289,"trol":1290,"igin":1291,"IL":1292,"utex":1293,"Ġcomp":1294,"CA":1295,"card":1296,"Ġ/":1297,"ĠSet":1298,"Ġ//":1299,"Test":1300,"Path":1301,"check":1302,"PAR":1303,"config":1304,"enc":1305,"its":1306,"ndo":1307,"IG":1308,"tree":1309,"CP":1310,"Lay":1311,"Ġsh":1312,"dest":1313,"Ġz":1314,"Ġcount":1315,"Ġfrom":1316,"Render":1317,"Quantum":1318,"local":1319,"Ġxml":1320,"avigation":1321,"ĠĠĠĠĠĠĠĠĠĠĠĠĠĠĠĠĠ":1322,"ound":1323,"')":1324,"Mem":1325,"ailed":1326,"Ġwith":1327,"ponse":1328,"*/":1329,"xml":1330,"PP":1331,"ature":1332,"input":1333,"MO":1334,"ies":1335,"head":1336,"lename":1337,"format":1338,"TH":1339,"item":1340,"LEN":1341,"LS":1342,"Client":1343,"Ġq":1344,"Dis":1345,"Ġstate":1346,"Ġid":1347,"fx":1348,"wh":1349,"ee":1350,"default":1351,"eg":1352,"box":1353,"Ġentry":1354,"leg":1355,"array":1356,"cast":1357,"seq":1358,"Ġreg":1359,"Create":1360,"sn":1361,"ORT":1362,"flag":1363,"TE":1364,"Color":1365,"roll":1366,"Ġmo":1367,"Ġcheck":1368,"ge":1369,"roy":1370,"Ġ**":1371,"Ke":1372,"EV":1373,"12":1374,"Sh":1375,"imit":1376,"hould":1377,"ob":1378,"Ġwhile":1379,"hed":1380,"Ġstart":1381,"raw":1382,"doc":1383,"Time":1384,"Al":1385,"Ġop":1386,"Thread":1387,"FO":1388,"uto":1389,"TA":1390,"bits":1391,"play":1392,"mt":1393,"Ser":1394,"Ġso":1395,"SA":1396,"sib":1397,"essage":1398,"coder":1399,"ĠEX":1400,"Ġarg":1401,"rl":1402,"upport":1403,"session":1404,"KEY":1405,"Ġread":1406,"usb":1407,"sizeof":1408,"Ġadd":1409,"Ġmax":1410,"cted":1411,"Key":1412,"ifdef":1413,"Ġ++":1414,"AM":1415,"RO":1416,"lease":1417,"png":1418,"pec":1419,"ĠSSL":1420,"tl":1421,"ĠTh":1422,"ALSE":1423,"last":1424,"DI":1425,"ĠMagickFalse":1426,"ERT":1427,"Ġdef":1428,"Len":1429,"try":1430,"ual":1431,"From":1432,"ND":1433,"ORD":1434,"rq":1435,"Callback":1436,"word":1437,"Int":1438,"Inter":1439,"COM":1440,"ĠRe":1441,"from":1442,"perty":1443,"URE":1444,"Count":1445,"deo":1446,"loat":1447,"proto":1448,"channel":1449,"Window":1450,"ign":1451,"parent":1452,"not":1453,"ection":1454,"..":1455,"EM":1456,"xy":1457,"Ġhave":1458,"copy":1459,"ark":1460,"IC":1461,"Resource":1462,"ops":1463,"Ġare":1464,"debug":1465,"ĠĠĠĠĠĠĠĠĠĠĠĠ":1466,"ccess":1467,"tain":1468,"11":1469,"Memory":1470,"Mode":1471,"PC":1472,"ide":1473,"opy":1474,"chunk":1475,"VI":1476,"parse":1477,"tension":1478,"ts":1479,"ssize":1480,"off":1481,"ific":1482,"dp":1483,"ield":1484,"Load":1485,"IF":1486,"ĠJ":1487,"mutex":1488,"Exception":1489,"(!":1490,"Ġ\"%":1491,"rap":1492,"Up":1493,"Add":1494,"ĉĉĉĉĉĉ":1495,"Ġtime":1496,"By":1497,"EINVAL":1498,"_)":1499,"SK":1500,"ĠRender":1501,"ia":1502,"Ġcurrent":1503,"Message":1504,"ULT":1505,"target":1506,"Cur":1507,"\\\"":1508,"Ġcan":1509,"imer":1510,"create":1511,"spin":1512,"ctl":1513,"',":1514,"ABLE":1515,"REG":1516,"ĠOMX":1517,"_);":1518,"ĠEx":1519,"ical":1520,"ugin":1521,"][":1522,"blk":1523,"Ġlist":1524,"test":1525,"CCE":1526,"ATA":1527,"fl":1528,"])":1529,"HT":1530,"Or":1531,"unn":1532,"Ġindex":1533,"Ġdis":1534,"=%":1535,"pha":1536,"Ġuser":1537,"ample":1538,"Ġpre":1539,"Ġpar":1540,"Cache":1541,"rer":1542,"Ġser":1543,"FLA":1544,"Ġnext":1545,"Ġevent":1546,"Ġold":1547,"Ġap":1548,"Ġstatic":1549,"has":1550,"idget":1551,"OS":1552,"qui":1553,"used":1554,"Ġpath":1555,"Rect":1556,"ci":1557,"\")":1558,"_,":1559,"am":1560,"troll":1561,"Char":1562,"switch":1563,"tag":1564,"Ġcode":1565,"Ġav":1566,"irect":1567,"led":1568,"tings":1569,"bs":1570,"child":1571,"SC":1572,"profile":1573,"Attribute":1574,"Process":1575,"tif":1576,"Ġdefault":1577,"cap":1578,"ĠIf":1579,"Ġclient":1580,"Document":1581,"cond":1582,"otal":1583,"AGE":1584,"0000":1585,"Contents":1586,"filename":1587,"thread":1588,"troller":1589,"FOR":1590,"ĠK":1591,"UP":1592,"Ġparams":1593,"Ġsrc":1594,"legate":1595,"ĠAV":1596,"open":1597,"uid":1598,"ram":1599,"Ġnode":1600,"sec":1601,"GET":1602,"READ":1603,"ctp":1604,"vert":1605,"fp":1606,"Ġno":1607,"auth":1608,"TRA":1609,"Ġpos":1610,"AND":1611,"NG":1612,"store":1613,"Ġcpu":1614,"func":1615,"depth":1616,"kt":1617,"sample":1618,"itial":1619,"Box":1620,"Header":1621,"source":1622,"Par":1623,"ĠFT":1624,"cip":1625,"Ġlo":1626,"sig":1627,"fer":1628,"og":1629,"Ġskb":1630,"AME":1631,"INVALID":1632,"RET":1633,"kvm":1634,"lice":1635,"ative":1636,"Ġip":1637,"Param":1638,"ĠĠĠĠĠĠĠĠĠĠĠĠĠĠ":1639,"STAT":1640,"send":1641,"Ġ16":1642,"Ġhe":1643,"Ġblock":1644,"FP":1645,"Handle":1646,"cc":1647,"OL":1648,"regs":1649,"ries":1650,"element":1651,"while":1652,"reset":1653,"Offset":1654,"ĠĠĠĠĠĠĠĠĠĠ":1655,"rows":1656,"callback":1657,"FILE":1658,"ding":1659,"ca":1660,"DO":1661,"Manager":1662,"FAULT":1663,"Ġper":1664,"lection":1665,"ery":1666,"CM":1667,"Tab":1668,"ie":1669,"*)":1670,"10":1671,"level":1672,"df":1673,"token":1674,"ict":1675,"Ġpng":1676,"Entry":1677,"FLAG":1678,"fore":1679,"window":1680,"contents":1681,"gr":1682,"Ġvi":1683,"ĠXML":1684,"Ġcontext":1685,"flow":1686,"Ġneed":1687,"packet":1688,"Ġkvm":1689,"irq":1690,"Ġ'\\":1691,"ics":1692,"Pl":1693,"Stream":1694,"Ġheader":1695,"ression":1696,"BIT":1697,"Ġrc":1698,"ĠĠĠĠĠĠĠĠĠĠĠĠĠĠĠĠĠĠĠĠĠĠĠĠĠĠĠ":1699,"50":1700,"first":1701,"curity":1702,"process":1703,"VM":1704,"rm":1705,"ONE":1706,"Input":1707,"CTION":1708,"ton":1709,"var":1710,"Op":1711,"Ġhas":1712,"arent":1713,"Command":1714,"Length":1715,"field":1716,"stem":1717,"TO":1718,"Ġinode":1719,"Method":1720,"rit":1721,"SP":1722,"Ġdefined":1723,"Stat":1724,"clear":1725,"ping":1726,"ĠWe":1727,"Ġbytes":1728,"aw":1729,"Num":1730,"Ġmode":1731,"vio":1732,"CCESS":1733,"Not":1734,"find":1735,"buff":1736,"cm":1737,"del":1738,"Browser":1739,"Le":1740,"Ġ~":1741,"command":1742,"rypto":1743,"Ġfree":1744,"bin":1745,"amp":1746,"web":1747,"ely":1748,"udio":1749,"SSERT":1750,"Ġdevice":1751,"output":1752,"entries":1753,"DATA":1754,"rome":1755,"register":1756,"==":1757,"000":1758,"Handler":1759,"ĠZ":1760,"medi":1761,"HE":1762,"BA":1763,"Ġbit":1764,"lete":1765,"TIFF":1766,"options":1767,"colum":1768,"CR":1769,"MLS":1770,"zend":1771,"Bind":1772,")));":1773,"Service":1774,"BO":1775,"LOCK":1776,"long":1777,"mis":1778,"rg":1779,"20":1780,"WAR":1781,"double":1782,"orage":1783,"Source":1784,"Max":1785,"lot":1786,"Ġurl":1787,"Ġ(\"":1788,"pic":1789,"Channel":1790,"rence":1791,"SRMLS":1792,"ence":1793,"Ġwill":1794,"Ġassert":1795,"pixels":1796,"Ġ-=":1797,"Update":1798,"how":1799,"sible":1800,"location":1801,",&":1802,"STATE":1803,"empty":1804,"Ġlast":1805,"rop":1806,"tab":1807,"INFO":1808,"itor":1809,"ume":1810,"Ġswitch":1811,"ĠThe":1812,"apt":1813,"ak":1814,"Ġctx":1815,"Ġsp":1816,"REQ":1817,"number":1818,"ATION":1819,"ifier":1820,"Ġdev":1821,"ĠĠĠĠĠĠĠĠĠĠĠĠĠĠĠĠĠĠĠĠĠ":1822,"bserver":1823,"Ġfirst":1824,"ach":1825,"Ġpoint":1826,"class":1827,"ux":1828,"SY":1829,"codec":1830,"af":1831,"lf":1832,"lobal":1833,"ru":1834,"sor":1835,"pages":1836,"ish":1837,"ized":1838,"action":1839,"dy":1840,"omet":1841,"php":1842,"sing":1843,"Ġnfs":1844,"ote":1845,"ERN":1846,"ero":1847,"wait":1848,"ITE":1849,"Ġaddr":1850,"ĠTSRMLS":1851,"Ġval":1852,"anged":1853,"Ġmessage":1854,"Pos":1855,"Local":1856,"fn":1857,"env":1858,"Start":1859,"bound":1860,"layer":1861,"release":1862,"'s":1863,"ĠĊ":1864,"cr":1865,"edia":1866,"Ġchunk":1867,"ĠOP":1868,"Trans":1869,"Cl":1870,"uration":1871,"Ġ5":1872,"document":1873,"seg":1874,"vid":1875,"ared":1876,"Ġup":1877,"Msg":1878,"derer":1879,"SER":1880,"fc":1881,"Ġctxt":1882,"ĠCON":1883,"WARN":1884,"OB":1885,"Point":1886,"sum":1887,"Ġren":1888,"manager":1889,"adata":1890,"FUN":1891,"lip":1892,"Block":1893,"Dest":1894,"ĠHT":1895,"Style":1896,"Option":1897,"columns":1898,"down":1899,"nown":1900,"ted":1901,"Ġuse":1902,"Out":1903,"Ġ6":1904,"gin":1905,"pm":1906,")(":1907,"ures":1908,"pected":1909,"CI":1910,"Ġfailed":1911,"coding":1912,"refix":1913,"Ġinter":1914,"WORD":1915,"patch":1916,"pending":1917,"Ġvm":1918,"order":1919,"TP":1920,"':":1921,"Ġmsg":1922,"ĉĉĉĠĠĠ":1923,"MAT":1924,"86":1925,"Content":1926,"vmx":1927,"ution":1928,"uff":1929,"Enabled":1930,"25":1931,",(":1932,"ATTR":1933,"che":1934,"false":1935,"Ġhandle":1936,"ql":1937,"Ġlog":1938,"Ġconn":1939,"Extension":1940,"continue":1941,"Ġweb":1942,"Code":1943,"PH":1944,"ILE":1945,"mpty":1946,"orm":1947,"Ġph":1948,"ĠMA":1949,"Current":1950,"etch":1951,"sv":1952,"Ġsource":1953,"Params":1954,"Ġshould":1955,"ĠCon":1956,"Ġtrans":1957,"nr":1958,"LIN":1959,"connect":1960,"PRE":1961,"NUM":1962,"archive":1963,"';":1964,"byte":1965,"filter":1966,"service":1967,"Ġ;":1968,"ansp":1969,"okup":1970,"LLO":1971,"br":1972,"tem":1973,"FIG":1974,"exit":1975,"Ġalloc":1976,"pid":1977,"trace":1978,"****************":1979,"pb":1980,"Per":1981,"ique":1982,"FFER":1983,"OF":1984,"instance":1985,"slice":1986,"Ġtmp":1987,"timer":1988,"eter":1989,"ĠWrite":1990,"tail":1991,"rx":1992,"so":1993,"And":1994,"cce":1995,"memcpy":1996,"other":1997,"Ġstring":1998,"IST":1999,"WR":2000,"prog":2001,"Ġcontent":2002,"upported":2003,"append":2004,").":2005,"Ġonly":2006,"nl":2007,"Ġcl":2008,"resource":2009,"URN":2010,"arn":2011,"Pre":2012,"Ġsub":2013,"alg":2014,"Long":2015,"kely":2016,"frag":2017,"Ġattr":2018,"mod":2019,"likely":2020,"fg":2021,"Ġbut":2022,"DB":2023,"Reg":2024,"method":2025,"Ġtask":2026,"ell":2027,"ROM":2028,"Format":2029,"IVE":2030,"Device":2031,"----------------":2032,"okie":2033,"BUFFER":2034,"control":2035,"Ġnull":2036,"\"));":2037,"Child":2038,"tra":2039,"Function":2040,"content":2041,"Ġtext":2042,"Ġoption":2043,"Status":2044,"Ġoff":2045,"strcmp":2046,"SION":2047,"Ġtarget":2048,"vector":2049,"Do":2050,"Ġinput":2051,"NAME":2052,"dup":2053,"Ġport":2054,"Property":2055,"With":2056,"Invalid":2057,"olean":2058,"atter":2059,"xff":2060,"oot":2061,"cnt":2062,"ĠĠĠĠĠĠĠĠĠĠĠĠĠĠĠĠĠĠ":2063,"Ġwidth":2064,"MASK":2065,"Ġany":2066,"PO":2067,"eters":2068,"GF":2069,"Locale":2070,"RETURN":2071,"Ġ(!(":2072,"hw":2073,"Ġpl":2074,"Ġdst":2075,"stats":2076,"mplete":2077,"Policy":2078,"range":2079,"CL":2080,"Tree":2081,"Ġall":2082,"sync":2083,"EVENT":2084,"509":2085,"match":2086,"ches":2087,"Ġopt":2088,"mark":2089,"PT":2090,"tv":2091,"Check":2092,"OUT":2093,"PF":2094,"Ġstream":2095,"No":2096,"close":2097,"INIT":2098,"Ġnumber":2099,"roup":2100,"olate":2101,"handler":2102,"MODE":2103,"STRING":2104,"active":2105,"Module":2106,"ctive":2107,"leanup":2108,"OMEM":2109,"ĠĠĠĠĠĠĠĠĠĠĠĠĠĠĠĠĠĠĠĠ":2110,"Has":2111,"New":2112,"TIME":2113,"urface":2114,"PER":2115,"UI":2116,"Ġcolor":2117,"ds":2118,"Layer":2119,"ally":2120,"Ġqu":2121,"coped":2122,"left":2123,"GS":2124,"Ġpacket":2125,"tainer":2126,"ved":2127,"Ġcommand":2128,"CODE":2129,"HER":2130,"ger":2131,"push":2132,"Ġ\",":2133,"Destroy":2134,"ĉĠ":2135,"MB":2136,"Ġcontinue":2137,"CUR":2138,"emp":2139,"Ġpixel":2140,"NOT":2141,"prev":2142,"top":2143,"screen":2144,"cert":2145,"mit":2146,"ĠID":2147,"retval":2148,"Layout":2149,"aint":2150,"ready":2151,"OG":2152,"enum":2153,"yy":2154,"Ġdest":2155,"Ġparam":2156,"iov":2157,"cipher":2158,"Script":2159,"stack":2160,"DOM":2161,"render":2162,"ENOMEM":2163,"Ġcache":2164,"script":2165,"Ref":2166,"ring":2167,"Ġchild":2168,"private":2169,"WN":2170,"gl":2171,"bh":2172,"ĠFALSE":2173,"Result":2174,"ĠSC":2175,"Ġ.":2176,"Valid":2177,"ownload":2178,"ification":2179,"Media":2180,"Ġline":2181,"Ġro":2182,"conf":2183,"dentry":2184,"Ġcmd":2185,"Ġsctp":2186,"Widget":2187,"api":2188,"Ġcallback":2189,"Width":2190,"Ġcopy":2191,"Ġus":2192,"vma":2193,"sm":2194,"Ġhost":2195,"Base":2196,"pack":2197,"802":2198,"heme":2199,"pass":2200,"\"))":2201,"exec":2202,"kfree":2203,"Ġ&=":2204,"Ġwrite":2205,"mount":2206,"Ġextension":2207,"onent":2208,"ek":2209,"extension":2210,"Ġmin":2211,"ground":2212,"Ġses":2213,"Ġone":2214,"Task":2215,"Ġargs":2216,"atal":2217,"part":2218,"com":2219,"ĠQ":2220,"Bu":2221,"cord":2222,"Arg":2223,"ĠRead":2224,"(\"%":2225,"SUPP":2226,"TLS":2227,"cred":2228,"Sub":2229,"pkt":2230,"ssl":2231,"ĠĠĠĠĠĠĠĠĠĠĠĠĠĠĠĠĠĠĠĠĠĠ":2232,"address":2233,"UTF":2234,"abel":2235,"decode":2236,"EQ":2237,"wap":2238,"Ġptr":2239,"CS":2240,"Line":2241,"atures":2242,"Instance":2243,"Navigation":2244,"mission":2245,"core":2246,"Ġserver":2247,"scale":2248,"sr":2249,"Ġ7":2250,"ĠOn":2251,"Scale":2252,"ason":2253,"FALSE":2254,"style":2255,"DIS":2256,"Ġ[":2257,"begin":2258,"SO":2259,"Ġsi":2260,"media":2261,"Ġfail":2262,"assoc":2263,"PI":2264,"bp":2265,"uccess":2266,"+=":2267,"rray":2268,"mac":2269,"Ġgfx":2270,"USE":2271,"bar":2272,"lect":2273,"Ġobject":2274,"Ġcall":2275,"ĠIP":2276,"Ġmet":2277,"defined":2278,"pg":2279,"RG":2280,"policy":2281,"MI":2282,"ĠStr":2283,"TER":2284,"User":2285,"ayload":2286,"ility":2287,"ONG":2288,"ĠĠĠĠĠĠĠĠĠĠĠĠĠĠĠĠĠĠĠĠĠĠĠĠĠ":2289,"omic":2290,"EC":2291,"Ġback":2292,"ĠDe":2293,"ĠTR":2294,"ĠĠĠĠĠĠĠĠĠĠĠĠĠĠĠĠĠĠĠĠĠĠĠĠĠĠĠĠĠĠĠ":2295,"vider":2296,"Ġnow":2297,"An":2298,">&":2299,"NT":2300,"call":2301,"MSG":2302,"Ġsy":2303,"Write":2304,"Ġio":2305,"fter":2306,"Ġab":2307,"Ġreq":2308,"temp":2309,"Ġnl":2310,"ugh":2311,"esc":2312,"tcp":2313,"NEL":2314,"ĠThis":2315,"Ġheight":2316,"Of":2317,"ometry":2318,"Ġrender":2319,"fin":2320,"Map":2321,"true":2322,"Ġsession":2323,"signal":2324,"rate":2325,"Video":2326,"rintf":2327,"-+":2328,"memory":2329,"EE":2330,"Ġproto":2331,"Config":2332,"annot":2333,"ECT":2334,"Ġnullptr":2335,"Free":2336,"Sync":2337,"Ġformat":2338,"save":2339,"tom":2340,"HAND":2341,"Ġhere":2342,"po":2343,"PAT":2344,"Ġdone":2345,"proc":2346,"parser":2347,"response":2348,"Ġlay":2349,"LY":2350,"Ġaddress":2351,"http":2352,"NONE":2353,"ffect":2354,"jo":2355,"uest":2356,"trfs":2357,"Ġim":2358,"resent":2359,"stamp":2360,"Loader":2361,"Track":2362,"Ġfield":2363,"Ġprofile":2364,"unlikely":2365,"tk":2366,"ested":2367,"PARAM":2368,"ich":2369,"IR":2370,"texture":2371,"SB":2372,"vec":2373,"App":2374,"track":2375,"entic":2376,"iver":2377,"peg":2378,"alpha":2379,"second":2380,"sbi":2381,"Array":2382,"VP":2383,"Back":2384,"Item":2385,"Failed":2386,"SUCCESS":2387,"Next":2388,"ILURE":2389,"tile":2390,"pol":2391,"80211":2392,"stderr":2393,"Field":2394,"malloc":2395,"Controller":2396,"Ġprocess":2397,"place":2398,"igh":2399,"lu":2400,"Scroll":2401,"enabled":2402,"]->":2403,"fprintf":2404,"qual":2405,"quire":2406,"Profile":2407,"Ġregister":2408,"tf":2409,"MAP":2410,"lowed":2411,"Ġmemory":2412,"dc":2413,"Ġlevel":2414,"ations":2415,"ump":2416,"ixed":2417,"-+-+":2418,"Ġtest":2419,"crypt":2420,"Sample":2421,"UEST":2422,"cfg":2423,"argv":2424,"extent":2425,"alk":2426,"HEAD":2427,"pool":2428,"quence":2429,"Bit":2430,"Ġwindow":2431,"peer":2432,"},":2433,"OTO":2434,"CAP":2435,"TEXT":2436,"Ġmust":2437,"Observer":2438,"ified":2439,"ift":2440,"ĠRes":2441,"EL":2442,"zval":2443,"()));":2444,"Lock":2445,"Run":2446,"Ġme":2447,"ĠAL":2448,"Ġad":2449,"Ġexception":2450,"dump":2451,"origin":2452,"ĠImage":2453,"mnt":2454,"CB":2455,"spec":2456,"mote":2457,"STATUS":2458,"uch":2459,"Origin":2460,"Ġwas":2461,"lyph":2462,"reply":2463,"aract":2464,"ector":2465,"done":2466,"GetMagick":2467,"job":2468,"264":2469,"TRACE":2470,"Compare":2471,"Ġparent":2472,"ĠTRUE":2473,"Ġoutput":2474,"socket":2475,"DF":2476,"True":2477,"vmcs":2478,"Port":2479,"Ġstrlen":2480,"MEM":2481,"ner":2482,"14":2483,"vs":2484,"destroy":2485,"MT":2486,"ĠDEBUG":2487,"older":2488,"enable":2489,"REA":2490,"vc":2491,":%":2492,"inc":2493,"ĠString":2494,"Ġvalid":2495,"unique":2496,"_;":2497,"hook":2498,"Ġusb":2499,"Ġdon":2500,"ui":2501,"ĠSt":2502,"FUNCTION":2503,"pf":2504,"CMD":2505,"Ġmask":2506,"total":2507,"ĠPNG":2508,"LIST":2509,"GetMagickModule":2510,"OBJ":2511,"slt":2512,"son":2513,"Number":2514,"change":2515,"End":2516,"ĠThrow":2517,"ĉĉĉĉĉĉĉ":2518,"tach":2519,"Byte":2520,"bitmap":2521,"Pixels":2522,"ĠLog":2523,"KER":2524,"clu":2525,"Ġ\"\\":2526,"remove":2527,"vious":2528,"Empty":2529,"Ġpi":2530,"direct":2531,"Range":2532,"utes":2533,"Ġchannel":2534,"ols":2535,"Ġtable":2536,"acl":2537,"Ġui":2538,"Ġview":2539,"Height":2540,"mi":2541,"position":2542,"FRA":2543,"attern":2544,"Ġ32":2545,"ĠBrowser":2546,"Plugin":2547,"AV":2548,"PRO":2549,"mng":2550,"Ġcrypto":2551,"sys":2552,"Ġroot":2553,"ommit":2554,"Auth":2555,"itle":2556,"Ġ\\":2557,"ĠCH":2558,"istr":2559,"atform":2560,"PU":2561,"raph":2562,"Packet":2563,"Ġtab":2564,"ern":2565,"ĠERROR":2566,"Tag":2567,"...":2568,"errno":2569,"utton":2570,"ten":2571,"float":2572,"sz":2573,"++]":2574,"ily":2575,"msr":2576,"vas":2577,"Extent":2578,"Table":2579,"xt":2580,"ĠTI":2581,"Level":2582,"rcu":2583,"ĠGFP":2584,"iff":2585,"Ġbyte":2586,"Ġsocket":2587,"ES":2588,"ĠĠĠĠĠĠĠĠĠĠĠĠĠĠĠĠĠĠĠĠĠĠĠĠĠĠ":2589,"Ġcreate":2590,"ai":2591,"Open":2592,"tty":2593,"Ġfound":2594,"ailable":2595,"TAG":2596,"ĠPR":2597,"ĠWriteBlob":2598,"Ġssize":2599,"*>(":2600,"PECT":2601,"CHAN":2602,"skip":2603,"WARNING":2604,"SSAGE":2605,"COL":2606,"Init":2607,"As":2608,"loop":2609,"Ġelement":2610,"Be":2611,"rection":2612,"eeded":2613,"WRITE":2614,"we":2615,"writ":2616,"CALL":2617,"EFAULT":2618,"VERSION":2619,"Ġupdate":2620,"browser":2621,"BITS":2622,"vl":2623,"util":2624,"SUPPORT":2625,"ulate":2626,"wd":2627,"Ġwhen":2628,"Ġresource":2629,"HTML":2630,"ttp":2631,"my":2632,"ENABLE":2633,"ĠFILE":2634,"over":2635,"ĠASSERT":2636,"Ġdoes":2637,"UINT":2638,"Ġ12":2639,"Ġmap":2640,"timeout":2641,"FORMAT":2642,"printk":2643,"ansport":2644,"Ġover":2645,"Ġmay":2646,"Ġ10":2647,"sd":2648,"bounds":2649,"ART":2650,"phar":2651,"Did":2652,"null":2653,"bind":2654,"TRUE":2655,"Default":2656,"Compos":2657,"ancel":2658,"Ret":2659,"pgs":2660,"ĠUn":2661,"atomic":2662,"PEG":2663,"way":2664,"alc":2665,"Ġtag":2666,"Ġbl":2667,"Ġspec":2668,"Screen":2669,"SIG":2670,"unner":2671,"argin":2672,"run":2673,"ĉĉĉĉĠĠĠ":2674,"__,":2675,"slot":2676,"MESSAGE":2677,"ĠFor":2678,"Ġ->":2679,"--;":2680,"55":2681,"rics":2682,"Interface":2683,"AUT":2684,"query":2685,"Desc":2686,"spe":2687,"Ġalready":2688,"tiff":2689,"Ġtemp":2690,"MIN":2691,"Ġssl":2692,"ession":2693,"Position":2694,"uri":2695,"ped":2696,"delay":2697,"video":2698,"cope":2699,"Ġthere":2700,"ription":2701,"ĠGURL":2702,"lib":2703,"proxy":2704,"Err":2705,"Ġfunction":2706,"inst":2707,"ACK":2708,"ĠFA":2709,"Exec":2710,"plic":2711,"internal":2712,"acity":2713,"Sp":2714,"ctrl":2715,"interface":2716,"ĠPro":2717,"Filter":2718,"Changed":2719,"resh":2720,"VALUE":2721,"dma":2722,"Ġreply":2723,"can":2724,"Ġskip":2725,"Ġrow":2726,"NET":2727,"den":2728,"ĠĠĠĠĠĠĠĠĠĠĠĠĠĠĠĠĠĠĠĠĠĠĠĠĠĠĠĠĠ":2729,"04":2730,"ĠTest":2731,"Control":2732,"MENT":2733,"Sy":2734,"iction":2735,"nfs":2736,"Can":2737,"assert":2738,"ward":2739,"bd":2740,"Sign":2741,"ating":2742,"Ġconfig":2743,"signature":2744,"memset":2745,"Decoder":2746,"Proxy":2747,"LES":2748,"ibutes":2749,"ings":2750,"Ġauto":2751,"RAY":2752,"PTR":2753,"inet":2754,"pert":2755,"cept":2756,"Reader":2757,"ĠCh":2758,"ADDR":2759,"rior":2760,"Ġbefore":2761,"CONST":2762,"resol":2763,"prefix":2764,"iterator":2765,"ITY":2766,"each":2767,"Ġlock":2768,"Parse":2769,"CTP":2770,"Ġinline":2771,"15":2772,"Ġfind":2773,"uster":2774,"Ġcol":2775,"fail":2776,"PAGE":2777,"chr":2778,"Ġobj":2779,"BLOCK":2780,"frm":2781,"ĠERR":2782,"Boolean":2783,"Ġthen":2784,"Ġwhich":2785,"LOC":2786,"Ġdocument":2787,"TION":2788,"MagickEvent":2789,"riptor":2790,"WA":2791,"exp":2792,"flush":2793,"Fe":2794,"Ġbrowser":2795,"WebContents":2796,"Var":2797,"Short":2798,"JS":2799,"global":2800,"ĠFrame":2801,"protocol":2802,"UND":2803,"HDR":2804,"pipe":2805,"stop":2806,"ENSSL":2807,"PL":2808,"tm":2809,"ĠST":2810,"Print":2811,"Ġpr":2812,"DEV":2813,"Fact":2814,"refe":2815,"COMP":2816,"Ġ(%":2817,"ĠTIFF":2818,"ference":2819,"Security":2820,"phy":2821,"ĠIPC":2822,"Selection":2823,"eneric":2824,"Ġparser":2825,"scroll":2826,"Class":2827,"Ġmng":2828,"limit":2829,"REAM":2830,"Ġother":2831,"irectory":2832,"ustom":2833,"ĠCheck":2834,"system":2835,"Native":2836,"ressed":2837,"Ġdouble":2838,"Last":2839,"Ġinitial":2840,"Foc":2841,"Ġnon":2842,"ĠĠĠĠĠĠĠĠĠĠĠĠĠĠĠĠĠĠĠĠĠĠĠĠĠĠĠĠ":2843,"ifs":2844,"Ġfd":2845,"Ġversion":2846,"tg":2847,"ĠMAX":2848,"PROTO":2849,"Ġbo":2850,"HostImpl":2851,"Ġopen":2852,"KERNEL":2853,"FE":2854,"gd":2855,"RACE":2856,"ASSERT":2857,"UD":2858,"ince":2859,"mult":2860,"cd":2861,"Ġmatch":2862,"Red":2863,"fmt":2864,"invalid":2865,"Ġgroup":2866,"Ġidx":2867,"lookup":2868,"perties":2869,"Del":2870,"ĠEXT":2871,"upt":2872,"ialog":2873,"ice":2874,"lected":2875,"entity":2876,"Ġimp":2877,"Delegate":2878,"Main":2879,"Ġmake":2880,"Coder":2881,"ĠLogMagickEvent":2882,"ater":2883,"ueue":2884,"settings":2885,"ived":2886,"coded":2887,"Ġretval":2888,"colormap":2889,"VICE":2890,"RB":2891,"ĠGF":2892,"ĠDocument":2893,"RC":2894,"arning":2895,"rv":2896,"DEF":2897,"Ġshort":2898,"witches":2899,"Internal":2900,"Ġtotal":2901,"ARD":2902,"cause":2903,"BY":2904,"ĠLay":2905,"Ġtcp":2906,"uting":2907,"bus":2908,"draw":2909,"Ġ*(":2910,"ĠVM":2911,"Conn":2912,"dbg":2913,"Ġseg":2914,"PG":2915,"cre":2916,"make":2917,"ANT":2918,"Ġbound":2919,"Prog":2920,"owner":2921,"Ġsend":2922,"ĠHTML":2923,"zip":2924,"All":2925,"reference":2926,"RT":2927,"Ġref":2928,"Ad":2929,"Ġgd":2930,"ĠMS":2931,"just":2932,"access":2933,"ĠExtension":2934,"Change":2935,"hand":2936,"ĠRE":2937,"igno":2938,"Response":2939,"blocks":2940,"meta":2941,"AC":2942,"segment":2943,"serial":2944,"Flags":2945,"IV":2946,"real":2947,"initial":2948,"hci":2949,"Ġ(&":2950,"TestObject":2951,"ĠCONFIG":2952,"fh":2953,"Ġused":2954,"Queue":2955,"les":2956,"esture":2957,"ĠAR":2958,"module":2959,"Ġpart":2960,"Ġkrb":2961,"Settings":2962,"rix":2963,"hs":2964,"display":2965,"urb":2966,"ĠĠĠĠĠĠĠĠĠĠĠĠĠĠĠĠĠĠĠĠĠĠĠĠĠĠĠĠĠĠ":2967,"insert":2968,"sid":2969,"DEFAULT":2970,"AG":2971,"cg":2972,"cookie":2973,"bi":2974,"very":2975,"FT":2976,"HO":2977,"values":2978,"sctp":2979,"ĠĠĠĠĠĠĠĠĠĠĠĠĠĠĠĠĠĠĠĠĠĠĠĠĠĠĠĠĠĠĠĠĠĠĠ":2980,"Ġlocal":2981,"OFF":2982,"now":2983,"BE":2984,"complete":2985,"GTH":2986,"Ġexit":2987,"REACH":2988,"alled":2989,"LONG":2990,")\",":2991,"oper":2992,"Parser":2993,"TIF":2994,"aded":2995,"tls":2996,"verr":2997,"expected":2998,"ĠTRACE":2999,"01":3000,"istory":3001,"quantum":3002,"sist":3003,"MagickFalse":3004,"Ġload":3005,"cquire":3006,"poc":3007,"Det":3008,"unknown":3009,"ĠAdd":3010,"tt":3011,"LENGTH":3012,"Bound":3013,"bio":3014,"Draw":3015,"report":3016,"keys":3017,"pin":3018,"LocaleCompare":3019,"Ag":3020,"xdr":3021,"XPath":3022,"LOW":3023,"spl":3024,"blue":3025,"reser":3026,"PATH":3027,"PORT":3028,"function":3029,"Ġiter":3030,"nested":3031,"ceived":3032,"GetPixel":3033,"Ġresponse":3034,"align":3035,"Ġauth":3036,"Ġbits":3037,"MD":3038,"Ġafter":3039,"green":3040,"Ġgl":3041,"TRY":3042,"pk":3043,"errupt":3044,"LLOC":3045,"zero":3046,"pte":3047,"ĠPH":3048,"ĠCUR":3049,"SAMP":3050,"mf":3051,"drv":3052,"Ġpending":3053,"Ġbecause":3054,"DC":3055,"ENO":3056,"ĠCHECK":3057,"rep":3058,"Ġsample":3059,"Obj":3060,"fact":3061,"board":3062,"Isolate":3063,"strn":3064,"ging":3065,"cket":3066,"Ver":3067,"QU":3068,"Ġlayer":3069,"Acce":3070,"Net":3071,"ble":3072,"ĠCo":3073,"scan":3074,"storage":3075,"CHIVE":3076,"REE":3077,"Action":3078,"Active":3079,"blob":3080,"riority":3081,"\"),":3082,"loader":3083,"UNK":3084,"pgsql":3085,"PACK":3086,"found":3087,"ernel":3088,"driver":3089,"rapper":3090,"ha":3091,"Ġjust":3092,"aracter":3093,"enu":3094,"Ġinet":3095,"IM":3096,"ĠEXPECT":3097,"Ġperf":3098,"man":3099,"connection":3100,"FRAME":3101,"LOAD":3102,"Auto":3103,"Ġinvalid":3104,"jom":3105,"BUF":3106,"Hel":3107,"};":3108,"ise":3109,"ĠĠĠĠĠĠĠĠĠĠĠĠĠĠĠĠĠĠĠĠĠĠĠĠĠĠĠĠĠĠĠĠĠĠ":3110,"Ġpass":3111,"Ġorigin":3112,"Output":3113,"SD":3114,"(-":3115,"Ġmb":3116,"Ġhash":3117,"gid":3118,"BAD":3119,"icon":3120,"Ġmemset":3121,"Ġmemcpy":3122,"ĠResource":3123,"Ġ,":3124,"Ġar":3125,"iph":3126,"Ġsync":3127,"RGB":3128,"Ġrange":3129,"ADD":3130,"CLA":3131,"Ġpriv":3132,"LIENT":3133,"Post":3134,"pdf":3135,"API":3136,"ĠOK":3137,"Root":3138,"ĉĉĉĠĠ":3139,"PUT":3140,"Ġbtrfs":3141,"\\\"%":3142,"lic":3143,"imum":3144,"SSION":3145,"PK":3146,"DIR":3147,"auto":3148,"domain":3149,"notify":3150,"Over":3151,"NODE":3152,"Ġoptions":3153,"only":3154,"qp":3155,"right":3156,"Core":3157,"maining":3158,"SHA":3159,"Download":3160,"Form":3161,"CTX":3162,"apture":3163,"navigation":3164,"VIDE":3165,"fill":3166,"asoc":3167,"dict":3168,"self":3169,"Target":3170,"mag":3171,"Ġscoped":3172,"WIN":3173,"NS":3174,"resp":3175,"ected":3176,"oom":3177,"parameters":3178,"dig":3179,"pv":3180,"Ġavio":3181,"SERVER":3182,"Ġdir":3183,"ched":3184,"ISTER":3185,"cat":3186,"LOCAL":3187,"mapping":3188,"delta":3189,"QL":3190,"Session":3191,"Ġparse":3192,"mpt":3193,"REGISTER":3194,"tptr":3195,"insn":3196,"Ġblink":3197,"ĠNO":3198,"ĠTCP":3199,"ev":3200,"rcv":3201,"RES":3202,"fam":3203,"mc":3204,"RED":3205,"Ġmp":3206,"model":3207,"chro":3208,"Logical":3209,"clude":3210,"aved":3211,"ĠPAGE":3212,"Ġprint":3213,"ware":3214,"Ġ},":3215,"Ġag":3216,"Dispatch":3217,"Ġwork":3218,"ToQuantum":3219,"Bl":3220,"ĉĉĠĠĠĠĠĠ":3221,"imary":3222,"NC":3223,"Ġfi":3224,"guest":3225,"curr":3226,"family":3227,"UNT":3228,"ĠCreate":3229,"Mask":3230,"ii":3231,"ERNAL":3232,"Ġsnd":3233,"property":3234,"LINE":3235,"CPU":3236,"Ġtry":3237,"ĠSetPixel":3238,"supported":3239,"utdown":3240,"safe":3241,"let":3242,")),":3243,"TRAN":3244,"IGN":3245,"pad":3246,"body":3247,"Parameter":3248,"xf":3249,"label":3250,"DEVICE":3251,"LER":3252,"need":3253,"ls":3254,"entifier":3255,"CIP":3256,"quired":3257,"ictionary":3258,"Agent":3259,"factory":3260,"Ġne":3261,"compression":3262,"Null":3263,"font":3264,"Storage":3265,".\\":3266,"Debug":3267,"enderer":3268,"commit":3269,"ĠBPF":3270,"CONFIG":3271,"System":3272,"Ġitem":3273,"ĠNOT":3274,"Col":3275,"crypto":3276,"strm":3277,"Token":3278,"Ġthan":3279,"walk":3280,"ĉĉĉĠĠĠĠĠĠ":3281,"delegate":3282,"ReadBlob":3283,"CAST":3284,"ceive":3285,"VIDEO":3286,"CHAR":3287,"Ed":3288,"avctx":3289,"REQUEST":3290,"rd":3291,"Display":3292,"OBJECT":3293,"Ġ'%":3294,"decoder":3295,"Model":3296,"):":3297,"urnal":3298,"Getter":3299,"<<":3300,"Ġarray":3301,"layout":3302,"ĠSc":3303,"ead":3304,"mux":3305,"Ġvirt":3306,"wr":3307,"recv":3308,"HostMsg":3309,"Ġinst":3310,"setup":3311,"Ġvar":3312,"ottom":3313,"untime":3314,"clone":3315,"SN":3316,"ids":3317,"ipv":3318,"If":3319,"STREAM":3320,"Min":3321,"hel":3322,"Loop":3323,"Send":3324,"record":3325,"Provider":3326,"Access":3327,"Copy":3328,"sure":3329,"ĠĠĠĠĠĠĠĠĠĠĠĠĠĠĠĠĠĠĠĠĠĠĠĠĠĠĠĠĠĠĠĠĠ":3330,"08":3331,"colors":3332,"START":3333,"tails":3334,"Ġinto":3335,"ĠTr":3336,"rp":3337,"CHE":3338,"Texture":3339,"Clear":3340,"Ġmedia":3341,"disk":3342,"channels":3343,"lx":3344,"sha":3345,"Ġ--":3346,"ĠĠĠĠĠĠĠĠĠĠĠĠĠĠĠĠĠĠĠĠĠĠĠĠĠĠĠĠĠĠĠĠĠĠĠĠĠĠĠ":3347,"Close":3348,"ĠMB":3349,"UInt":3350,"Register":3351,"56":3352,"){":3353,"gf":3354,"tract":3355,"Authentic":3356,"Ġyy":3357,"controller":3358,"tsk":3359,"ormal":3360,"oft":3361,"events":3362,"RL":3363,"XML":3364,"Ġdel":3365,"SUPPORTED":3366,"Ġfl":3367,"Ġbin":3368,"irt":3369,"np":3370,"ORY":3371,"strip":3372,"Ġinit":3373,"LAB":3374,"metadata":3375,"Iter":3376,"aster":3377,"disable":3378,"common":3379,"gen":3380,"hedule":3381,"Ġsockaddr":3382,"Helper":3383,"Ġdepth":3384,"('":3385,"lin":3386,"Vector":3387,"Ġfrag":3388,"Ġact":3389,".\");":3390,"enter":3391,"Alpha":3392,"sibility":3393,"Ġdesc":3394,"Audio":3395,"pair":3396,"ALL":3397,"Ġmore":3398,"show":3399,"Ġservice":3400,"headers":3401,"CHANGE":3402,"Ġcleanup":3403,"sched":3404,"tfm":3405,"rpc":3406,"cons":3407,"Left":3408,"ination":3409,"TRACT":3410,"pend":3411,"96":3412,"uper":3413,"non":3414,"hid":3415,"full":3416,"ient":3417,"perf":3418,"Ġsome":3419,"*(":3420,"area":3421,"sin":3422,"section":3423,"names":3424,"OID":3425,"Ġprog":3426,"Ġsa":3427,"BL":3428,"dn":3429,"Ġphp":3430,"pred":3431,"ces":3432,"Ġlink":3433,"Ġconnection":3434,"CoderEvent":3435,"Work":3436,"ĉĉĉĉĠ":3437,"adding":3438,"ĉĉĉĉĠĠ":3439,"IA":3440,"MAL":3441,"HEADER":3442,"dt":3443,"ling":3444,"DEX":3445,"ĉĉĉĠ":3446,"80":3447,"ias":3448,"Remove":3449,"OPT":3450,"Ġfloat":3451,"LAY":3452,"CONNE":3453,"24":3454,"widget":3455,"payload":3456,"Ġleft":3457,"HAS":3458,"ĠUp":3459,"Buf":3460,"Ġput":3461,"Bitmap":3462,"ssh":3463,"unch":3464,"Priv":3465,"sf":3466,"Ġmod":3467,"BrowserThread":3468,"IX":3469,"Tools":3470,"Url":3471,"vol":3472,"ĠIV":3473,"unning":3474,"RD":3475,"DU":3476,"mul":3477,"LINK":3478,"ĠIN":3479,"images":3480,"Record":3481,"USER":3482,"Space":3483,"AVE":3484,"BASE":3485,"ĠFAILURE":3486,"pop":3487,"Query":3488,"Ġsn":3489,"restore":3490,"Initial":3491,"pmu":3492,"AUTH":3493,"known":3494,"mv":3495,"plugin":3496,"Ġtrack":3497,"ĉĠĠĠĠ":3498,"orru":3499,"ments":3500,"Ġthread":3501,"Ġspace":3502,"prot":3503,"krb":3504,"pointer":3505,"]=":3506,"adow":3507,"Ġwait":3508,"CallbackInfo":3509,"ways":3510,"FL":3511,"CLIENT":3512,"HANDLER":3513,"BACK":3514,"PHP":3515,"sive":3516,"ĠSCTP":3517,"iated":3518,"Commit":3519,"XX":3520,"vTools":3521,"apic":3522,"Switch":3523,"band":3524,"TEST":3525,"features":3526,"Ġzero":3527,"Float":3528,"pts":3529,"INTERNAL":3530,"ĠIS":3531,"Ġgs":3532,"Ġtoo":3533,"Channels":3534,"orld":3535,"Pop":3536,"cursor":3537,"verify":3538,"dl":3539,"reams":3540,"Ġ9":3541,"Ġnr":3542,"SEC":3543,"ARY":3544,"snd":3545,"Ġsupport":3546,"Ġgo":3547,"Factory":3548,"ĠRenderFrame":3549,"cleanup":3550,"nb":3551,"foc":3552,"wner":3553,"ZEND":3554,"()))":3555,"Ġdentry":3556,"sect":3557,"CONT":3558,"encode":3559,"the":3560,"elin":3561,"Show":3562,"CHROM":3563,"transform":3564,"Renderer":3565,"Pass":3566,"fname":3567,"Ġvma":3568,"ĠUpdate":3569,"');":3570,"uments":3571,"dirty":3572,"present":3573,"INTER":3574,"IB":3575,"MagickMemory":3576,"quish":3577,"ĠND":3578,"Trace":3579,"pen":3580,"ĉĉĉĠĠĠĠ":3581,"alt":3582,"ĠGLES":3583,"rough":3584,"Ġexpected":3585,"geometry":3586,"Network":3587,"utof":3588,"files":3589,"Ġ^":3590,"factor":3591,"GLE":3592,"CTL":3593,"Font":3594,"GRO":3595,"hing":3596,"elinquish":3597,"KERN":3598,"Ġgf":3599,"cms":3600,"ĠxmlChar":3601,"ĉĉĠ":3602,"ĠĠĠĠĠĠĠĠĠĠĠĠĠĠĠĠĠĠĠĠĠĠĠĠĠĠĠĠĠĠĠĠĠĠĠĠĠ":3603,"fil":3604,"chain":3605,"Ġtrace":3606,"bitstrm":3607,"_[":3608,"step":3609,"Ġwant":3610,"sw":3611,"ĉĠĠĠĠĠ":3612,"ities":3613,"Ġbeen":3614,"struction":3615,"verride":3616,"Ġssh":3617,"ĠNot":3618,"ane":3619,"renderer":3620,"TX":3621,"Top":3622,"Ġseq":3623,"anges":3624,"MagickTrue":3625,"ĉĉĠĠ":3626,"Ġextent":3627,"ĠLayout":3628,"ĠLOG":3629,"ITH":3630,"Tra":3631,"Ġobserver":3632,"Ġev":3633,"avail":3634,"Ġcp":3635,"orrupt":3636,"First":3637,"Ġour":3638,"Ġrt":3639,"ower":3640,"COLOR":3641,"Ġspl":3642,"EDTLS":3643,"MSB":3644,"Scheme":3645,"gp":3646,"xslt":3647,"extra":3648,"virt":3649,"ARGS":3650,"Pending":3651,"eometry":3652,"aunch":3653,")\\":3654,"va":3655,"Ġfe":3656,"pare":3657,"with":3658,"Surface":3659,"ndef":3660,"Ġsince":3661,"Ġfprintf":3662,"mplate":3663,"HTTP":3664,"ĉĠĠ":3665,"SMB":3666,"search":3667,"kit":3668,"mojom":3669,"ĠEVP":3670,"dh":3671,"ĠĠĠĠĠĠĠĠĠĠĠĠĠĠĠĠĠĠĠĠĠĠĠĠĠĠĠĠĠĠĠĠĠĠĠĠ":3672,"clip":3673,"Signature":3674,"side":3675,"Alloc":3676,"Ġvcpu":3677,"ization":3678,"leaf":3679,"ĠOPENSSL":3680,"transport":3681,"ĠSend":3682,"ule":3683,"vp":3684,"ffff":3685,"Ġsm":3686,"sistent":3687,"istog":3688,"sem":3689,"shift":3690,"Ġ{}":3691,"iod":3692,"[]":3693,"ĠSk":3694,"Ġsame":3695,"Ġallow":3696,"Transform":3697,"GP":3698,"GetIsolate":3699,"SYS":3700,"kNo":3701,"inal":3702,"chan":3703,"define":3704,"iform":3705,"dx":3706,"Ġ(((":3707,"ĠBT":3708,"ingle":3709,"EVP":3710,"Ġ**)":3711,"sic":3712,"stride":3713,"pix":3714,"TL":3715,"tains":3716,"HERE":3717,"Button":3718,"Capture":3719,"Ġsure":3720,"Ġhdr":3721,"EXIT":3722,"xFF":3723,"tore":3724,"ĠPTR":3725,"Virt":3726,"Ġ};":3727,"ĠAl":3728,"keep":3729,"icks":3730,"--------------------------------":3731,"encoding":3732,"Inte":3733,"WebView":3734,"Ġstyle":3735,"Ġpixels":3736,"impl":3737,"lector":3738,"CACHE":3739,"ĠALOG":3740,"saddr":3741,"Ġtp":3742,"Ġtop":3743,"GetString":3744,"ĠIs":3745,"utom":3746,"pub":3747,"lem":3748,"Ġflag":3749,"ignore":3750,"Ġdelegate":3751,"PARSE":3752,"()),":3753,"imitive":3754,"amma":3755,"ioctl":3756,"aff":3757,"ĠTab":3758,"Ġexec":3759,"Sk":3760,"INDEX":3761,"CRY":3762,"TCP":3763,"Bits":3764,"Ġcontrol":3765,"Ġstop":3766,"netdev":3767,"Ġhton":3768,"ĠFile":3769,"sps":3770,"Ġrv":3771,"Ġ24":3772,"unnel":3773,"lex":3774,"Ġfilter":3775,"Ġ!(":3776,"Kit":3777,"Server":3778,"(%":3779,"arge":3780,"apped":3781,"BIN":3782,"progress":3783,"Ġqueue":3784,"OPER":3785,"big":3786,"ian":3787,"vision":3788,"icture":3789,"Us":3790,"ens":3791,"Unit":3792,"apter":3793,"PNG":3794,"Dir":3795,"Ġfilename":3796,"delete":3797,"rdev":3798,"APP":3799,"points":3800,"60":3801,"written":3802,"Limit":3803,"da":3804,"fb":3805,"ENC":3806,"BYTE":3807,"SIGN":3808,"Version":3809,"Ġbitmap":3810,"apdu":3811,"Ġmm":3812,"Ġvmcs":3813,"Progress":3814,"security":3815,"ĠGLint":3816,"Options":3817,"neg":3818,"AF":3819,"remote":3820,"INET":3821,"buffers":3822,"less":3823,"gine":3824,"ric":3825,"til":3826,"MAG":3827,"Visible":3828,"JSON":3829,"audio":3830,"ĠException":3831,"ĉĉĠĠĠĠ":3832,"ĠSO":3833,"ĠGLenum":3834,"psf":3835,"VAR":3836,"seek":3837,"irm":3838,"MIT":3839,"pdev":3840,"ged":3841,"frames":3842,"mrb":3843,"eth":3844,"Ġbad":3845,"Ġexist":3846,"here":3847,"__);":3848,"Ġdi":3849,"istogram":3850,"ifndef":3851,"Delete":3852,"Enable":3853,"Ġhttp":3854,"orrect":3855,"Ġblk":3856,"Ġcert":3857,"256":3858,"ARG":3859,"gc":3860,"async":3861,"utf":3862,"prop":3863,"sequence":3864,"resolution":3865,"ilder":3866,"TING":3867,"opts":3868,"hl":3869,"rel":3870,"Ġsz":3871,"RAM":3872,"Ġmrb":3873,"gfx":3874,"ĠĠĠĠĠĠĠĠĠĠĠĠĠĠĠĠĠĠĠĠĠĠĠĠĠĠĠĠĠĠĠĠĠĠĠĠĠĠ":3875,"formation":3876,"-+-+-+-+":3877,"component":3878,"Ġzend":3879,"imp":3880,"She":3881,"Ġprev":3882,"Ġcap":3883,"cgroup":3884,"term":3885,"journal":3886,"cle":3887,"pret":3888,"should":3889,"sector":3890,"magick":3891,"post":3892,"EG":3893,"ota":3894,"ĉĉĉĉĠĠĠĠ":3895,"ency":3896,"OD":3897,"[\"":3898,"peration":3899,"SW":3900,"rqst":3901,"CONNECT":3902,"utofill":3903,"background":3904,"LIB":3905,"FC":3906,"Ġchange":3907,"apd":3908,"CURL":3909,"REACHED":3910,"ĠWebContents":3911,"13":3912,"andom":3913,"Reply":3914,"Paint":3915,"Src":3916,"Ġmain":3917,"Ġgr":3918,"ĠKVM":3919,"ĠY":3920,"Mouse":3921,"ĠHTTP":3922,"od":3923,"refer":3924,"LIC":3925,"fetch":3926,"Ġdecode":3927,"Ġprotocol":3928,"Ġpid":3929,"Ġactive":3930,"istry":3931,"uge":3932,"CONSTANT":3933,"REF":3934,"NEW":3935,"Ġloop":3936,"AIN":3937,"pattern":3938,"ĠRelinquish":3939,"mtu":3940,"ioc":3941,"short":3942,"Codec":3943,"********************************":3944,"uc":3945,"DBG":3946,"Ġmd":3947,"IOC":3948,"ates":3949,"pect":3950,"Ġdelete":3951,"ARRAY":3952,"Shared":3953,"paint":3954,"minor":3955,"100":3956,"COUNT":3957,"Focus":3958,"CIPHER":3959,"Ġdelta":3960,"Bar":3961,"XT":3962,"region":3963,"ĠUSB":3964,"ished":3965,"Ġvalues":3966,"mov":3967,"ĠRenderView":3968,"jas":3969,"go":3970,"angle":3971,"cogn":3972,"primary":3973,"Ġmat":3974,"icmp":3975,"disp":3976,"ĠSetImage":3977,"Ġclear":3978,"Ġclose":3979,"Dialog":3980,"Fetch":3981,"wake":3982,"BOX":3983,"Bounds":3984,"routing":3985,"orig":3986,"Chrome":3987,"We":3988,"Ġdid":3989,"Ġtoken":3990,"Proto":3991,"Ġsuccess":3992,"encrypt":3993,"Ġtx":3994,"Ġmark":3995,"MER":3996,"DestroyImage":3997,"mon":3998,"RAW":3999,"ered":4000,"su":4001,"SETTING":4002,"era":4003,"Ġrun":4004,"refptr":4005,"mplet":4006,"sole":4007,"mid":4008,"failed":4009,"attribute":4010,"ACT":4011,"NOWN":4012,"TRANS":4013,"apping":4014,"surface":4015,"IFT":4016,"hint":4017,"mplement":4018,"directory":4019,"rs":4020,"Ġjs":4021,"dispatch":4022,"network":4023,"Com":4024,"Ġsig":4025,"REC":4026,"BooleanType":4027,"boolean":4028,"Return":4029,"Holder":4030,"Ġli":4031,"ĉĉĉĠĠĠĠĠ":4032,"Ġlimit":4033,"Ġofp":4034,"USED":4035,"mbs":4036,"BN":4037,"timestamp":4038,"'re":4039,"force":4040,"CF":4041,"Find":4042,"iming":4043,"ĠDo":4044,"DOWN":4045,"Ġmult":4046,"SUB":4047,"sizei":4048,"hout":4049,"rule":4050,"FREE":4051,"OPEN":4052,"reason":4053,"udo":4054,"ava":4055,"Tex":4056,"Ġtree":4057,"daddr":4058,"Ġrect":4059,"Ġallocate":4060,"Ġagain":4061,"Feature":4062,"Names":4063,"descriptor":4064,"iting":4065,"URCE":4066,"Ġscale":4067,"izer":4068,"Virtual":4069,"URI":4070,"intern":4071,"FAILURE":4072,"Connection":4073,"rw":4074,"seudo":4075,"Ġreset":4076,"DATE":4077,"ĠDis":4078,"ĠĠĠĠĠĠĠĠĠĠĠĠĠĠĠĠĠĠĠĠĠĠĠĠĠĠĠĠĠĠĠĠĠĠĠĠĠĠĠĠĠĠĠ":4079,"Ġ*)&":4080,"Generic":4081,"ReaderException":4082,"Ġcms":4083,"med":4084,"ifest":4085,"Ġsave":4086,"Location":4087,"PKEY":4088,"ENTRY":4089,"acing":4090,"comps":4091,"atalen":4092,"MEMORY":4093,"jpeg":4094,"unit":4095,"nodes":4096,"This":4097,"Ġusing":4098,")[":4099,"Ġsl":4100,"FLAGS":4101,"SOURCE":4102,"Ġff":4103,"docref":4104,"eff":4105,"iable":4106,"UNKNOWN":4107,"PS":4108,"ront":4109,"oth":4110,"compat":4111,"Ġsettings":4112,"bad":4113,"loaded":4114,"Ġsupported":4115,"Append":4116,"Ġdisplay":4117,"attrs":4118,"ocket":4119,"memcmp":4120,"Rec":4121,"Ġright":4122,"ĠMBEDTLS":4123,"SHIFT":4124,"\"]":4125,"Ġ#":4126,"img":4127,"ĠSe":4128,"Ġprevious":4129,"ILED":4130,"ĉĠĠĠĠĠĠ":4131,"Ġprot":4132,"Ġtexture":4133,"xfs":4134,"enerate":4135,"missions":4136,"ĠFormat":4137,")*":4138,"reshold":4139,"vb":4140,"Integer":4141,"gb":4142,"allow":4143,"RENT":4144,"Rendering":4145,"vance":4146,"eer":4147,"runner":4148,"swap":4149,"inish":4150,"CLASS":4151,"compress":4152,"Ġcurr":4153,"edge":4154,"prefs":4155,"Worker":4156,"ĠTO":4157,"Private":4158,"Ġsmb":4159,"Ġ64":4160,"Ġchrome":4161,"ached":4162,"Store":4163,"VALID":4164,"drop":4165,"any":4166,"Ġslot":4167,"Ġexp":4168,"ough":4169,"verbo":4170,"Ġaccess":4171,"Buffers":4172,"FUNC":4173,"ond":4174,"strdup":4175,"MUL":4176,"Ġgen":4177,"Ġprefix":4178,"Ġarchive":4179,"Ġnla":4180,"Ġmethod":4181,"ster":4182,"ĠReadBlob":4183,"rsp":4184,"title":4185,"ĠNo":4186,"Ġ(;":4187,"roid":4188,"EA":4189,"Ġcould":4190,"ĠMSG":4191,"Ġinternal":4192,"FMT":4193,"Part":4194,"fid":4195,"abs":4196,"GEN":4197,"ba":4198,"OPY":4199,"Iterator":4200,"att":4201,"intf":4202,"issing":4203,"counter":4204,"Right":4205,"container":4206,"Ġdirectory":4207,"Reset":4208,"types":4209,"ĠIDS":4210,"select":4211,"lots":4212,"::~":4213,"Ġmag":4214,"Ġcred":4215,"shm":4216,"Ġargv":4217,"Configuration":4218,"Ġentries":4219,"Ġep":4220,"samples":4221,"Gr":4222,"efree":4223,"ĉĊ":4224,"did":4225,"Colorspace":4226,"MAC":4227,"password":4228,"ene":4229,"lig":4230,"sdb":4231,"Ġih":4232,"SV":4233,"Ġfont":4234,"FD":4235,"imation":4236,"usage":4237,"ommon":4238,"Runner":4239,"Ġcannot":4240,"Ġms":4241,"Loading":4242,"'))":4243,"RM":4244,"Ġextra":4245,"None":4246,"ĠText":4247,"Mod":4248,"Ġapp":4249,"keyword":4250,"cy":4251,"pdu":4252,"Ġdecoder":4253,"Ġjsv":4254,"CARD":4255,"Should":4256,"spector":4257,"pd":4258,"wo":4259,"selection":4260,"Ġ%\"":4261,"orith":4262,"html":4263,"EXEC":4264,"sax":4265,"ĠTestObject":4266,"CTRL":4267,"mpletion":4268,"ONLY":4269,"sel":4270,"024":4271,"poll":4272,"Ctx":4273,"Ġrpc":4274,"Ġsegment":4275,"clock":4276,"she":4277,"route":4278,"Ġstack":4279,"]))":4280,"STD":4281,"Notification":4282,"river":4283,"ĠĠĠĠĠĠĠĠĠĠĠĠĠĠĠĠĠĠĠĠĠĠĠĠĠĠĠĠĠĠĠĠĠĠĠĠĠĠĠĠĠ":4284,"Cursor":4285,"Ġjob":4286,"Ġenum":4287,"ELD":4288,"rcmf":4289,"128":4290,"unregister":4291,"Ġwrit":4292,"shot":4293,"Ġimpl":4294,"ĉĉĉĉĠĠĠĠĠ":4295,"oriz":4296,"icity":4297,"Ġempty":4298,"ĠĠĠĠĠĠĠĠĠĠĠĠĠĠĠĠĠĠĠĠĠĠĠĠĠĠĠĠĠĠĠĠĠĠĠĠĠĠĠĠĠĠ":4299,"Setter":4300,"Ġcontents":4301,"amera":4302,"iate":4303,"Ġreference":4304,"Group":4305,"tu":4306,"Ġbr":4307,"EW":4308,"Ġnavigation":4309,"gno":4310,"dat":4311,"Ġplugin":4312,"Call":4313,"PM":4314,"Ġpdf":4315,"isual":4316,"Ġenc":4317,"interrupt":4318,"vq":4319,"Ġcom":4320,"strlen":4321,"VEL":4322,"NOR":4323,"ained":4324,"Resol":4325,"STATS":4326,"Ġnto":4327,"Acquire":4328,"sext":4329,"Throw":4330,"1000":4331,"wc":4332,"ithout":4333,"Ġreport":4334,"lower":4335,"Ġfull":4336,"ATAL":4337,"LSB":4338,"Ġpolicy":4339,"strict":4340,"ipc":4341,"shared":4342,"ĠMagickBooleanType":4343,"iation":4344,"OPJ":4345,"Platform":4346,"Stop":4347,"ASN":4348,"SETTINGS":4349,"Parent":4350,"ject":4351,"have":4352,"ATURE":4353,"Bytes":4354,"Bin":4355,"demux":4356,"ĠCopy":4357,"FIC":4358,",-":4359,"GLError":4360,"Player":4361,"td":4362,"verbose":4363,"03":4364,"Strip":4365,"YPE":4366,"nid":4367,"wn":4368,"Inst":4369,"ASE":4370,"master":4371,"andbox":4372,"Ġxdr":4373,"Use":4374,"strncmp":4375,"cancel":4376,"opa":4377,"verse":4378,"compressed":4379,"ĠMSR":4380,"88":4381,"tlsext":4382,"Execution":4383,"ĠApp":4384,"cifs":4385,"CLO":4386,"ctb":4387,"Ġswap":4388,"ĠRelinquishMagickMemory":4389,"ited":4390,"Ġ*)(":4391,"AuthenticPixels":4392,"streams":4393,"FAIL":4394,"ĠComp":4395,"Ġcontainer":4396,"prec":4397,"Before":4398,"LAN":4399,"smp":4400,"chor":4401,"RenderFrame":4402,"Delta":4403,"glyph":4404,"Ġraw":4405,"Background":4406,"LD":4407,"Bad":4408,"Ġrecord":4409,"smart":4410,"high":4411,"Mat":4412,"wise":4413,"Ġsearch":4414,"Ġpp":4415,"endian":4416,"olume":4417,"FAILED":4418,"Allocation":4419,"HOST":4420,"INC":4421,"late":4422,"kNoError":4423,"LEVEL":4424,"WidgetHost":4425,"(_":4426,">::":4427,"fix":4428,"Ġfs":4429,"light":4430,"26":4431,"NOTI":4432,"Ġenable":4433,"ĠNavigation":4434,"Ġacce":4435,"Unknown":4436,"WAIT":4437,"ĠNFS":4438,"casecmp":4439,"switches":4440,"CORE":4441,"World":4442,"Decode":4443,"Ġipv":4444,"helper":4445,"utomation":4446,"ALIGN":4447,"mddev":4448,"ands":4449,"FROM":4450,"duration":4451,"previous":4452,"Gesture":4453,"ove":4454,"allowed":4455,"elf":4456,"description":4457,"NFS":4458,"ZVAL":4459,"chrome":4460,"Ġhead":4461,"ĠSU":4462,"upp":4463,"mpleted":4464,"raphics":4465,"AX":4466,"Ġent":4467,"Ġnetwork":4468,"ificate":4469,"DING":4470,"FIELD":4471,"ĠGLuint":4472,"Metrics":4473,"Push":4474,"FATAL":4475,"button":4476,"namespace":4477,"Ġenabled":4478,"Ġxfs":4479,"umn":4480,"items":4481,"Framebuffer":4482,"Wrapper":4483,"Ġ*,":4484,"40":4485,"Doc":4486,"Ġĉ":4487,"DEC":4488,"Bund":4489,"INE":4490,"opaque":4491,"Ġpointer":4492,"air":4493,"Ġbounds":4494,"ne":4495,"Ġpages":4496,"CD":4497,"wq":4498,"ĠBN":4499,"wb":4500,"ĉĉĉĉĠĠĠĠĠĠ":4501,"errors":4502,"TCHECK":4503,"mime":4504,"Ġsee":4505,"ible":4506,"Ġalpha":4507,"TextExtent":4508,"Corrupt":4509,"[(":4510,"Ġavailable":4511,"eger":4512,"Effect":4513,"ĠPar":4514,"lp":4515,"Custom":4516,"js":4517,"edtls":4518,"BT":4519,"gss":4520,"Ġbpf":4521,"Ġphar":4522,"HASH":4523,"mail":4524,"Double":4525,"igger":4526,"smb":4527,"Vert":4528,"changed":4529,"okmark":4530,"dic":4531,"FORM":4532,"ĠNOTREACHED":4533,"Ġpkt":4534,"ĠAF":4535,"ĠUWORD":4536,"cached":4537,"Encoding":4538,"GROUP":4539,"btrfs":4540,"irc":4541,"GO":4542,"Hash":4543,"Ġcalled":4544,"transfer":4545,"Full":4546,"ther":4547,"Ġits":4548,"parms":4549,"Ġcompat":4550,"EIO":4551,"syn":4552,"Ġca":4553,"AttributeAttribute":4554,"DecoderImpl":4555,"Site":4556,"compos":4557,"txn":4558,"reserve":4559,"YS":4560,"Ġvirtual":4561,"Ġcre":4562,"OPTION":4563,"Ġdoesn":4564,"remaining":4565,"ced":4566,"ĠEn":4567,"cluster":4568,"Ġorder":4569,"Ġtg":4570,"six":4571,"Ġhapp":4572,"Undefined":4573,"Ġlocation":4574,"Ġ\\\"%":4575,"UDIO":4576,"details":4577,"ĠAVERROR":4578,"finish":4579,"plication":4580,"Clip":4581,"Match":4582,"ĠĠĠĠĠĠĠĠĠĠĠĠĠĠĠĠĠĠĠĠĠĠĠĠĠĠĠĠĠĠĠĠĠĠĠĠĠĠĠĠ":4583,"EP":4584,"provider":4585,"FunctionCallbackInfo":4586,"crc":4587,"Ġmalloc":4588,"PACKET":4589,"ni":4590,"idge":4591,"FIX":4592,"ither":4593,"mgr":4594,"bn":4595,"Ġprintf":4596,"bucket":4597,"serv":4598,"UNUSED":4599,"PathExtent":4600,"ĉĉĠĠĠĠĠ":4601,"Ġreal":4602,"Def":4603,"orizont":4604,"(\"\\":4605,"observer":4606,"TEXTURE":4607,"SetImage":4608,"feature":4609,"Ġscript":4610,"ĠFLA":4611,"Ġattribute":4612,"ALI":4613,"'\",":4614,"ful":4615,"Ġtimeout":4616,"ĠSOCK":4617,"18":4618,"sess":4619,"Ġtile":4620,"rott":4621,"rerror":4622,"lend":4623,"Ġho":4624,"ĠChrome":4625,"Menu":4626,"Off":4627,"Ġ...":4628,"direction":4629,"ĠĠĠĠĊ":4630,"ĠPl":4631,"properties":4632,"Ġscroll":4633,"Ġinstance":4634,"Ġresol":4635,"ONT":4636,"pw":4637,"ASCI":4638,"ermin":4639,"Ġaction":4640,"Ġinsn":4641,"ĠPO":4642,"ImageError":4643,"Dispatcher":4644,"MaxTextExtent":4645,"Link":4646,"Fill":4647,"Sa":4648,"isom":4649,"Bool":4650,"Util":4651,"shake":4652,"logging":4653,"Ġvmx":4654,">>":4655,"tunnel":4656,"attributes":4657,"kernel":4658,"etoot":4659,"Ġthem":4660,"Ġglyph":4661,"rend":4662,"ofs":4663,"Ġ256":4664,"Ġinterface":4665,"etooth":4666,"LING":4667,"Ġmodule":4668,"Ġlogical":4669,"roke":4670,"Ġac":4671,"Chunk":4672,"colorspace":4673,"losed":4674,"icc":4675,"ĠPG":4676,"ĠTODO":4677,"Ġremove":4678,"Ġva":4679,"Container":4680,"tlv":4681,"ĠALOGV":4682,"Rout":4683,"UID":4684,"://":4685,"iso":4686,"30":4687,"RSA":4688,"ToString":4689,"orizontal":4690,"Ġmount":4691,"Ġpipe":4692,"ied":4693,"pmd":4694,"Ġglobal":4695,"ferrer":4696,"LETE":4697,"Ġ'/":4698,"Meta":4699,"Dictionary":4700,"ĠMO":4701,"Component":4702,"stor":4703,"ĠPixel":4704,"IPV":4705,"ĠxmlXPath":4706,"matrix":4707,"hp":4708,"gpu":4709,"DevTools":4710,"Address":4711,"download":4712,"ĠFormatLocale":4713,"ALLOC":4714,"maticity":4715,"plicit":4716,"cent":4717,"ĠNote":4718,"argc":4719,"ĠInput":4720,"fast":4721,"Ġ255":4722,"ROW":4723,"IUM":4724,"SPE":4725,"mer":4726,"SLT":4727,"eee":4728,"orithm":4729,"EB":4730,"Ġdif":4731,"ĠARCHIVE":4732,"Mult":4733,"gra":4734,"OFFSET":4735,"scope":4736,"uage":4737,"Ġmac":4738,"bufs":4739,"anguage":4740,"chron":4741,"Weak":4742,"19":4743,"Ġcookie":4744,"Ġenv":4745,"andard":4746,"elements":4747,"qlite":4748,"lers":4749,"Need":4750,"uard":4751,"Ġproc":4752,"Fl":4753,"pkey":4754,"Ġstat":4755,"RECT":4756,"moved":4757,"FIN":4758,"]));":4759,"aper":4760,"GetInstance":4761,"Ġallowed":4762,"udev":4763,"REP":4764,"ĠTo":4765,"nc":4766,"FilePath":4767,"ape":4768,"Imp":4769,"margin":4770,"Ġpayload":4771,"CTOR":4772,"ĠGLsizei":4773,"mmap":4774,"priority":4775,"ĠFROM":4776,"Blue":4777,"warn":4778,"ank":4779,"ĠJS":4780,"sprintf":4781,"Act":4782,"warning":4783,"LocalFrame":4784,"unmap":4785,"Features":4786,"Ġpad":4787,"CHROMIUM":4788,"Ġreason":4789,"Attrib":4790,"snprintf":4791,"ĠCONST":4792,"DISABLE":4793,"uted":4794,"URLRequest":4795,"TF":4796,"Ġdump":4797,"pict":4798,"pSMB":4799,"ĠEXTRACT":4800,"LEMENT":4801,"Py":4802,"raphic":4803,"TS":4804,"svm":4805,"tick":4806,"Scope":4807,"cfs":4808,"MagickPathExtent":4809,"','":4810,"ĠCPU":4811,"pps":4812,"ĉĉĉĉĉĠĠĠ":4813,"Ġ\");":4814,"Rate":4815,"cli":4816,"apshot":4817,"throw":4818,"acc":4819,"Ġcb":4820,"istance":4821,"ĠWORD":4822,"Ġyet":4823,"GUEST":4824,"ross":4825,"Ġdec":4826,"Wh":4827,"replace":4828,"incip":4829,"HIST":4830,"Save":4831,"Ġ&(":4832,"TIMER":4833,"SHORT":4834,"Ġmbedtls":4835,"ential":4836,"rrp":4837,"caps":4838,"SOCK":4839,"ether":4840,"adb":4841,"ĉĉĉĉĉĉĉĉ":4842,"BLE":4843,"DataSource":4844,"ĠWebGL":4845,"saved":4846,"Ġneeded":4847,"OPERATION":4848,"Flag":4849,"Ġknow":4850,"GIN":4851,"ZER":4852,"emon":4853,"interpret":4854,"Ġ15":4855,"ĠSH":4856,"GetImage":4857,"leep":4858,"Ġwr":4859,"aux":4860,"Ġ\"\",":4861,"After":4862,"Ġ{\"":4863,"Preview":4864,"WITH":4865,"Ġmight":4866,"thon":4867,"logical":4868,"json":4869,"Ġwo":4870,"ĠUse":4871,"DP":4872,"emplate":4873,"ura":4874,"Ġstill":4875,"ĠError":4876,"interval":4877,"egin":4878,"xp":4879,"CONN":4880,")+":4881,"Socket":4882,"Ġswitches":4883,"Ġbet":4884,"tvb":4885,"ech":4886,"ARCHIVE":4887,"Lookup":4888,"shutdown":4889,"Iu":4890,"ĠPrint":4891,"PIX":4892,"ĠImageInfo":4893,"win":4894,"CorruptImageError":4895,"Python":4896,"Date":4897,"Ġsign":4898,"magic":4899,"xc":4900,"agent":4901,"--)":4902,"ĠFO":4903,"iple":4904,"ĠAP":4905,"BIG":4906,"accept":4907,"DED":4908,"MAND":4909,"Ġiov":4910,"Ġfol":4911,"Ġalways":4912,"MM":4913,"ous":4914,"Ent":4915,"PASS":4916,"DRV":4917,"Ġtty":4918,"ular":4919,"reach":4920,"Ġthrough":4921,"incipal":4922,"Ġrq":4923,"Di":4924,"before":4925,"InList":4926,"Report":4927,".\",":4928,"Green":4929,"ATOM":4930,"illed":4931,"Ġcc":4932,"Disable":4933,"Fixed":4934,"Ġassoc":4935,"Notify":4936,"Descriptor":4937,"Validate":4938,"Ar":4939,"ctype":4940,"Mark":4941,"Tcp":4942,"ilities":4943,"redirect":4944,"++);":4945,"Edit":4946,"Directory":4947,"Ġhandler":4948,"CESS":4949,"palet":4950,"ResourceLimit":4951,"digest":4952,"Flow":4953,"mpi":4954,"Ġ\"/":4955,"Compression":4956,"PRESSION":4957,"\"%":4958,"lace":4959,"Uniform":4960,"Ġvideo":4961,"ĠPHP":4962,"Ġreser":4963,"extensions":4964,"havi":4965,"ually":4966,"Ġavoid":4967,"NEXT":4968,"jor":4969,"Ġdescript":4970,"Ġform":4971,"Complete":4972,"convert":4973,"emu":4974,"ĠSN":4975,"ĉĉĉĉĉĠ":4976,"RenderView":4977,"OGRAM":4978,"ĠTLS":4979,"Coord":4980,"ĠInt":4981,"expi":4982,"Ġapi":4983,"SPA":4984,"iffi":4985,"ImageInList":4986,"Ġdescriptor":4987,"fz":4988,"ĠINT":4989,"Ġsignal":4990,"MAR":4991,"UX":4992,"RESS":4993,"Ġapr":4994,"Ġposition":4995,"Ġns":4996,"Gpu":4997,"gamma":4998,"tries":4999,"Ġcr":5000,"ISOM":5001,"fields":5002,"Ġargc":5003,"Ali":5004,"bottom":5005,"siz":5006,"INTR":5007,"SecurityPolicy":5008,"LLOW":5009,"Ġwould":5010,"peat":5011,"chromaticity":5012,"perm":5013,"iffies":5014,"edit":5015,"pci":5016,"MemoryAllocation":5017,"locked":5018,"chroma":5019,"Ġfill":5020,"Ġproxy":5021,"MF":5022,"Ġpk":5023,"Ġdp":5024,"='":5025,"ANCE":5026,"lap":5027,"URCC":5028,"isitor":5029,"Ġ100":5030,"Ġsection":5031,"ĠZEND":5032,"Spl":5033,"TK":5034,"effect":5035,"ga":5036,"ino":5037,"oring":5038,"pose":5039,"MPEG":5040,"ĠCOM":5041,"mpling":5042,"luetooth":5043,"Ġxslt":5044,"ense":5045,"ifp":5046,"ITION":5047,"sas":5048,"vo":5049,"Ġpeer":5050,"Ġes":5051,"mmu":5052,"Ġnetdev":5053,"ACCESS":5054,"HANDLE":5055,"aybe":5056,"Ġtrunc":5057,"iocb":5058,"Http":5059,"diff":5060,"fixed":5061,"ose":5062,"coeff":5063,"Ġstuff":5064,"zalloc":5065,"retry":5066,"sis":5067,"idden":5068,"oi":5069,"++,":5070,"reader":5071,"ENABLED":5072,"focused":5073,"ĠVIR":5074,"lc":5075,"mx":5076,"OffsetType":5077,"Ġignore":5078,"Ġdestination":5079,"pri":5080,"Ġpg":5081,"36":5082,"COPY":5083,"ENSION":5084,"Ġec":5085,"Touch":5086,"Ġsys":5087,"ended":5088,"Ġblob":5089,"ĠĠĠĠĠĠĠĠĠĠĠĠĠĠĠĠĠĠĠĠĠĠĠĠĠĠĠĠĠĠĠĠĠĠĠĠĠĠĠĠĠĠĠĠ":5090,"Row":5091,"Ġcommit":5092,"avigate":5093,"PortIndex":5094,"WeakPtr":5095,"dian":5096,"weight":5097,"Ġaudio":5098,"opcode":5099,"SED":5100,"VIEW":5101,"Unable":5102,"huge":5103,"Ġ();":5104,"ATED":5105,"zone":5106,"receive":5107,"LEX":5108,"MEDI":5109,"Ġquantum":5110,"operands":5111,"palette":5112,"MemoryAllocationFailed":5113,"ĠConvert":5114,"pContext":5115,"Ġdelay":5116,"[%":5117,"leted":5118,"DS":5119,"NORMAL":5120,"uler":5121,"Ġsecurity":5122,"44":5123,"Ign":5124,"partition":5125,"build":5126,"FILL":5127,"ĠSSLerr":5128,"NP":5129,"elem":5130,"ceed":5131,"blink":5132,"SAMPLING":5133,"(__":5134,"vers":5135,"CERT":5136,"Spec":5137,"BR":5138,"Ġerrno":5139,"Global":5140,"Ġdrop":5141,"SELE":5142,"Ġcore":5143,")-":5144,"UST":5145,"Ġwithout":5146,"holder":5147,"Ġcontroller":5148,"metrics":5149,"AMETER":5150,"Pref":5151,"Ph":5152,"ĠIt":5153,"Ġsecond":5154,"ugg":5155,"Drag":5156,"Ġabout":5157,"}}":5158,"Ġ{{":5159,"scheme":5160,"Ġrequested":5161,"ĠFormatLocaleString":5162,"ves":5163,"ĠTT":5164,"Ap":5165,"CRE":5166,"equal":5167,"erase":5168,"structor":5169,"GetNext":5170,"PARAMETER":5171,"Blink":5172,"TAB":5173,"activ":5174,"arc":5175,"covery":5176,"ĠMake":5177,"Needs":5178,"\",\"":5179,"Reason":5180,"ImageInfo":5181,"xmlXPath":5182,"notifier":5183,"dtor":5184,"SPACE":5185,".\";":5186,"Ġjas":5187,"tomic":5188,"Java":5189,"Ġpresent":5190,"Ġregs":5191,"CRYPT":5192,"ste":5193,"Ġ(-":5194,"icast":5195,"SEQ":5196,"SAMPLE":5197,"Ġthey":5198,"Ġrenderer":5199,"fragment":5200,"available":5201,"Acceler":5202,"Cmd":5203,"Listener":5204,"IFY":5205,"FEATURE":5206,"ĠHAVE":5207,"Ġalso":5208,"consume":5209,"Ġfeature":5210,"77":5211,"Ġuid":5212,"FFFF":5213,"Tmp":5214,"bb":5215,"Ġ\"-":5216,"imapd":5217,"share":5218,"IsEmpty":5219,"IDC":5220,"csum":5221,"PTO":5222,"ASK":5223,"tok":5224,"Ġdet":5225,"jpc":5226,"tc":5227,"ĠSync":5228,"Unique":5229,"ansparent":5230,"Ġface":5231,"CharToQuantum":5232,"success":5233,"JPEG":5234,"'):":5235,"split":5236,"tcon":5237,"dbus":5238,"Ġoriginal":5239,"RenderingContext":5240,"/%":5241,"running":5242,"super":5243,"Ġsent":5244,"chip":5245,"until":5246,"site":5247,"primitive":5248,"Move":5249,"ĠContext":5250,"Popup":5251,"hex":5252,"exus":5253,"uma":5254,"cmpt":5255,"Insert":5256,"ALG":5257,"ĠFOR":5258,"ĉĉĉĉĉĠĠ":5259,"aracters":5260,"Ġ}}}":5261,"ĠASN":5262,"ILD":5263,"Ġneeds":5264,"Ġsd":5265,"Ġsqlite":5266,"exist":5267,"Ġfiles":5268,"Ġping":5269,"ability":5270,"ĠInitial":5271,"alculate":5272,"Focused":5273,"Ġconf":5274,"Ġlater":5275,"Will":5276,"Endian":5277,"GENER":5278,"Ġ{{{":5279,"PEND":5280,"Ġpix":5281,"itional":5282,"svc":5283,"Ġviews":5284,"attach":5285,"retained":5286,"visible":5287,"RX":5288,"Ġfuse":5289,"valu":5290,"Properties":5291,"Ġbegin":5292,"Ġsec":5293,"groups":5294,"Begin":5295,"ĠQuantum":5296,"paque":5297,"CONTR":5298,"Ġparameters":5299,"bg":5300,"HISTOGRAM":5301,"alias":5302,"grp":5303,"Ticks":5304,"ISH":5305,"ivd":5306,"MATCH":5307,"PROCESS":5308,"IBU":5309,"Ġstrdup":5310,"Counter":5311,"SCR":5312,"!=":5313,")((":5314,"Pr":5315,"Ġhand":5316,"PRIV":5317,"ored":5318,"Stack":5319,"Non":5320,"sTo":5321,"Ġpop":5322,"GetDocument":5323,"period":5324,"HasSwitch":5325,"Ġlayout":5326,"Picture":5327,"inline":5328,"Ġsb":5329,"isolate":5330,"conv":5331,"CacheView":5332,"ĠNET":5333,"Req":5334,"ĠCR":5335,"ĠCSS":5336,"ĠMedia":5337,"Exp":5338,"Ġoverflow":5339,"ier":5340,"Ġeach":5341,"children":5342,"mbol":5343,"Ġprogram":5344,"UWORD":5345,"Ġenough":5346,"ANGE":5347,"Ġquery":5348,"MediaPlayer":5349,"Ġfollow":5350,"ĠNP":5351,"COMMAND":5352,"restrict":5353,"Ġ20":5354,"Ġjpeg":5355,"Ġpossible":5356,"Ġshow":5357,"Ġbtif":5358,"upd":5359,"AGAIN":5360,"nf":5361,"PERM":5362,"Ġpol":5363,"abort":5364,"ĠGST":5365,"Ext":5366,"Unretained":5367,"Ġencoding":5368,"Ġshift":5369,"HELLO":5370,"POINT":5371,"sVar":5372,"tb":5373,"soft":5374,"ĠSo":5375,"ails":5376,"PostTask":5377,"ire":5378,"Ġgtk":5379,"Parameters":5380,"Make":5381,"Ġrequired":5382,"final":5383,"MULTI":5384,"ResourceLimitError":5385,"vrrp":5386,"Ġvir":5387,"ĠSUCCESS":5388,"PDF":5389,"METH":5390,"Ġcomponent":5391,"CODEC":5392,"IfN":5393,"WidgetHostView":5394,"ident":5395,"Ġlin":5396,"keyring":5397,"TRFS":5398,"ĠOFP":5399,"_));":5400,"ĠRT":5401,"Ġhel":5402,"mediate":5403,"ĠWebContentsImpl":5404,"Cr":5405,"Ġkeep":5406,"ites":5407,"Received":5408,"ryption":5409,"ProcessHost":5410,"install":5411,"ĠProfile":5412,"Ġalg":5413,"Icon":5414,"scsi":5415,"Metadata":5416,"OGE":5417,"hr":5418,"sent":5419,"Ġstep":5420,"ĠGET":5421,"Ġself":5422,"ETH":5423,"objects":5424,"NON":5425,"Ġrelease":5426,"AUDIO":5427,"Only":5428,"ASCII":5429,"Ġ14":5430,"Ġzip":5431,"seconds":5432,"ĠEOF":5433,"Ġalign":5434,"props":5435,"Ġsched":5436,"Wait":5437,"ĠURL":5438,"Ġ\"<":5439,"Ġowner":5440,"Ġ){":5441,"Ġscan":5442,"Domain":5443,"transaction":5444,"Region":5445,"NI":5446,"Ġbp":5447,"ummy":5448,"abilities":5449,"Ġextensions":5450,"parsed":5451,"Elements":5452,"Overflow":5453,"git":5454,"sockopt":5455,"stuff":5456,"ewk":5457,"program":5458,"VideoCapture":5459,"Ġtimer":5460,"ĠNL":5461,"DH":5462,"datalen":5463,"Ġdownload":5464,"ĠWebKit":5465,"Ġtsk":5466,"trunc":5467,"COND":5468,"visional":5469,"NL":5470,"Ġcorrect":5471,"ipher":5472,"Ġsnprintf":5473,"rev":5474,"Fatal":5475,"icsk":5476,"CSS":5477,"YK":5478,"Warning":5479,"tun":5480,"Ġcs":5481,"Ġdraw":5482,"ĠAX":5483,"Ġkernel":5484,"iteral":5485,"ĠSIG":5486,"SIST":5487,"EOF":5488,"was":5489,"Ġinformation":5490,")/":5491,"Ġselection":5492,"Job":5493,"CURRENT":5494,"ScaleCharToQuantum":5495,"34":5496,"57":5497,"The":5498,"attrib":5499,"HW":5500,"none":5501,"MED":5502,"Ġwhat":5503,"org":5504,"Ġfa":5505,"TIFFTAG":5506,"Ġdict":5507,"thing":5508,"ĠAcquire":5509,"ium":5510,"Ġchanged":5511,"ators":5512,"Description":5513,"Ġbox":5514,"reserved":5515,"Direction":5516,"EK":5517,"Ġpool":5518,"Ġlook":5519,"rgb":5520,"Ġok":5521,"Release":5522,"Ġmov":5523,"Ġsafe":5524,"ardware":5525,"Ġpt":5526,"SEXT":5527,"framebuffer":5528,"snmp":5529,"Ġblocks":5530,"Title":5531,"Win":5532,"dm":5533,"ferent":5534,"OptionError":5535,"Temp":5536,"dep":5537,"integer":5538,"Ġpc":5539,"ĠPER":5540,"Ġadjust":5541,"9660":5542,"Cre":5543,"Margin":5544,"ernal":5545,"Ġ%.":5546,"FIL":5547,"worker":5548,"az":5549,"needed":5550,"umask":5551,"PARSER":5552,"MainFrame":5553,"initialized":5554,"ĠView":5555,"Ġdebug":5556,"Func":5557,"Now":5558,"Timer":5559,"layers":5560,"RP":5561,"Ġgot":5562,"ĠBTIF":5563,"OPENSSL":5564,"ĠRef":5565,"Ġlookup":5566,"Ġstore":5567,"TOK":5568,"vdev":5569,"utt":5570,"Ġnfsd":5571,"bdev":5572,"intr":5573,"Ġfoc":5574,"ĠReg":5575,"DOW":5576,"Ġclass":5577,"ACL":5578,"tid":5579,"Ġstructure":5580,"Ġcompression":5581,"atio":5582,"ĠexceptionState":5583,"RESP":5584,"ROUND":5585,"irqrestore":5586,"Enum":5587,"sta":5588,"ĠPage":5589,"Ġshared":5590,"Ġmail":5591,"ENUM":5592,"LEAN":5593,"Ġnever":5594,"selected":5595,"Frames":5596,"handlers":5597,"BPF":5598,"Cancel":5599,"extr":5600,"Ġconvert":5601,"GenericError":5602,"Ġass":5603,"RESOURCE":5604,"Cell":5605,"PRINTF":5606,"Keyboard":5607,"after":5608,"havior":5609,"CMP":5610,"Ġallocated":5611,"overflow":5612,"Ġct":5613,"Ġnotify":5614,"Quick":5615,"Play":5616,"schedule":5617,"ĠLoc":5618,"LIMIT":5619,"Allow":5620,"BrowserContext":5621,"canvas":5622,"Ġunknown":5623,"Ġcard":5624,"Ġhf":5625,"tsc":5626,"heap":5627,"DROID":5628,"Scrollbar":5629,"QUE":5630,"QuantumTo":5631,"commands":5632,"METHOD":5633,"assed":5634,"LOB":5635,"parameter":5636,"Initialize":5637,"pfn":5638,"tlen":5639,"SYNC":5640,"ĠThrowReaderException":5641,"ENOENT":5642,"cra":5643,"rot":5644,"listen":5645,"pact":5646,"disc":5647,"ks":5648,"ti":5649,"Ġcifs":5650,"Ġlabel":5651,"bt":5652,"Ġwhere":5653,"ssn":5654,"Character":5655,"EEK":5656,"Ġpassword":5657,"rqstp":5658,"History":5659,"Any":5660,"ĠIVD":5661,"px":5662,"uring":5663,"username":5664,"Ġsetup":5665,"Pool":5666,"icode":5667,"Ġrec":5668,"ĠIO":5669,"UMENT":5670,"crement":5671,"stateid":5672,"ĠReset":5673,"Ġspecified":5674,"PKT":5675,"tomicString":5676,"Owner":5677,"kdc":5678,"Ġ`":5679,"Ġrb":5680,"BG":5681,"rad":5682,"phdr":5683,"Ġ~(":5684,"ĠFOURCC":5685,"Equal":5686,"hc":5687,"arm":5688,"COMM":5689,"Ġoptlen":5690,"lb":5691,"INPUT":5692,"nla":5693,"FULL":5694,"Setting":5695,"Engine":5696,"Select":5697,"Ġbody":5698,"ĠExceptionState":5699,"Ġnb":5700,"SESSION":5701,"Export":5702,"FER":5703,"Ġfunc":5704,"EXCHANGE":5705,"magn":5706,"LIT":5707,"uuid":5708,"FICATION":5709,"ycle":5710,"GA":5711,"hf":5712,"idle":5713,"GetFrame":5714,"ĠFind":5715,"Canvas":5716,"STACK":5717,"sack":5718,"asas":5719,"validate":5720,"ĠOpen":5721,"mr":5722,"boot":5723,"Ġproperty":5724,"Pattern":5725,"VS":5726,"Entries":5727,"INITI":5728,"slots":5729,"isEmpty":5730,"Ġvol":5731,"tempt":5732,"xattr":5733,"Ġtvb":5734,"sun":5735,"forward":5736,"Ġparameter":5737,"ĠScript":5738,"Ġhappen":5739,"vlan":5740,";)":5741,"Ġasoc":5742,"Ġwebkit":5743,"Password":5744,"Ġcrm":5745,"cessary":5746,"views":5747,"referred":5748,"ĠSEEK":5749,"slave":5750,"ICK":5751,"Ġssn":5752,"LOPT":5753,"cape":5754,"comment":5755,"WINDOW":5756,"&&":5757,"Compositor":5758,"MSR":5759,"PENDING":5760,"gray":5761,"losing":5762,"UNI":5763,"THREAD":5764,"17":5765,"okies":5766,"CONF":5767,"round":5768,"endor":5769,"Ġring":5770,"ĠĠĠĠĠĠĠĠĠĠĠĠĠĠĠĠĠĠĠĠĠĠĠĠĠĠĠĠĠĠĠĠĠĠĠĠĠĠĠĠĠĠĠĠĠ":5771,"BUS":5772,"Ġeven":5773,"ExceptionInfo":5774,"CONTIN":5775,"Bundle":5776,"Operation":5777,"ĠLOCAL":5778,"actual":5779,"Delay":5780,"Frag":5781,"ĠĠĠĠĠĠĠĠĠĠĠĠĠĠĠĠĠĠĠĠĠĠĠĠĠĠĠĠĠĠĠĠĠĠĠĠĠĠĠĠĠĠĠĠĠĠ":5782,"ATOMIC":5783,"Down":5784,"PD":5785,"lim":5786,"encil":5787,"OME":5788,"ĠBIT":5789,"Dict":5790,"IGH":5791,"BIO":5792,"Geometry":5793,"hub":5794,"Ġbuflen":5795,"DCHECK":5796,"ua":5797,"opacity":5798,"IPC":5799,"Area":5800,"Finish":5801,"vif":5802,"endpoint":5803,"Prefs":5804,"Histogram":5805,"Ro":5806,"Ġsu":5807,"ĠCl":5808,"Ġscreen":5809,"\"][":5810,"Ġunder":5811,"alet":5812,"CONTEXT":5813,"DEFINE":5814,"coord":5815,"Ġdirect":5816,"Ġtransform":5817,"ĠKRB":5818,"XMP":5819,"rsa":5820,"hevc":5821,"Ġexc":5822,"Viewport":5823,"][\"":5824,"aa":5825,"itive":5826,"STOP":5827,"ĠVCPU":5828,"CODING":5829,"REGS":5830,"Bindings":5831,"gre":5832,"Ġbio":5833,"22":5834,"Cap":5835,"anon":5836,"Ġflow":5837,"istics":5838,"Proc":5839,"StringTo":5840,"ness":5841,"clp":5842,"sym":5843,"Ġfields":5844,"II":5845,"ternal":5846,"Sequence":5847,"cessed":5848,"Zoom":5849,"ulated":5850,"FACE":5851,"gdImage":5852,"YY":5853,"runtime":5854,"Ġpadding":5855,"ANY":5856,"Usage":5857,"Ġib":5858,"Ġgeometry":5859,"cla":5860,"Ġmodel":5861,"mg":5862,"iler":5863,"LAST":5864,"Ġstride":5865,"TIMEOUT":5866,"MIME":5867,"SEND":5868,"decrypt":5869,"Once":5870,"Ġheaders":5871,"ued":5872,"Ġdoc":5873,"ĠIndex":5874,"Ġfragment":5875,"Ctxt":5876,"Entity":5877,"Fail":5878,"HEV":5879,"adjust":5880,"ĠUSE":5881,">\\":5882,"Ġpu":5883,"adapter":5884,"ĠStream":5885,"aligned":5886,"WID":5887,"Ġtwo":5888,"Ġdc":5889,"mpler":5890,"000000":5891,"join":5892,"Activ":5893,"Ġ*=":5894,"intra":5895,"Ġreplace":5896,"yg":5897,"ĠBU":5898,"IndexParam":5899,"Ġhandled":5900,"CONTROL":5901,"Ġfinal":5902,"CommandLine":5903,"FILTER":5904,"EOS":5905,"tbl":5906,"MEDIA":5907,"history":5908,"STest":5909,"locate":5910,"plan":5911,"quant":5912,"TaskRunner":5913,"rottle":5914,"vir":5915,"FileSystem":5916,"Ġ(__":5917,"Ġdriver":5918,"ILL":5919,"anifest":5920,"DEP":5921,"ĠALOGE":5922,"Details":5923,"ACTIVE":5924,"tw":5925,"Ġuntil":5926,"Ġinsert":5927,"Ġxfrm":5928,"crypted":5929,"import":5930,"LT":5931,"bf":5932,"selector":5933,"uspend":5934,"Protocol":5935,"GC":5936,"Ġorig":5937,"Ġ11":5938,"Ġattributes":5939,"failure":5940,"alette":5941,"ĠgdImage":5942,"atile":5943,"ĠĠĠĠĠĠĠĠĠĠĠĠĠĠĠĠĠĠĠĠĠĠĠĠĠĠĠĠĠĠĠĠĠĠĠĠĠĠĠĠĠĠĠĠĠĠĠ":5944,"Database":5945,"STRU":5946,"AMP":5947,"acy":5948,"Chn":5949,"ANDROID":5950,"blocksize":5951,"ĠSMP":5952,"ĠData":5953,"Ġxt":5954,"strings":5955,"Ġhtons":5956,"SISTENT":5957,"Ġ128":5958,"RUN":5959,"vsp":5960,"atency":5961,"ulator":5962,"Ġ1024":5963,"Launch":5964,"ĠFIX":5965,"Ġweak":5966,"ĉĉĉĉĉĠĠĠĠ":5967,"ORDER":5968,"Runtime":5969,"Ġrel":5970,"Ġiw":5971,"Seg":5972,"Acces":5973,"rontend":5974,"dered":5975,"ropp":5976,"Ġmy":5977,"(&(":5978,"Attach":5979,"Binary":5980,".%":5981,"SCTP":5982,"Ġremote":5983,"VERIFY":5984,"connected":5985,"Vertex":5986,"99":5987,"ynchron":5988,"Ġevents":5989,"33":5990,"ear":5991,"losure":5992,"AUTO":5993,"48":5994,"Gtk":5995,"TT":5996,"Ġdown":5997,"rier":5998,"acb":5999,"URLL":6000,"Real":6001,"ĠFS":6002,"UV":6003,"aead":6004,"refs":6005,"Ġsingle":6006,"psz":6007,"Ġdomain":6008,"WK":6009,"Ġbs":6010,"Replace":6011,"||":6012,"ĠHB":6013,"Ġsetting":6014,"checksum":6015,"egot":6016,"irr":6017,"Ġbeing":6018,"ETCH":6019,"SKB":6020,"picture":6021,"iator":6022,"Ġel":6023,"orary":6024,"BER":6025,"Fn":6026,"gasas":6027,"ĠTEE":6028,"ĠBAD":6029,"SUM":6030,"Ġcell":6031,"Ġprefs":6032,"gener":6033,"hi":6034,"revs":6035,"ĠNode":6036,"ĠSQL":6037,"Ġdetails":6038,"ĠUINT":6039,"ENODEV":6040,"bond":6041,"ĠXXX":6042,"etime":6043,"Resources":6044,"Ġabove":6045,"utable":6046,"ĠSee":6047,"07":6048,"MIS":6049,"mouse":6050,"Children":6051,"cx":6052,"guard":6053,"nbytes":6054,"ĠDE":6055,"Ġhw":6056,"EEE":6057,"references":6058,"abl":6059,"ĠIB":6060,"Forward":6061,"Pointer":6062,"Ġpaint":6063,"Ġnp":6064,"MAN":6065,"blocked":6066,"lines":6067,"virtual":6068,"ĠElement":6069,"discard":6070,"Template":6071,"rans":6072,"asn":6073,"ween":6074,"Factor":6075,"OW":6076,"devices":6077,"Shader":6078,"yyvsp":6079,"GetPixelChannels":6080,"gesture":6081,"lv":6082,"power":6083,"resize":6084,"ading":6085,"unix":6086,"ĠClose":6087,"ĠParse":6088,"ĠPixelPacket":6089,"EAGAIN":6090,"ifa":6091,"Ġcop":6092,"ĠDownload":6093,"ports":6094,"SetImageProgress":6095,"oser":6096,"mech":6097,"Ġmapping":6098,"ĠGSS":6099,"irqsave":6100,"Transfer":6101,"cf":6102,"unref":6103,"Ġcharacter":6104,"counters":6105,"EXTRACT":6106,"MagickOffsetType":6107,"ĠXFS":6108,"Ġreceived":6109,"verifier":6110,"InputEvent":6111,"Opacity":6112,"puts":6113,"EMUL":6114,"RefPtr":6115,"putil":6116,"principal":6117,"prepare":6118,"ScaleQuantumTo":6119,"ĠInitialize":6120,"Nr":6121,"role":6122,"BUSY":6123,"Av":6124,"Cannot":6125,"Ġhid":6126,"Ġcursor":6127,"secure":6128,"]),":6129,"inished":6130,"advance":6131,"Ġoper":6132,"drive":6133,"hole":6134,"ĠMP":6135,"TimeDelta":6136,"filp":6137,"threshold":6138,"spi":6139,"udit":6140,"Execute":6141,"RESULT":6142,"firm":6143,"LOAT":6144,"ROUT":6145,"Ġreturned":6146,"meth":6147,"ĠOPJ":6148,"Ġht":6149,"Could":6150,"Builder":6151,"Ġsuper":6152,"INS":6153,"ĠFilePath":6154,"Ġqemu":6155,"override":6156,"ASON":6157,"components":6158,"EST":6159,"Ns":6160,"Ġut":6161,"Ġcnt":6162,"anel":6163,"ofproto":6164,"Ġ'-":6165,"ĠBIO":6166,"DIRECT":6167,"Ġoffscreen":6168,"straint":6169,"TimeTicks":6170,"Arguments":6171,"35":6172,"xx":6173,"Ġlow":6174,"allocated":6175,"Ġerrors":6176,"Program":6177,"Ġlet":6178,"ISHED":6179,"ĠPERF":6180,"ygon":6181,"Rule":6182,"random":6183,"ONCE":6184,"vr":6185,"olute":6186,"Ġ((*":6187,"Ġdisabled":6188,"Samples":6189,"EMP":6190,"Wr":6191,"nn":6192,"Ġsvc":6193,"scene":6194,"RGBA":6195,"updater":6196,"URLLo":6197,"Ġlarge":6198,"ĠBGP":6199,"SetString":6200,"Ġbackground":6201,"AFNUM":6202,"Ok":6203,"ifo":6204,"Ġnormal":6205,"ARCH":6206,"Ġkzalloc":6207,"mlink":6208,"BOOL":6209,"Matrix":6210,"OLD":6211,"focus":6212,"ensor":6213,"Values":6214,"DONE":6215,"RST":6216,"Ġdig":6217,"ENCODING":6218,"fw":6219,"hdev":6220,"napi":6221,"paper":6222,"dout":6223,"DOMConfiguration":6224,"Sheet":6225,"Sig":6226,"onitor":6227,"Ġclip":6228,"identity":6229,"Reference":6230,"ĠHe":6231,"tot":6232,"Ġmargin":6233,"Ġdifferent":6234,"RenderingContextBase":6235,"CONTINUE":6236,"ĠFIXME":6237,"STO":6238,"toNative":6239,"Ġ':":6240,"ATTRIBU":6241,"TIFY":6242,"dns":6243,"mq":6244,"uv":6245,"Ġthese":6246,"ĠPer":6247,"PCM":6248,"ĠContent":6249,"Column":6250,"Ġflush":6251,"units":6252,"Ġsurface":6253,"based":6254,"SKIP":6255,"[-":6256,"ĠSF":6257,"uffix":6258,"handshake":6259,"segs":6260,"setting":6261,"ĠASC":6262,"Ġforce":6263,"Ġkmalloc":6264,"IGHT":6265,"ATTRIBUTE":6266,"SQL":6267,"]\",":6268,"fib":6269,"ceiver":6270,"Navigate":6271,"Printf":6272,"identifier":6273,"Ġactual":6274,"alert":6275,"Ġcommon":6276,"Ġfmt":6277,"Ġrx":6278,"mapped":6279,"callbacks":6280,"bridge":6281,"Scoped":6282,"Ġreinterpret":6283,"yych":6284,"-+-+-+-+-+-+-+-+":6285,"ICKCORE":6286,"200":6287,"aling":6288,"ofst":6289,"Ġsequence":6290,"Dump":6291,"EPERM":6292,"Supported":6293,"Ġcm":6294,"Ġfact":6295,"PED":6296,"Sec":6297,"inf":6298,"Ġmid":6299,"Ġgfp":6300,"locale":6301,"Install":6302,"cel":6303,"offsets":6304,"WEB":6305,"Ġwidget":6306,"ĠSI":6307,"LEG":6308,"sampling":6309,"SSLerr":6310,"CONTENT":6311,"ĠAudio":6312,"Ġvisitor":6313,"Ġeffect":6314,"Ġbind":6315,"Ġred":6316,"Ġhtonl":6317,"encoder":6318,"Ġbelow":6319,"255":6320,"PERSISTENT":6321,"ĠRefPtr":6322,"ĠKEY":6323,"recogn":6324,"dom":6325,"Ġretry":6326,"Ġbuff":6327,"ĠRemove":6328,"extract":6329,"Ġguint":6330,"TRIC":6331,"Selected":6332,"stant":6333,"Ġhint":6334,"ĠInvalid":6335,"rdp":6336,"completion":6337,"Ġinterrupt":6338,"Ġstorage":6339,"Ġ[%":6340,"Ġmetadata":6341,"ever":6342,"native":6343,"Console":6344,"chars":6345,"Ġstrcmp":6346,"Ġmove":6347,"ĠVMX":6348,"Ġboth":6349,"Ġatomic":6350,"monitor":6351,"Inline":6352,"ĠSE":6353,"FORMED":6354,"Ġsystem":6355,"ou":6356,"allen":6357,"Ġguest":6358,"Ġmeans":6359,"kv":6360,"WebGL":6361,"vertex":6362,"ĠLayer":6363,"arr":6364,"ĠCur":6365,"ĠMIN":6366,"Ġnothing":6367,"ENTITY":6368,"ĠUMA":6369,"ifiers":6370,"MOD":6371,"Volume":6372,"ĠREQUEST":6373,"Ġway":6374,"ĠSer":6375,"Ġrule":6376,"CHED":6377,"matte":6378,"PRES":6379,"sheet":6380,"emit":6381,"Ġii":6382,"scall":6383,"realm":6384,"Ġcontain":6385,"REASON":6386,"ubble":6387,"MAGE":6388,"note":6389,"Ġvariable":6390,"ĠTrans":6391,"URLLoader":6392,"21":6393,"Ġpte":6394,"Ġmis":6395,"ĠAt":6396,"InfoBar":6397,",\"%":6398,"RANGE":6399,"bmp":6400,"ename":6401,"Ġops":6402,"Ġvrend":6403,"MALFORMED":6404,"Ġfault":6405,"Role":6406,"!\\":6407,"StringInfo":6408,"shadow":6409,"preview":6410,"Ġremaining":6411,"Ġindic":6412,"ĠPDF":6413,"IsValid":6414,"ipe":6415,"lif":6416,"RESET":6417,"ĠAtomicString":6418,"Depth":6419,"lblk":6420,"otion":6421,"drm":6422,"Images":6423,"Ġgpu":6424,"Ġhold":6425,"packets":6426,"ĠWriteBlobMSB":6427,"Ġgiv":6428,"iphy":6429,"DISABLED":6430,"ĠHandle":6431,"Ġnamespace":6432,"Registry":6433,"mems":6434,"Ġfetch":6435,"assign":6436,"Redirect":6437,"Ġiv":6438,"Ġstrerror":6439,"Unsupported":6440,"Ġopcode":6441,"Animation":6442,"MAGIC":6443,"SING":6444,"Single":6445,"custom":6446,"rive":6447,"Allowed":6448,"ĠTG":6449,"IPT":6450,"QuantumMemory":6451,"needs":6452,"DestroyImageList":6453,"Ġaccept":6454,"RU":6455,"anch":6456,"Ġword":6457,"Ġwalk":6458,"fork":6459,"SIX":6460,"Trait":6461,"ĠREAD":6462,"Ġpname":6463,"elist":6464,"ĠDon":6465,"Ġstrchr":6466,"EXTENSION":6467,"Ġinstead":6468,"ĠWh":6469,"ĠBR":6470,"DMA":6471,"HAVE":6472,"Ġpo":6473,"ĠFF":6474,"Ġeither":6475,"LOOK":6476,"ĠSh":6477,"WebKit":6478,"vertical":6479,"Ġdup":6480,"\\\"\",":6481,"Ġtermin":6482,"Encode":6483,"viewport":6484,"Ġloader":6485,"ffffff":6486,"rout":6487,"ĠSSH":6488,"scr":6489,"buflen":6490,"linesize":6491,"dated":6492,"Ġsum":6493,"ĠNow":6494,"hostname":6495,"Argument":6496,"SOR":6497,"kill":6498,"Ġgss":6499,"cpar":6500,"ĠGetPixel":6501,"STRVAL":6502,"IE":6503,"Ġclean":6504,"submit":6505,"Permission":6506,"ih":6507,"Ġexplicit":6508,"grify":6509,"LICY":6510,"allenge":6511,"HIGH":6512,"Ġnbytes":6513,"argp":6514,"bers":6515,"idev":6516,"ForCurrent":6517,"Ġmeta":6518,"ĠLayoutUnit":6519,"SCO":6520,"TABLE":6521,"dprintk":6522,"ctr":6523,"Ġma":6524,"CommandEnabled":6525,"eh":6526,"mix":6527,"pref":6528,"GetField":6529,"Cached":6530,"IfNeeded":6531,"flo":6532,"igr":6533,"Ġacc":6534,"allpaper":6535,">();":6536,"ATCH":6537,"Lost":6538,"Ġcached":6539,"Done":6540,"ĠCommand":6541,"COMPON":6542,"DT":6543,"Ġicon":6544,"hell":6545,"Ġlua":6546,"ImageTag":6547,"refcount":6548,"ĠIPPROTO":6549,"SecurityOrigin":6550,"Ġ!!":6551,"licate":6552,"ZERO":6553,"Ġpin":6554,"perim":6555,"tax":6556,"FLOW":6557,"brcmf":6558,"kInvalid":6559,"Ġcomplete":6560,"Ġensure":6561,"Serial":6562,"BASED":6563,"ignored":6564,"FY":6565,"FETCH":6566,"INO":6567,"major":6568,"ARR":6569,"====":6570,"ĠIDC":6571,"Ġntohs":6572,"Cookie":6573,"Ġkeys":6574,"dpb":6575,"Ġtitle":6576,"anner":6577,"Events":6578,"UPDATE":6579,"Ġtransaction":6580,"Fragment":6581,"HCI":6582,"clean":6583,"Ġsg":6584,"usted":6585,"FRAMEBUFFER":6586,"ĠBTM":6587,"periment":6588,"Ġlib":6589,"ĠSMB":6590,"parate":6591,",%":6592,"\",(":6593,"Resize":6594,"GEST":6595,"ĠOpt":6596,"multi":6597,"MAGICKCORE":6598,"YNC":6599,"tools":6600,"ĠVector":6601,"tables":6602,"Transition":6603,"idata":6604,"Ġmsr":6605,"ĠSK":6606,"ORK":6607,"nullptr":6608,"phys":6609,"ĠRenderFrameImpl":6610,"ĠSIOC":6611,"account":6612,"generic":6613,"Ġslice":6614,"ĠClient":6615,"psd":6616,"omething":6617,"ision":6618,"REV":6619,"Idx":6620,"Ġcompos":6621,"css":6622,"guid":6623,"Ġtho":6624,"Restore":6625,"ĠAS":6626,"frags":6627,"DEPTH":6628,"ELEMENT":6629,"stitial":6630,"prt":6631,"ĠBuffer":6632,"requests":6633,"One":6634,"checker":6635,"midi":6636,"Break":6637,"Ġleast":6638,"Ġtransfer":6639,"AttributeAttributeGetter":6640,"luma":6641,"ĠĠĠĠĠĠĠĠĠĠĠĠĠĠĠĠĠĠĠĠĠĠĠĠĠĠĠĠĠĠĠĠĠĠĠĠĠĠĠĠĠĠĠĠĠĠĠĠ":6642,"Ġem":6643,"Ġanother":6644,"binary":6645,"'\\":6646,"timing":6647,"Ġax":6648,"ĠPI":6649,"SetField":6650,"disabled":6651,"ĠExec":6652,"ticket":6653,"POS":6654,"Ġpm":6655,"ĠLIB":6656,"Search":6657,"ĠDevTools":6658,"38":6659,"Bluetooth":6660,"wrapper":6661,"copi":6662,"ĠEvent":6663,"Enc":6664,"Shadow":6665,"brary":6666,"QuickWebView":6667,"affine":6668,"Ġsprintf":6669,"UTDOWN":6670,"CoreSignature":6671,"dialog":6672,"Ġevery":6673,"STRLEN":6674,"Sn":6675,"ĉĠĠĠĠĠĠĠ":6676,"Ġsaved":6677,"Ġfname":6678,"ĉĉĉĉĉĠĠĠĠĠ":6679,"same":6680,"asc":6681,"Ġhigh":6682,"ĠCA":6683,"fds":6684,"Testing":6685,"Ġopj":6686,"NOTSUPP":6687,"uggest":6688,"Swap":6689,"UAL":6690,"ĠUN":6691,"ssoc":6692,"Attributes":6693,"Ġregion":6694,"ĠKERN":6695,"sql":6696,"mapho":6697,"ĠCRY":6698,"Writ":6699,"sadb":6700,"shader":6701,"netif":6702,"amily":6703,"BOO":6704,"sectors":6705,"LF":6706,"ĠHO":6707,"PUSH":6708,"edDB":6709,"PixelPacket":6710,"ĉĉĉĉĉĉĠ":6711,"Align":6712,"Raw":6713,"cont":6714,"Ġyacc":6715,"processor":6716,"TexImage":6717,"ĠRegister":6718,"maphore":6719,"OC":6720,"Ġieee":6721,"SetPixel":6722,"ĠStart":6723,"writer":6724,"Cred":6725,"pas":6726,"namelen":6727,"termin":6728,"Files":6729,"Ġframes":6730,"fatal":6731,"Ġsplit":6732,"ĠRenderViewImpl":6733,"54":6734,"Ġpair":6735,"exif":6736,"ublic":6737,"Ġtimestamp":6738,"SM":6739,"cinfo":6740,"Ġbrcmf":6741,"Ġoperation":6742,"indexes":6743,"Ġreading":6744,"controls":6745,"CURSOR":6746,"expression":6747,"Ġ(;;)":6748,"ĠClear":6749,"Ġrunning":6750,"IDS":6751,"Seek":6752,"Ġcluster":6753,"mplementation":6754,"RECORD":6755,"AY":6756,"SON":6757,"alance":6758,"white":6759,"yr":6760,"queued":6761,"Ġjpc":6762,"handled":6763,"Ġmagn":6764,"Fi":6765,"Ġpost":6766,"Ġsmp":6767,"ĠMagickCoreSignature":6768,"Ġpoints":6769,"Ġhelper":6770,"FLOAT":6771,"GB":6772,"Ġ1000":6773,"quires":6774,"Ġavctx":6775,"rose":6776,"Convert":6777,"Ġcolors":6778,"tracker":6779,"Ġ',":6780,"OPNOTSUPP":6781,"openssl":6782,"UpdateCommandEnabled":6783,"uffman":6784,"ĠUndefined":6785,"Pack":6786,"Ġ'.":6787,"Ġcaller":6788,"det":6789,"Ġxmp":6790,"pcm":6791,"ĠDevice":6792,"manifest":6793,"Ġobservers":6794,"nibox":6795,"SELECT":6796,"VertexAttrib":6797,"aren":6798,"pn":6799,"support":6800,"Ġcipher":6801,"Ġcond":6802,"getc":6803,"ĠCL":6804,"Ġkmem":6805,"ĠKURL":6806,"Ġclone":6807,"ĠSkip":6808,"Constant":6809,"MOVE":6810,"Ġpackets":6811,"IES":6812,"Ġsignature":6813,"lick":6814,"Identifier":6815,"Backend":6816,"Ġprivate":6817,"OWN":6818,"efx":6819,"instruction":6820,"ifr":6821,"Remote":6822,"curl":6823,"ĠRPC":6824,"NOTIFICATION":6825,"Cho":6826,"dw":6827,"ww":6828,"Ġunlock":6829,"deleg":6830,"cover":6831,"ateg":6832,"LEAR":6833,"Decl":6834,"Ġjo":6835,"secret":6836,"Ġsmall":6837,"MARK":6838,"csi":6839,"imension":6840,"ĠSyn":6841,"cpus":6842,"Unload":6843,"PixelTrait":6844,"MessageLoop":6845,"ĠExit":6846,"airo":6847,"HOOK":6848,"LogicalWidth":6849,"Routing":6850,"recognized":6851,"Ġfall":6852,"cachep":6853,"SAX":6854,"Ġvolatile":6855,"Ġcfg":6856,"Ġtptr":6857,"usters":6858,"interlace":6859,"COMPAT":6860,"Ġlike":6861,"ause":6862,"dio":6863,"dyn":6864,"Ġinclude":6865,"decoded":6866,"TraceEvent":6867,"SYN":6868,"LOOKUP":6869,"GFP":6870,"crop":6871,"Ġhow":6872,"cpi":6873,"plane":6874,"Ġstrn":6875,"VMX":6876,"single":6877,"STORE":6878,")\");":6879,"Case":6880,"IMP":6881,"istered":6882,"Ġoptval":6883,"23":6884,">,":6885,"pat":6886,"xfer":6887,"strcasecmp":6888,"upper":6889,"partial":6890,"MIB":6891,"Ġabort":6892,"PRIVATE":6893,"Ab":6894,"paths":6895,"ĠLocal":6896,"cut":6897,"eq":6898,"Ġfp":6899,"parm":6900,"disconnect":6901,"GD":6902,"Have":6903,"atum":6904,"Ġmissing":6905,"Ġgener":6906,"ured":6907,"dissect":6908,"ogle":6909,"Extensions":6910,"PHA":6911,"Ġcopied":6912,"IME":6913,"XF":6914,"\\\\":6915,"rctx":6916,"Ġfre":6917,"chg":6918,"COMPLETE":6919,"menu":6920,"Ġgc":6921,"formed":6922,"ĠWindow":6923,"Ġloff":6924,"aptor":6925,"ĠAllocate":6926,"xhci":6927,"Ġack":6928,"Ġ\"--":6929,"emulate":6930,"PROT":6931,"MagickString":6932,"WebFrame":6933,"Ġatoi":6934,"watch":6935,"DECODE":6936,"binding":6937,"alf":6938,"INST":6939,"SAFE":6940,"OUTPUT":6941,"ĠPRIu":6942,"ĠPOLL":6943,"STRUCT":6944,"IAN":6945,"Ġpgs":6946,"Ġmutt":6947,"PropertyCallbackInfo":6948,"Ġchannels":6949,"sysctl":6950,"VALIDATE":6951,"Segment":6952,"copied":6953,"Ġpred":6954,"CCES":6955,"ExecutionContext":6956,"76":6957,"PQ":6958,"cmap":6959,"kKey":6960,"ĠAT":6961,"login":6962,"Ġexisting":6963,"COMPONENT":6964,"ei":6965,"Ġfz":6966,"voke":6967,"DY":6968,"Graphics":6969,"fifo":6970,"Ġfixed":6971,"olation":6972,"Types":6973,"EXP":6974,"SRC":6975,"PHAR":6976,"resources":6977,"2000":6978,"pull":6979,"encoded":6980,"Ġbuffers":6981,"Shutdown":6982,"Ġmagic":6983,"SCOPE":6984,"Ġ*/,":6985,"Quota":6986,"Heap":6987,"Ġinitialize":6988,"CREATE":6989,"Hint":6990,"zoom":6991,"stand":6992,"idi":6993,"unload":6994,"Ġgst":6995,"rie":6996,"Dev":6997,"PROFILE":6998,"Skip":6999,"BJ":7000,"Support":7001,"ENCE":7002,"smi":7003,"PKCS":7004,"AA":7005,"duct":7006,"oice":7007,"fol":7008,"misc":7009,"Ġentity":7010,"igrate":7011,"ĠCF":7012,"ometric":7013,"Ġotherwise":7014,"rdma":7015,"template":7016,"MagickInfo":7017,"ĠInspector":7018,"Label":7019,"Completed":7020,"mbed":7021,"Ġapdu":7022,"Android":7023,"OVER":7024,"mk":7025,"cow":7026,"ĠDictionary":7027,"ĠRenderWidget":7028,"Ġdevices":7029,"Ġauthentic":7030,"263":7031,"jsv":7032,"Ġpush":7033,"Ġhex":7034,"ĠZSTD":7035,"FRAG":7036,"CLOSE":7037,"Glyph":7038,"sume":7039,"cell":7040,"otometric":7041,"olated":7042,"ĠSET":7043,"CHUNK":7044,"codecpar":7045,"loading":7046,"Ġwhether":7047,"Ġdiscard":7048,"rowsing":7049,"TabContents":7050,"MediaElement":7051,"specific":7052,"ĠSetImageProperty":7053,"FFECT":7054,"LoadType":7055,"00000000":7056,"Ġresources":7057,"ĠRenderFrameHostImpl":7058,"Lib":7059,"jected":7060,"ito":7061,"respon":7062,"Ġwere":7063,"ecycle":7064,"))))":7065,"Ġ40":7066,"Ġ_(\"":7067,"Extra":7068,"ĠIPV":7069,"Safe":7070,"Ġreserved":7071,"TOKEN":7072,"EOPNOTSUPP":7073,"asic":7074,"border":7075,"union":7076,"ONSE":7077,"Step":7078,"Ġisolate":7079,"ailing":7080,"tags":7081,"multicast":7082,"Border":7083,"mtime":7084,"Ġpack":7085,"Ġbig":7086,"Ġee":7087,"FIRST":7088,"Disabled":7089,"Ġphy":7090,"Visual":7091,"Ġband":7092,"imm":7093,"SEG":7094,"74":7095,"parator":7096,"ĠLVM":7097,"Clamp":7098,"sired":7099,"Ġpinfo":7100,"platform":7101,"Ġrcu":7102,"exclude":7103,"optlen":7104,"amic":7105,"Ġhook":7106,"rary":7107,"ĠpContext":7108,"EXCE":7109,"ĠUser":7110,"Ġfeatures":7111,"WIDTH":7112,"ges":7113,"Ġscsi":7114,"TACH":7115,"dispatcher":7116,"pit":7117,"ĠBTRFS":7118,"Ġatt":7119,"Autofill":7120,"aps":7121,"slab":7122,"CCP":7123,"xmlGenericError":7124,"scoped":7125,"idc":7126,"Ġirq":7127,"ALOG":7128,"ĠCan":7129,"Ġjiffies":7130,"USB":7131,"mitted":7132,"Ġabs":7133,"speed":7134,"Fetcher":7135,"SVG":7136,"ZED":7137,"phan":7138,"ĉĉĉĉĉĠĠĠĠĠĠ":7139,"ki":7140,"ĠMessage":7141,"Ġsamples":7142,"FormControl":7143,"90":7144,"Cert":7145,"udp":7146,"capable":7147,"InputElement":7148,"BindOnce":7149,"Ġallocation":7150,"TLSEXT":7151,"trait":7152,"ALPHA":7153,"Ġuc":7154,"Exit":7155,"Ġparsed":7156,"QUEUE":7157,"Ġ(_":7158,"elen":7159,"Ġdx":7160,"ĠCO":7161,"ĠRun":7162,"ADATA":7163,"cision":7164,"PROC":7165,"BYTES":7166,"ĠCRYPTO":7167,"Assoc":7168,"Ġpic":7169,"ĠXSLT":7170,"Ġmaximum":7171,"Committed":7172,"Cast":7173,"Ġdrv":7174,"Ins":7175,"ĠOF":7176,"Ġpsf":7177,"Ġargument":7178,"POLICY":7179,"Ġrouting":7180,"ParserCtxt":7181,"ĠTestObjectPython":7182,"SiteInstance":7183,"Total":7184,"sth":7185,"stroke":7186,"Ġprec":7187,"Ġnested":7188,"Ġstrip":7189,"GLenum":7190,"Composite":7191,"Ġfollowing":7192,"ĠAcquireQuantumMemory":7193,"Ġsr":7194,"Referrer":7195,"ALE":7196,"ĠAPR":7197,"UNSUPPORTED":7198,"WM":7199,"Receive":7200,"Ġselect":7201,"ĠRenderWidgetHostView":7202,"Messages":7203,"Headers":7204,"Ġcreated":7205,"=\"":7206,"cmsg":7207,"rfc":7208,"Ġfix":7209,"TestObj":7210,"INVALIDDATA":7211,"sumer":7212,"ĠYY":7213,":\\":7214,"Duration":7215,"tle":7216,"anal":7217,"Ġds":7218,"ĠPK":7219,"ĠPre":7220,"ĠRet":7221,"=\\\"%":7222,"Visibility":7223,"ADDRESS":7224,"SharedMemory":7225,"NOTICE":7226,"bc":7227,"Ġts":7228,"icient":7229,"ĠCache":7230,"Ġvhost":7231,"volume":7232,"expires":7233,"valuate":7234,"extradata":7235,"GURL":7236,"Ġpattern":7237,"ather":7238,"NORE":7239,"Traits":7240,"Gray":7241,"VLOG":7242,"ffs":7243,"maps":7244,"LOOP":7245,"ĠWriteBlobString":7246,"UDP":7247,"]\\":7248,"xprt":7249,"ĠSession":7250,"llu":7251,"allocate":7252,"MouseEvent":7253,"ITEM":7254,"uggestion":7255,"DER":7256,"pace":7257,"reat":7258,"come":7259,"Ġgx":7260,"coming":7261,"ĠOnly":7262,"31":7263,"SX":7264,"USH":7265,"umbn":7266,"Ġdy":7267,"ĠETH":7268,"ĠBTA":7269,"die":7270,"nlh":7271,"SG":7272,"lan":7273,"ately":7274,"listener":7275,"member":7276,"ABORT":7277,"Ġdisk":7278,"RBin":7279,"Ġsmart":7280,"rtp":7281,"required":7282,"Ġjson":7283,"ALLOW":7284,"TC":7285,"rss":7286,"sort":7287,"REND":7288,"Contains":7289,"div":7290,"ENDIAN":7291,"78":7292,"ĠSTR":7293,"ĠBad":7294,"quota":7295,"epper":7296,"MessageFilter":7297,"Ġnlmsg":7298,"evt":7299,"PIN":7300,"export":7301,"ĠList":7302,"Second":7303,"Ġframebuffer":7304,"DocumentLoader":7305,"authentic":7306,"Bubble":7307,"lvl":7308,"mnibox":7309,"Ġborder":7310,"Reload":7311,"GetWeakPtr":7312,"touch":7313,"probe":7314,"ĠInit":7315,"MOV":7316,"Currently":7317,"Ġwritten":7318,"DictionaryValue":7319,"GLOB":7320,"iant":7321,"Ġet":7322,"rsv":7323,"Ġredirect":7324,"ĠPCI":7325,"Ġisn":7326,"blocking":7327,"OTOME":7328,"Ġsha":7329,"Transaction":7330,"Ġspecial":7331,"Ġprogress":7332,"OTOMETRIC":7333,"Missing":7334,"cblk":7335,"atts":7336,"strcpy":7337,"Ġserial":7338,"Ġrep":7339,"Optional":7340,"Ġsplash":7341,"lt":7342,"ntp":7343,"Ġ));":7344,"Ġtake":7345,"xffff":7346,"Expression":7347,"42":7348,"gg":7349,"hb":7350,"Ġmime":7351,"ONIG":7352,"SEEK":7353,"sphr":7354,"ERRUP":7355,"Ġ'+":7356,"Ġprop":7357,"Ready":7358,"Ġvisible":7359,"Ġconnect":7360,"Ġmultiple":7361,"RESPONSE":7362,"sphrase":7363,"fr":7364,"Ġce":7365,"uncs":7366,"ulk":7367,"EVT":7368,"PTION":7369,"Ġoc":7370,"Ġcodec":7371,"bed":7372,"Ġtm":7373,"ĠPF":7374,"LICE":7375,"ASH":7376,"CHANNEL":7377,"alignment":7378,"Fullscreen":7379,"CURRENTLY":7380,"Ġtick":7381,"Ġss":7382,"chunks":7383,"Rel":7384,"sets":7385,"ĠFloat":7386,"ThrowReaderException":7387,"INITIALI":7388,"ĠStreamTcp":7389,"Bottom":7390,"DONT":7391,"Ġurb":7392,"Ġduring":7393,"ĠGpu":7394,"ANK":7395,"ASYNC":7396,"ucv":7397,"crt":7398,"nsec":7399,"Ġsite":7400,"Ġnd":7401,"Ġ13":7402,"Ġ')":7403,"more":7404,"escape":7405,"ĠSuccess":7406,"Anim":7407,"writel":7408,"Horizontal":7409,"sFor":7410,"Ġpdev":7411,"peed":7412,"ĠTX":7413,"home":7414,"ĠMagickSignature":7415,"algorithm":7416,"Ġassume":7417,"unused":7418,"Ġneg":7419,"QuantumRange":7420,"TreeHost":7421,"INTERFACE":7422,"asf":7423,"Ġ\":":7424,"resses":7425,"andid":7426,"Ġavail":7427,"FatalErr":7428,"Ġty":7429,"ĠAuto":7430,"tems":7431,"ARGET":7432,"EXPECT":7433,"threads":7434,"Ġbetween":7435,"YUV":7436,"xmit":7437,"ĠTime":7438,"reempt":7439,"Ġcounter":7440,"ĠRecord":7441,"column":7442,"Clone":7443,"ARRVAL":7444,"kDisable":7445,"pinfo":7446,"sq":7447,"Ġpf":7448,"(),\"%":7449,"Ġnote":7450,"Compositing":7451,"ĠDictionaryValue":7452,"ASS":7453,"ĠĠĠĠĠĠĠĠĠĠĠĠĠĠĠĠĠĠĠĠĠĠĠĠĠĠĠĠĠĠĠĠĠĠĠĠĠĠĠĠĠĠĠĠĠĠĠĠĠ":7454,"SIS":7455,"Ġroute":7456,"TED":7457,"inv":7458,"Ġduration":7459,"Ġcanvas":7460,"Ġactually":7461,"EMPTY":7462,"ConstantString":7463,"ning":7464,"ĠLoad":7465,"Ġdma":7466,"(((":7467,"Colormap":7468,"Ġplatform":7469,"ĠTabStrip":7470,"CONNECTED":7471,"kind":7472,"xa":7473,"Ġsw":7474,"Ġtransport":7475,"Loaded":7476,"TIFFRead":7477,"LastTrack":7478,"thesize":7479,"Ġofpbuf":7480,"Writer":7481,"autil":7482,"circ":7483,"ĠScoped":7484,"feed":7485,"autilus":7486,"rar":7487,"Ġmanager":7488,"IDX":7489,"entials":7490,"JavaScript":7491,"-=":7492,"jp":7493,"ĠĠĠĠĠĠĠĠĠĠĠĠĠĠĠĠĠĠĠĠĠĠĠĠĠĠĠĠĠĠĠĠĠĠĠĠĠĠĠĠĠĠĠĠĠĠĠĠĠĠ":7494,"ĠEAS":7495,"Ġgiven":7496,"calc":7497,"sIn":7498,"Ġcalloc":7499,"Ġtcg":7500,"Ġgchar":7501,"ĠOther":7502,"Items":7503,"Tile":7504,"Ġreally":7505,"Ġofputil":7506,"Ġprovi":7507,"FOUND":7508,"dot":7509,"kb":7510,"erge":7511,"prompt":7512,"Ġiso":7513,"Order":7514,"author":7515,"BINARY":7516,"umbnail":7517,"Word":7518,"mDataSource":7519,"Ġrows":7520,"Ġuri":7521,"deblk":7522,"leader":7523,"unlink":7524,"Ġarguments":7525,"vd":7526,"Ġ@":7527,"Ġver":7528,"Ġcontains":7529,"Ġimg":7530,"'ll":7531,"hd":7532,"normal":7533,"character":7534,"Ġseek":7535,"PRI":7536,"istration":7537,"restart":7538,"Ġfib":7539,"msl":7540,"Ġchain":7541,"mplemented":7542,"Ġaccount":7543,"Ġwrong":7544,"CMS":7545,"nest":7546,"ĠAn":7547,"person":7548,"Ġkeyword":7549,"ĠxmlFree":7550,"Ġusage":7551,"Tracker":7552,"AttributeAttributeSetter":7553,"VR":7554,"ioctx":7555,"compute":7556,"WORK":7557,"Ġmany":7558,"Ġras":7559,"Ġudp":7560,"Ġbuild":7561,"Async":7562,"GRAY":7563,"IDE":7564,"IMAGE":7565,"Sandbox":7566,"fattr":7567,"NOTIFY":7568,"compno":7569,"azy":7570,"EBUSY":7571,"Was":7572,"correct":7573,"padding":7574,"want":7575,"Ġbt":7576,"uple":7577,"Ġ%%":7578,"ĠRFC":7579,"hosts":7580,"herit":7581,"Ġready":7582,"Ġfailure":7583,"tim":7584,"lied":7585,"Flush":7586,"BOOLEAN":7587,"ules":7588,"ĠValue":7589,"istic":7590,"ĠVP":7591,"intercept":7592,"capt":7593,"-%":7594,"DD":7595,"ef":7596,"hcd":7597,"received":7598,"ĠDOM":7599,"Dec":7600,"Unexpected":7601,"timeo":7602,"ĠJsVar":7603,"methods":7604,"multip":7605,"Ġinstruction":7606,"ĠTL":7607,"Ġtok":7608,"Ġrate":7609,"shinfo":7610,"inition":7611,"GLuint":7612,"NodePtr":7613,"xffffffff":7614,"Ġpartition":7615,"hdl":7616,"wiphy":7617,"offscreen":7618,"ĠProcess":7619,"'ve":7620,"ius":7621,"pValue":7622,"Ġbus":7623,"tool":7624,"persistent":7625,"cab":7626,"Ġpci":7627,"ĠThere":7628,"segments":7629,"DirEntry":7630,"LSBShort":7631,"Import":7632,"nBuffer":7633,"ancestor":7634,"Ġattach":7635,"Timeout":7636,"execute":7637,"ĠNotification":7638,"Resolver":7639,"Accessibility":7640,")&":7641,"05":7642,"fv":7643,"fpu":7644,"Ġfid":7645,"ĠIEEE":7646,"PLAY":7647,"ifindex":7648,"raid":7649,"Objects":7650,"ForCurrentProcess":7651,"28":7652,"kEnable":7653,"Ġsomething":7654,"webView":7655,"original":7656,"ĠSTREAM":7657,"SYSCALL":7658,"LSBLong":7659,"Specific":7660,"claim":7661,"bm":7662,"ingMode":7663,"Ġcases":7664,"ĠBSON":7665,"MagickException":7666,"Bookmark":7667,"ReturnValue":7668,"ially":7669,"lang":7670,"iface":7671,"prm":7672,"Go":7673,"pinstance":7674,"around":7675,"sical":7676,"consumed":7677,"512":7678,"ĠENABLE":7679,"uctx":7680,"UNDEF":7681,"TIO":7682,"Ġasf":7683,"ĠWebFrame":7684,"Ġinstall":7685,"Ġ^=":7686,"ĠPlatform":7687,"hu":7688,"pmem":7689,"instate":7690,"External":7691,"ĠThrowMagickException":7692,"Ġcertificate":7693,"Ġverify":7694,"contains":7695,"photometric":7696,"Ġcause":7697,"GLES":7698,"ictor":7699,"sdp":7700,"zu":7701,"Ġvector":7702,"Ġpriority":7703,"ĠSTA":7704,"curve":7705,"mmar":7706,"Ġrequests":7707,"TIFFGetField":7708,"Ġnecessary":7709,"Args":7710,"ACTION":7711,"JSTest":7712,"Pas":7713,"UGIN":7714,"aut":7715,"Ġwon":7716,"Ġai":7717,"INTERRUP":7718,"Namespace":7719,"rlvl":7720,"TOO":7721,"ĠSHA":7722,"Automation":7723,"fm":7724,"STAMP":7725,"ĠType":7726,"Stats":7727,"Ġadded":7728,"cognito":7729,"Prefix":7730,"gstate":7731,"vendor":7732,"inator":7733,"ĠTYPE":7734,"results":7735,"Ġschedule":7736,"ĠSTAT":7737,"Art":7738,"Aura":7739,"DSA":7740,"Sched":7741,"transition":7742,"raphicBuffer":7743,"PSD":7744,"ecp":7745,"hold":7746,"lru":7747,"Ġdd":7748,"ĠTAG":7749,"readInt":7750,"CTYPE":7751,"Binding":7752,"BEGIN":7753,"mailbox":7754,"RoutingID":7755,"KVM":7756,"IND":7757,"Named":7758,"Ġunit":7759,"association":7760,"merge":7761,"1024":7762,"oidMethod":7763,"Ġrar":7764,"Ġencode":7765,"ynchronous":7766,"DEN":7767,"Ġcor":7768,"Ġ\"[":7769,"ably":7770,"Ġhistory":7771,"mdi":7772,"SchemeIs":7773,"ĠSNDRV":7774,"Direct":7775,"Same":7776,"Ġcrop":7777,"Ġyou":7778,"Timing":7779,"got":7780,"Ġraptor":7781,"ĠPACK":7782,"EXIST":7783,"SHUTDOWN":7784,"ĠJPEG":7785,"IFS":7786,"eas":7787,"sleep":7788,"sim":7789,"ĠCM":7790,"ĠPP":7791,"prite":7792,"ube":7793,"csr":7794,"ĠStat":7795,"istrar":7796,"igration":7797,"xfrm":7798,"illi":7799,"Ġencoded":7800,"ĠSetGLError":7801,"FLAC":7802,"cii":7803,"EACCES":7804,"ĠCurrent":7805,"INODE":7806,",*":7807,"Ġewk":7808,"des":7809,"ĠBase":7810,"ĠBack":7811,"CASE":7812,"Ġqeth":7813,"yyval":7814,"Ġconfiguration":7815,"Oper":7816,"nPortIndex":7817,"seen":7818,"ĠFD":7819,"ĠVer":7820,"CLEAR":7821,"LK":7822,"SAS":7823,"Success":7824,"eded":7825,"launch":7826,"Ġcgroup":7827,"ĠMAC":7828,"NUMBER":7829,"ĠContextGL":7830,"dummy":7831,"gx":7832,"ĠĠĊ":7833,"Ġpassed":7834,"ĠWebPage":7835,"Ġmouse":7836,"43":7837,"RPC":7838,"ftrace":7839,"ĠGData":7840,"LogicalHeight":7841,"Ignoring":7842,"sx":7843,"recon":7844,"under":7845,"Schedule":7846,"Ġasn":7847,"tokens":7848,"Ġplace":7849,"referrer":7850,"+(":7851,"cq":7852,"utls":7853,"external":7854,"Ġproble":7855,"BLK":7856,"rement":7857,"Ġsuch":7858,"Ġuses":7859,"shape":7860,"Ġntohl":7861,"eta":7862,"Ġmaster":7863,"STEM":7864,"BOSE":7865,"SHARED":7866,"TLV":7867,"Recalc":7868,"aes":7869,"alle":7870,"Ġpdu":7871,"(\"/":7872,"TypeError":7873,"ASM":7874,"FileName":7875,"CurrentlyOn":7876,"uit":7877,"Ġstats":7878,"dereference":7879,"ips":7880,"Unrecognized":7881,"ĠOBJ":7882,"Ġbucket":7883,"TestInterface":7884,"initialize":7885,"IW":7886,"zp":7887,"realloc":7888,"orb":7889,"Ġrds":7890,"Expr":7891,"mainFrame":7892,":\",":7893,"Ġ(!_":7894,"ENOS":7895,"ĠICMP":7896,"BLOCKS":7897,"ĠPHAR":7898,"CONDARY":7899,"ĠHOOK":7900,">*":7901,"Bus":7902,"Ġrest":7903,"Ġld":7904,"Ġprocessing":7905,"Controls":7906,"ĠARRAY":7907,"precated":7908,"Ġpthread":7909,"sizes":7910,"ĠPass":7911,"ĠFree":7912,"compare":7913,"Ġround":7914,"Composition":7915,"GetStringUTF":7916,"neigh":7917,"Found":7918,"nexus":7919,"uchar":7920,"Ġpv":7921,"Ġsas":7922,"Ġdiff":7923,"cpumask":7924,"INTEG":7925,"clusters":7926,"ENTER":7927,"bling":7928,"optval":7929,"Priority":7930,"XY":7931,"ERY":7932,"Ġsector":7933,"ĠXPATH":7934,"planes":7935,"Guest":7936,"ĠRequest":7937,"Ġignored":7938,"ents":7939,"uction":7940,"Ġrestore":7941,"Ġgfn":7942,"Struct":7943,"Ġexpect":7944,"Ġelements":7945,"Overlay":7946,"compositor":7947,"Available":7948,"High":7949,"day":7950,"sep":7951,"Ġ\".":7952,"LEFT":7953,"Provisional":7954,"Discard":7955,"ker":7956,"ality":7957,"Ġown":7958,"ATTACH":7959,"mach":7960,"ĠEC":7961,"ColorSpace":7962,"\"\\":7963,"au":7964,"ahead":7965,"btif":7966,"uaddr":7967,"ifact":7968,"Ġ\")":7969,"ĠFirst":7970,"DELAY":7971,"Ġdissect":7972,"WAYS":7973,"created":7974,"Ġvirtio":7975,"ientation":7976,"SF":7977,"SMP":7978,"Ġfb":7979,"ĠDATA":7980,"Ġbutton":7981,"Ġ'/')":7982,"Ġsbi":7983,"Ġdb":7984,"linear":7985,"pice":7986,"Ġdisable":7987,"OLU":7988,"vars":7989,"CommandBuffer":7990,"FilterNode":7991,"ices":7992,"Connect":7993,"Sw":7994,"using":7995,"permissions":7996,"ĠBO":7997,"ĠInter":7998,"Idle":7999,"Layers":8000,"grammar":8001,"164":8002,"MAY":8003,"pubkey":8004,"dwc":8005,"roper":8006,"ITo":8007,"ImageHeader":8008,"hdrlen":8009,"cmds":8010,"CMYK":8011,"70":8012,"hop":8013,"lcpy":8014,"Ġappend":8015,"ifecycle":8016,"Setup":8017,"Login":8018,"POST":8019,"ropped":8020,"WD":8021,"ZIP":8022,"Ġum":8023,"GetVirtual":8024,"Ġnotification":8025,"Ġasync":8026,"DOC":8027,"Invalidation":8028,"DA":8029,"VOID":8030,"Ġ\"\");":8031,"ĠMem":8032,"Ġprevent":8033,"MainThread":8034,"linux":8035,"REPLY":8036,"SOF":8037,"ĠGD":8038,"ĠEV":8039,"black":8040,"ĠGetFrame":8041,"requested":8042,"creds":8043,"Ġhtml":8044,"GLOBAL":8045,"Ġ\"(":8046,"MATLAB":8047,"srp":8048,"TrueColor":8049,"Ġsshbuf":8050,"CID":8051,"rink":8052,"vt":8053,"->_":8054,"simple":8055,"Ġwake":8056,"llcp":8057,"Ġpsz":8058,"Ġonce":8059,"Ġlex":8060,"QUOT":8061,"thesizeGLError":8062,"blend":8063,"nxt":8064,"itu":8065,"GetCurrent":8066,"saf":8067,"ĠScroll":8068,"viron":8069,":\"":8070,"eof":8071,"algs":8072,"drag":8073,"MACO":8074,"TAIL":8075,"Detect":8076,"ĠNotify":8077,"Improper":8078,"Chooser":8079,"JO":8080,"Mapping":8081,"stdout":8082,"Ġcf":8083,"Ġcmap":8084,"anchor":8085,"helf":8086,"opj":8087,"DEL":8088,"mise":8089,"Ignore":8090,"ĠENC":8091,"ĠBASE":8092,"ROOT":8093,"Ġgoing":8094,"ImproperImageHeader":8095,"Img":8096,"Override":8097,"Sib":8098,"Ġdue":8099,"Ġdatalen":8100,"MALLOC":8101,"Ġ>>=":8102,"Ġmojom":8103,"ĠBrowserThread":8104,"Ġwaiting":8105,"MACOSX":8106,"Own":8107,"rest":8108,"Ġtail":8109,"ĠPQ":8110,"SEARCH":8111,"mbaff":8112,"Ġargp":8113,"wakeup":8114,"irrus":8115,"BTA":8116,"SLICE":8117,"hard":8118,"xF":8119,"Ġtun":8120,"=%.":8121,"Ġexists":8122,"cabac":8123,"freq":8124,"ned":8125,"ratio":8126,"Ġ::":8127,"erate":8128,"ĠSave":8129,"ĠDraw":8130,"Env":8131,"Ġimages":8132,"Pages":8133,"finished":8134,"daemon":8135,"capture":8136,"Padding":8137,"XSLT":8138,"dprintf":8139,"kp":8140,"tdemux":8141,"ins":8142,"lour":8143,"heel":8144,"ALWAYS":8145,"ĠAutofill":8146,"ensity":8147,"RenderViewHost":8148,"Hdr":8149,"pParam":8150,"Ġcrypt":8151,"ulation":8152,"ĠMax":8153,"memcg":8154,"sockaddr":8155,"fidp":8156,"Created":8157,"CU":8158,"hlist":8159,"Ġendif":8160,"ĠSG":8161,"Adjust":8162,"RENDER":8163,"sdata":8164,"room":8165,"Ġfn":8166,"VERBOSE":8167,"bson":8168,"************************************************":8169,"Signal":8170,"Gener":8171,"cu":8172,"Ġ\"\";":8173,"Ġgid":8174,"addrs":8175,"ToUTF":8176,"MagickExport":8177,"Ġleave":8178,"gso":8179,"txt":8180,"Ġanything":8181,"quality":8182,"Ġcolumn":8183,"ĠSTATE":8184,"sity":8185,"waiting":8186,"CLU":8187,"Ġmetrics":8188,"Ġnlattr":8189,"ĠFrameLoader":8190,"ĠCURLOPT":8191,"IToUTF":8192,"nv":8193,"vga":8194,"Ġselected":8195,"samp":8196,"IOCTL":8197,"ropy":8198,"SyncAuthenticPixels":8199,"xception":8200,"getlb":8201,"Ġcharacters":8202,"ĠHFILL":8203,"Ġcommands":8204,"Build":8205,"GTK":8206,"fre":8207,"detach":8208,"ctime":8209,"Ġdistance":8210,"ĠPseudo":8211,"symbol":8212,"srv":8213,"TestObjectPython":8214,"Driver":8215,"RING":8216,"la":8217,"uite":8218,"Ġtor":8219,"upsd":8220,"WebUI":8221,"Ġpartial":8222,"prio":8223,"ĠSynthesizeGLError":8224,"=\\\"":8225,"idr":8226,"Ġdom":8227,"Ġrd":8228,"ĠMagickTrue":8229,"destination":8230,"legal":8231,"Cluster":8232,"serialize":8233,"Ġplen":8234,"ĠSW":8235,"ĠCopyMagickString":8236,"uppress":8237,"BD":8238,"Rad":8239,"Ġbmp":8240,"TypeNames":8241,"shash":8242,"Ġresults":8243,"Renderbuffer":8244,"VIRT":8245,"Ġresolution":8246,"SOCKET":8247,"Drop":8248,"MC":8249,"Maybe":8250,"Uri":8251,"sender":8252,"ENTI":8253,"ĠACL":8254,"Ġunpack":8255,"uding":8256,"ĠPHOTOMETRIC":8257,"SIGNED":8258,"sasl":8259,"sat":8260,"erm":8261,"Ġcalc":8262,"INV":8263,"apply":8264,"Body":8265,"Ġapply":8266,"capabilities":8267,"Ġfocused":8268,"andidate":8269,"41":8270,"kmem":8271,"rds":8272,"Ġloc":8273,"Ġpmc":8274,"Ġwc":8275,"ĠAs":8276,"tern":8277,"Ġthrow":8278,"(*(":8279,"Ġcompute":8280,"delayed":8281,"BLANK":8282,"MON":8283,"MLE":8284,"]=(":8285,"STER":8286,"initiated":8287,"SCRIPT":8288,"66":8289,"Ġpa":8290,"Ġbson":8291,"ĠSpl":8292,"ĠĠĠĠĠĠĠĠĠĠĠĠĠĠĠĠĠĠĠĠĠĠĠĠĠĠĠĠĠĠĠĠĠĠĠĠĠĠĠĠĠĠĠĠĠĠĠĠĠĠĠĠĠĠĠ":8293,"Ġbuilder":8294,"tinu":8295,"REQUI":8296,"ĠDefault":8297,"Scheduler":8298,"420":8299,"ctet":8300,"GetInteger":8301,"Views":8302,"lua":8303,"ĠPACKET":8304,"Tri":8305,"score":8306,"Ġeb":8307,"Ġcx":8308,"unded":8309,"Ġopaque":8310,"ĠCMS":8311,"aves":8312,"compiler":8313,"ContextLost":8314,"txq":8315,"TEMP":8316,"ĠWriteBlobByte":8317,"hevcd":8318,"Filled":8319,"LX":8320,"Mock":8321,"nm":8322,"dead":8323,"REEN":8324,"opener":8325,"ĠDH":8326,"ĠeRet":8327,"ciph":8328,"Accelerator":8329,"FCOMM":8330,"PID":8331,"TASK":8332,"aac":8333,"Ġtls":8334,"ssp":8335,"ĠPaint":8336,"ĠAd":8337,"Ġjbig":8338,"usec":8339,"STATIC":8340,"CURITY":8341,"committed":8342,"Sibling":8343,"SREG":8344,"repeat":8345,"include":8346,"decl":8347,"Ġcd":8348,"resume":8349,"ĠMED":8350,"BUFS":8351,"HY":8352,"Present":8353,"Repe":8354,"ĠWTF":8355,"quot":8356,"backing":8357,"avg":8358,"Ġofpact":8359,"descr":8360,"Anchor":8361,"QUERY":8362,"ĠCSSProperty":8363,"ĠRenderWidgetHostImpl":8364,"ĠATTR":8365,"ĠWK":8366,"rtnl":8367,"EXTENT":8368,"SHAKE":8369,"ĠPlugin":8370,"ĠReturn":8371,"CER":8372,"strvec":8373,"phase":8374,"ErrorNone":8375,"Zero":8376,"Ġrp":8377,"charset":8378,"UTH":8379,"netdissect":8380,"Drawing":8381,"ticks":8382,"live":8383,"keylen":8384,"Ġchecksum":8385,"CHROMEOS":8386,"Ġdirection":8387,"ROUTING":8388,"gfn":8389,"stencil":8390,"Ġmnt":8391,"Ġdate":8392,"Ġequal":8393,"lld":8394,"srcu":8395,"MetaData":8396,"ĠOtherwise":8397,"dbe":8398,"rsrc":8399,"xid":8400,"ines":8401,"arp":8402,"Ġipc":8403,"tos":8404,"ĠRS":8405,"Ġleaf":8406,"Ġnames":8407,"MOUNT":8408,"HANDSHAKE":8409,"SPEC":8410,"HU":8411,"RQ":8412,"VoidMethod":8413,"readl":8414,"ĠRUN":8415,"PRIu":8416,"IPS":8417,"Ġdestroy":8418,"invalidate":8419,"ĠSQLITE":8420,"Ga":8421,"ieee":8422,"Ġpref":8423,"cho":8424,"UNC":8425,"mmio":8426,"erson":8427,"Ġ655":8428,"ĠChild":8429,"fully":8430,"Ġpmd":8431,"Ġscope":8432,"ĠNF":8433,"ĠNet":8434,"lier":8435,"ĠSV":8436,"rient":8437,"filesystem":8438,"Ġxhci":8439,"defer":8440,"nlmsg":8441,"hints":8442,"ĠWebGLRenderingContextBase":8443,"1646":8444,")|":8445,"ĠENOMEM":8446,"ulong":8447,"Ġgboolean":8448,"DELEG":8449,"Ġcompressed":8450,"Ġinitialized":8451,"ĠSIZE":8452,"UBLE":8453,"front":8454,"tex":8455,"tell":8456,"tstamp":8457,"Ġsyn":8458,"GetLast":8459,"Ġear":8460,"Ġemul":8461,"ĠTIFFSetField":8462,"Partition":8463,"Side":8464,"wrap":8465,"secs":8466,"ENCRYPT":8467,"ĠDVLOG":8468,"iovec":8469,"Ġspecific":8470,"10000":8471,"Pin":8472,"language":8473,"na":8474,"ĠONIG":8475,"Ġmapped":8476,"Ġda":8477,"outbuf":8478,"CurrentThread":8479,"Ġimmediate":8480,"dccp":8481,"ILI":8482,"Ġĉĉ":8483,"logger":8484,"formats":8485,"COMPRESSION":8486,"LABEL":8487,"FYI":8488,"Sensor":8489,"TOP":8490,"console":8491,"Ġos":8492,"verb":8493,"romium":8494,"VECTOR":8495,"Ġzval":8496,"ĠUseCounter":8497,"Ac":8498,"audit":8499,"kChrome":8500,"pReader":8501,"ors":8502,"elong":8503,"ĠNE":8504,"ĠFail":8505,"matches":8506,"GLint":8507,"Ġidentifier":8508,"Persistent":8509,"digit":8510,"ACCE":8511,"Dst":8512,"GIF":8513,"Mutex":8514,"ĠPRO":8515,"ĠDTLS":8516,"Ġresp":8517,"syslog":8518,"ĠJSValue":8519,"INTEGER":8520,"ĠMEDIA":8521,"Old":8522,"RAND":8523,"iw":8524,"sue":8525,"Ġpicture":8526,"cestor":8527,"undef":8528,"uniform":8529,"Ġrs":8530,"ĠIW":8531,"modrm":8532,"FileInfo":8533,"modified":8534,"SubImage":8535,"clusive":8536,"Ack":8537,"Camera":8538,"imple":8539,"inates":8540,"Ġmost":8541,"umns":8542,"Ġrandom":8543,"Callbacks":8544,"Ġnodes":8545,"IRQ":8546,"EACH":8547,"Card":8548,"asename":8549,"ATOR":8550,"Ġ((!":8551,"ĠOut":8552,"Transport":8553,"CPI":8554,"ĠTexture":8555,"jiffies":8556,"standard":8557,"Ġclosed":8558,"cluding":8559,"Ġident":8560,"Hidden":8561,"NING":8562,"ppos":8563,"inp":8564,"Ġcast":8565,"TIL":8566,"LACE":8567,"Locked":8568,"PIXEL":8569,"illiseconds":8570,"vflag":8571,"Ġpalette":8572,"pear":8573,"ĠSub":8574,"ityLog":8575,"capacity":8576,"Ġmessages":8577,"Blocked":8578,"DOMException":8579,"ĠDelete":8580,"FIXED":8581,"comb":8582,"INED":8583,"Ġconsume":8584,"ĠAutomation":8585,"Ġchecks":8586,"LayoutObject":8587,"hello":8588,"----------------------------------------------------------------":8589,"*,":8590,"gram":8591,"mxf":8592,"eric":8593,"seed":8594,"icro":8595,"ĠSince":8596,"ocb":8597,"ĠEXIT":8598,"Ġparsing":8599,"RETVAL":8600,"</":8601,"Normal":8602,"bk":8603,"center":8604,"hlen":8605,"Ġbest":8606,"Ġmk":8607,"PROG":8608,"messages":8609,"ServiceWorker":8610,"MISS":8611,"weak":8612,"FLG":8613,"grade":8614,"Orient":8615,"Pair":8616,"ĠcJSON":8617,"Stamp":8618,"Prompt":8619,"Pol":8620,"sil":8621,"Ġbd":8622,"ImageHandler":8623,"Exist":8624,"netlink":8625,"Ġcallbacks":8626,"AVC":8627,"Ġimpeg":8628,"subject":8629,"Pseudo":8630,"vaddr":8631,"Ġmtu":8632,"ĠNew":8633,"ĠShell":8634,"Ġtheir":8635,"Ġvp":8636,"writeInt":8637,"filters":8638,"PERF":8639,"popup":8640,"encrypted":8641,"scratch":8642,"WH":8643,"Ġcmpt":8644,"loff":8645,"endant":8646,"GetActive":8647,"Ġhuge":8648,"mous":8649,"Unsigned":8650,"ddx":8651,"akes":8652,"gcry":8653,"straints":8654,"ggle":8655,"AES":8656,"crl":8657,"hmac":8658,"xe":8659,"ĠINVALID":8660,"allo":8661,"road":8662,"trigger":8663,"Ġdh":8664,"MODU":8665,"Ġregistry":8666,"expand":8667,"hidden":8668,"rf":8669,"alive":8670,"eline":8671,"ĠViewHostMsg":8672,"IndexParamVideo":8673,"Library":8674,"HL":8675,"Ġacl":8676,"verage":8677,"snapshot":8678,"Started":8679,"Black":8680,"Ġagainst":8681,"Crash":8682,"_))":8683,"cork":8684,"Ġvec":8685,"Ġgreen":8686,"SizeType":8687,"OutOf":8688,"Ancestor":8689,"strncpy":8690,"Shell":8691,"FINISHED":8692,"recovery":8693,"unpack":8694,"():":8695,"rename":8696,"ĠFPDF":8697,"putc":8698,"Prop":8699,"precision":8700,"QuantumInfo":8701,"Ġblocksize":8702,"ĠWhen":8703,"ClampToQuantum":8704,"MLElement":8705,"Buff":8706,"Ġchanges":8707,"clnt":8708,"UnLock":8709,"Ġblue":8710,"ReadBlobByte":8711,"ĠFLAC":8712,"Theme":8713,"_),":8714,"ĠNT":8715,"GetPage":8716,"Ġ';":8717,"COOK":8718,"Ġsyscall":8719,"ĠReadBlobByte":8720,"CString":8721,"Common":8722,"RI":8723,"reload":8724,"argument":8725,"ĠkMax":8726,"started":8727,"Ġbased":8728,"APIC":8729,"ULONG":8730,"bytep":8731,"EndOf":8732,"nfsd":8733,"GetNextImageInList":8734,"gctx":8735,"expr":8736,"Ġreader":8737,"ĠCIFS":8738,"Behavior":8739,"ĠCloseBlob":8740,"Pix":8741,"wer":8742,"wind":8743,"ymous":8744,"imf":8745,"ĉĉĉĉĉĉĠĠĠ":8746,"ĠTry":8747,"Ġdispatch":8748,"branch":8749,"ArrayBuffer":8750,"Accelerated":8751,"sthrough":8752,"Click":8753,"rem":8754,"Ġmxf":8755,"Ġproper":8756,"QuantumPixels":8757,"Ġwebview":8758,"PFMT":8759,"Ġimapd":8760,"VPN":8761,"wddx":8762,"Ġnf":8763,"ENOT":8764,"scri":8765,"tlb":8766,"notification":8767,"Ġattrib":8768,"Ġside":8769,"Ġsimple":8770,"ĠIPv":8771,"RATE":8772,"forms":8773,"prc":8774,"FAST":8775,"Ġzone":8776,"webview":8777,"Ġmailbox":8778,"lz":8779,"Ġscaled":8780,"Ġjournal":8781,"roadcast":8782,"ĠQu":8783,"ĠURI":8784,"Ġcancel":8785,"ndup":8786,"Ġoffsets":8787,"SAVE":8788,"PLUGIN":8789,"Ġarch":8790,"stub":8791,"ros":8792,"Ġstored":8793,"Ġoffsetof":8794,"Permissions":8795,"AVA":8796,"PRESSED":8797,"Ġfil":8798,"Ġhc":8799,"tered":8800,"ĠEd":8801,"cursive":8802,"Ġ<<=":8803,"DOUBLE":8804,"PROTOCOL":8805,"NCompare":8806,"cannot":8807,"Ġ50":8808,"Ġcairo":8809,"agram":8810,"ADM":8811,"Ġweech":8812,"ĠObject":8813,"clients":8814,"Ġimport":8815,"ILIMF":8816,"Ġweechat":8817,")];":8818,"GPU":8819,"isNull":8820,"Ġdiv":8821,"lies":8822,"ALERT":8823,"---":8824,"permission":8825,"Ġvs":8826,"ĠVLOG":8827,"pcu":8828,"ponent":8829,"ami":8830,"Allocate":8831,">=":8832,"Called":8833,"lun":8834,"android":8835,"ĠShould":8836,"Ġremoved":8837,"ĠDid":8838,"ecc":8839,"0000000":8840,"ĠMAILIMF":8841,"PIPE":8842,"PrintPreview":8843,"AgentHost":8844,"Ġslave":8845,"Wand":8846,"lev":8847,"ĠSS":8848,"BITMAP":8849,"LocaleNCompare":8850,"Ġsimpl":8851,"tgt":8852,"ĠIntRect":8853,"INSERT":8854,"ascript":8855,"cer":8856,"setsockopt":8857,"ofp":8858,"span":8859,"ERRNO":8860,"newinfo":8861,"Unicode":8862,"Ġchecked":8863,"CALLED":8864,"Ġdidn":8865,"ĠSecurity":8866,"NA":8867,"Ġ=>":8868,"utime":8869,"ales":8870,"Ġwithin":8871,"ĠLL":8872,"chn":8873,"ĠTH":8874,"Ġyr":8875,"rectangle":8876,"Ġcomment":8877,"vironment":8878,"Closure":8879,"vis":8880,"ĉĉĊ":8881,"Ġbh":8882,"foreach":8883,"SIC":8884,"avascript":8885,"Ġextract":8886,"operation":8887,"59":8888,"BAND":8889,"sctx":8890,"stp":8891,"imal":8892,"Ġknown":8893,"PROM":8894,"SYSTEM":8895,"POINTER":8896,"itespace":8897,"ĠExecute":8898,"Bt":8899,"UMA":8900,"bps":8901,"guint":8902,"atin":8903,"itTest":8904,"Indic":8905,"ToImpl":8906,"Throttle":8907,"ContentClient":8908,"ĠResourceRequest":8909,"Resolution":8910,"QQuickWebView":8911,"ike":8912,"nh":8913,"xd":8914,"adient":8915,"Ġfm":8916,"Ġnative":8917,"peek":8918,"ATFORM":8919,"Ġdeterm":8920,"states":8921,"vmcb":8922,"Ġshader":8923,"InputMethod":8924,"algo":8925,"caten":8926,"ĠVIRTIO":8927,"ĠSTACK":8928,"DOCUMENT":8929,"bss":8930,"generate":8931,"hort":8932,"Ġedge":8933,"Ġwell":8934,"ĠDet":8935,"PROP":8936,"ppy":8937,"Preload":8938,"Orientation":8939,"Dig":8940,"GetURL":8941,"scape":8942,"arguments":8943,"ĠWR":8944,"Ġtrailing":8945,"ĠHTMLMediaElement":8946,"ept":8947,"nic":8948,"Ġgles":8949,"DELETE":8950,"SECURITY":8951,"Ġscatter":8952,"LISTEN":8953,"MISC":8954,"href":8955,"preempt":8956,"rbuf":8957,"Ġenter":8958,"enes":8959,"arrier":8960,"Ġshash":8961,"))));":8962,"Ġoverride":8963,"ĠDMA":8964,"ĠDirect":8965,"Ġtemporary":8966,"Addr":8967,"Ġmatches":8968,"Malloc":8969,"ranges":8970,"alone":8971,"ĠpType":8972,"ĠMutex":8973,"OnValid":8974,"Accept":8975,"Primitive":8976,"OnValidThread":8977,"\"(":8978,"TARGET":8979,"balance":8980,"wifi":8981,"ĠUTF":8982,"reuse":8983,"atom":8984,"strument":8985,"Ġdaddr":8986,"Ġdrm":8987,"DESC":8988,"beg":8989,"Ġscene":8990,"SHAD":8991,"Watch":8992,"`%":8993,"bably":8994,"ws":8995,"cos":8996,"ĠBu":8997,"matched":8998,"TIFIC":8999,"SERVICE":9000,"ĠPROTO":9001,"overlay":9002,"SIGNAL":9003,"Ġmatrix":9004,"ciphers":9005,"TIFICATE":9006,"39":9007,"KIT":9008,"viff":9009,"deleted":9010,"setInt":9011,"ĠHZ":9012,"tpg":9013,"Stylesheet":9014,"digits":9015,"public":9016,")==":9017,"wp":9018,"orami":9019,"arb":9020,"ĠEINVAL":9021,"disposition":9022,"ppp":9023,"Parsing":9024,"BlockFlow":9025,"soap":9026,"annotate":9027,"inux":9028,"ength":9029,"Ġmbox":9030,"Ġreferrer":9031,"bitstream":9032,"ĠWebMediaPlayer":9033,"xmlFree":9034,"Ġposix":9035,"ĠCMYK":9036,"dType":9037,"onical":9038,"alar":9039,"Ġplay":9040,"Ġgeneric":9041,"Ġrr":9042,"aving":9043,"WriteBlob":9044,"FLUSH":9045,"Splash":9046,"truncate":9047,"distance":9048,"Ġctl":9049,"Ġfast":9050,"ĠMLX":9051,"Ġtypes":9052,"OKAY":9053,"Ġphase":9054,"marker":9055,"Ġmegasas":9056,"RDONLY":9057,"batch":9058,"histogram":9059,"jng":9060,"ĠFM":9061,"EnabledFeatures":9062,"tiles":9063,"Ġdirty":9064,"DM":9065,"Pred":9066,"calloc":9067,"hot":9068,"ndev":9069,"sRGB":9070,"Ġtcon":9071,"Ġfinish":9072,"GetType":9073,"Conversion":9074,"Ġnetlink":9075,"oramiX":9076,"CV":9077,"GT":9078,"lation":9079,"Ġ(--":9080,"Ġ*/);":9081,"Ġgenerate":9082,"acer":9083,"scaling":9084,"ĠEFFECT":9085,"relse":9086,"DTLS":9087,"NF":9088,"Ġ\\\"":9089,"Ġnid":9090,"structure":9091,"eskt":9092,"plug":9093,"mplex":9094,"prep":9095,"LogDebug":9096,"Autolock":9097,"VideoCaptureError":9098,"CERTIFICATE":9099,"Section":9100,"nat":9101,"intel":9102,"Ġ18":9103,"Ġkeylen":9104,"ĠKADM":9105,"Apply":9106,"RealType":9107,"hread":9108,"Ġsoft":9109,"Ġflo":9110,"Ġ'\"":9111,"Ġcurrently":9112,"Ġvia":9113,"variable":9114,"ArgMethod":9115,"WritingMode":9116,"JOB":9117,"will":9118,"ascii":9119,"reached":9120,"Ġarea":9121,"ALT":9122,"Ġhad":9123,"FOREACH":9124,"Ġmailimf":9125,"Ġcondition":9126,"Put":9127,"ingObject":9128,"Ġdrep":9129,"Inspector":9130,"GetFor":9131,"ĠWait":9132,"MAIN":9133,"Ġshadow":9134,"seqid":9135,"SCSI":9136,"sighand":9137,"Ġoccur":9138,"Ġtv":9139,"ĠMAT":9140,"Ġefx":9141,"StateChanged":9142,"PortDef":9143,"rieve":9144,"lptr":9145,"ĠDest":9146,"times":9147,"blkcipher":9148,"ĠPseudoClass":9149,"esktop":9150,"Ġtif":9151,"mss":9152,"SetReturnValue":9153,"StyleSheet":9154,"Ġobjects":9155,"pgd":9156,"ĠWriteBlobMSBShort":9157,"ternate":9158,"68":9159,"QUI":9160,"xar":9161,"ibility":9162,"ĠWebFeature":9163,"Ġunix":9164,"xmlParse":9165,"which":9166,"Ġopener":9167,"rules":9168,"Ġcalling":9169,"Ġviewport":9170,"bindings":9171,"xmlGenericErrorContext":9172,"FRM":9173,"OFP":9174,"oo":9175,"xref":9176,"Ġic":9177,"GETARG":9178,"Ġplane":9179,"DISK":9180,"Ġbytestream":9181,"TexSubImage":9182,"ĠBITS":9183,"ParserCtxtPtr":9184,"Repeating":9185,"Irp":9186,"Language":9187,"aio":9188,"Ġpcm":9189,"ĠĠĠĠĠĠĠĠĠĠĠĠĠĠĠĠĠĠĠĠĠĠĠĠĠĠĠĠĠĠĠĠĠĠĠĠĠĠĠĠĠĠĠĠĠĠĠĠĠĠĠ":9190,"Encoder":9191,"Ġofproto":9192,"IGNORE":9193,"confirm":9194,"ĠScale":9195,"65":9196,"Atom":9197,"EF":9198,"Io":9199,"Mime":9200,"Opaque":9201,"POP":9202,"PIC":9203,"]<<":9204,"gap":9205,"jmp":9206,"nto":9207,"asses":9208,"Information":9209,"Ġgit":9210,"ĠĠĠĠĠĠĠĠĠĠĠĠĠĠĠĠĠĠĠĠĠĠĠĠĠĠĠĠĠĠĠĠĠĠĠĠĠĠĠĠĠĠĠĠĠĠĠĠĠĠĠĠ":9211,"MAKE":9212,"ĠBo":9213,"Defn":9214,"queues":9215,"RequestContext":9216,"flowi":9217,"ĠTabContents":9218,"LC":9219,"Syn":9220,"cJSON":9221,"Ġsending":9222,"Ġbug":9223,"tran":9224,"ĠmCodec":9225,"ADMIN":9226,"registry":9227,"ClientPtr":9228,"Ġlisten":9229,"Processing":9230,"Ġstrings":9231,"Ġcolormap":9232,"XXX":9233,"Editable":9234,"Ġfocus":9235,"ategy":9236,"Ġlower":9237,"ordered":9238,"strto":9239,"Ġlp":9240,"regex":9241,"Ġupdated":9242,"Ġdat":9243,"Ġremain":9244,"VERT":9245,"IRPD":9246,"IRPDCAP":9247,"cdev":9248,"sPer":9249,"decompress":9250,"etype":9251,"ĠTASK":9252,"Ġtouch":9253,"scanner":9254,"Enter":9255,"subtype":9256,"cmpts":9257,"Ġmsghdr":9258,"folder":9259,"ATTACHMENT":9260,"UTIL":9261,"Constructor":9262,"princ":9263,"Selector":9264,"Disposition":9265,"Ġperform":9266,"polygon":9267,"Ġagent":9268,"Ġmddev":9269,"CFG":9270,"Playback":9271,"generation":9272,"suffix":9273,"ots":9274,"ĠMock":9275,"Ġchars":9276,"newsk":9277,"tasks":9278,"ResourceRequest":9279,"Ġminimum":9280,"PICT":9281,"shell":9282,"Used":9283,"hy":9284,"rth":9285,"anity":9286,"ĠSAS":9287,"ĠCARD":9288,"ofpact":9289,"ĠForm":9290,"percpu":9291,"Ġactiv":9292,"RR":9293,"urm":9294,"intent":9295,"Ġdns":9296,"Ġrepeat":9297,"ipeline":9298,"Ġengine":9299,"Ġusername":9300,"PHY":9301,"pgoff":9302,"Detach":9303,"Ġdescription":9304,"propri":9305,"Multi":9306,"ĠREG":9307,"orphan":9308,"adv":9309,"application":9310,"Ġ19":9311,"voidMethod":9312,"Ġhlen":9313,"ĠCamera":9314,"ĠIFF":9315,"htable":9316,"Ġexpi":9317,"Accessor":9318,"ĠCOMPRESSION":9319,"NONBLOCK":9320,"Finished":9321,"TLE":9322,"nick":9323,"pptr":9324,"Ġcss":9325,"edThis":9326,"Ġraster":9327,"scenes":9328,"allocation":9329,"ErrorMessage":9330,"urls":9331,"Ġapplication":9332,"SCALE":9333,"BOUND":9334,"rendering":9335,"Ġioctl":9336,"CRYPTO":9337,"Comment":9338,"KeyboardEvent":9339,"BB":9340,"dent":9341,"flip":9342,"hz":9343,"Ġsdb":9344,"Ġrequire":9345,"ĠPost":9346,"SECONDARY":9347,"ĠGfx":9348,"ĠOS":9349,"WebString":9350,"Ġendpoint":9351,"USAGE":9352,"Ġcomps":9353,"Ġrout":9354,"globals":9355,"cryptoctx":9356,"Monitor":9357,"Termin":9358,"suspend":9359,"adj":9360,"adap":9361,"ĠSy":9362,"Ġrequires":9363,"llx":9364,"eedback":9365,"UShort":9366,"ĠxmlParse":9367,"Interval":9368,"PassRefPtr":9369,"dist":9370,"plen":9371,"ison":9372,"ĠName":9373,"Ġide":9374,"ĠMo":9375,"backend":9376,"UNIX":9377,"APDU":9378,"DIGEST":9379,"ĠTIFFTAG":9380,"GetImageOption":9381,"catenate":9382,"HB":9383,"VCPU":9384,"literal":9385,"rval":9386,"Ġpublic":9387,"GetProcess":9388,"Ġforward":9389,"ĠOT":9390,"Ġerrmsg":9391,"ContentSecurityPolicy":9392,"TIFFReadDirEntry":9393,"strerror":9394,"Ġtlen":9395,"ressive":9396,"ays":9397,"Ġdoing":9398,"Ġexternal":9399,"paramData":9400,"MSLE":9401,"hwc":9402,"AutoLock":9403,"may":9404,"Ġfake":9405,"Ġaura":9406,"ORIG":9407,"Ġhns":9408,"ĠMRB":9409,"ives":9410,"Ġattempt":9411,"ĠJPC":9412,"Invalidate":9413,"MSGSIZE":9414,"Ġfreed":9415,"Ġ'+')":9416,"ACCEPT":9417,"COR":9418,"inbuf":9419,"megasas":9420,"asprintf":9421,"transparent":9422,"Ġdn":9423,"ForTesting":9424,"CommandOption":9425,"pended":9426,"SOFT":9427,"Dup":9428,"GData":9429,"Hide":9430,"ĠUNUSED":9431,"leave":9432,"Ġbps":9433,"procs":9434,"Protot":9435,"startup":9436,"ldap":9437,"xmlChar":9438,"Ġcaps":9439,"Prototype":9440,"Ġcrc":9441,"Ġpast":9442,"ERAL":9443,"Ġrestart":9444,"ableArea":9445,"cpuctx":9446,"ĠEnd":9447,"Ġkdb":9448,"ĠBlock":9449,"Extract":9450,"UNIT":9451,"Att":9452,"ĠInsert":9453,"minimum":9454,"Ġshare":9455,"ĠPROP":9456,"nego":9457,"Ġpmcraid":9458,"Ho":9459,"Lifecycle":9460,"MR":9461,"hit":9462,"ulus":9463,"ARB":9464,"Ġproceed":9465,"IsEnabled":9466,"ĠjsValue":9467,"egotiate":9468,"FormControlElement":9469,"GetVirtualPixels":9470,"RSP":9471,"Ġ),":9472,"anim":9473,"ĠNum":9474,"Ġrdma":9475,"sport":9476,"ĠĠĠĠĠĠĠĠĠĠĠĠĠĠĠĠĠĠĠĠĠĠĠĠĠĠĠĠĠĠĠĠĠĠĠĠĠĠĠĠĠĠĠĠĠĠĠĠĠĠĠĠĠ":9477,"Ġvfs":9478,"userData":9479,"pause":9480,"Ġ30":9481,"ĉĉĉĉĉĉĠĠ":9482,"POSIX":9483,"TreeNode":9484,"ProvisionalLoad":9485,"ICT":9486,"sinfo":9487,"added":9488,"Ġnfc":9489,"INK":9490,"ĠSY":9491,"Ġreceive":9492,"GetFirst":9493,"dices":9494,"\")-":9495,"MediaStream":9496,"GestureEvent":9497,"Final":9498,"Milliseconds":9499,"inner":9500,"Ġti":9501,"nonce":9502,"Utils":9503,"Ġpoll":9504,"Gen":9505,"QP":9506,"bgp":9507,"Ġtee":9508,"Ġ'<":9509,"ObjectCache":9510,"SCREEN":9511,"Ġchunks":9512,"Browsing":9513,"CG":9514,"CLOCK":9515,"Cross":9516,"pChn":9517,"ubuf":9518,"Ġcapture":9519,"undo":9520,"Intent":9521,"REPORT":9522,"ĠMaybe":9523,"++=(":9524,"Tool":9525,"((*":9526,"Ġless":9527,"crease":9528,"scanline":9529,"ARGUMENT":9530,"activate":9531,"imensions":9532,"Gfx":9533,"cstate":9534,"fuse":9535,"pblock":9536,"tuple":9537,"Ġmuch":9538,"Ġdm":9539,"ĠSAFNUM":9540,"opend":9541,"Ġgamma":9542,"ĠĠĠĠĠĠĠĠĠĠĠĠĠĠĠĠĠĠĠĠĠĠĠĠĠĠĠĠĠĠĠĠĠĠĠĠĠĠĠĠĠĠĠĠĠĠĠĠĠĠĠĠĠĠ":9543,"BUTT":9544,"ĠHow":9545,"Ġlonger":9546,"tracks":9547,"myDoc":9548,"pkcs":9549,"going":9550,"steps":9551,"CalledOnValidThread":9552,"LVM":9553,"mbox":9554,"sense":9555,"visual":9556,"Ġmlx":9557,"upload":9558,"ayment":9559,"Ġgray":9560,"ĠDW":9561,"Ġemit":9562,"ĠHID":9563,"chedule":9564,"ĠNODE":9565,"Binder":9566,"BROW":9567,"Preferred":9568,"STY":9569,"ĠCLA":9570,"Ġdecl":9571,"cursion":9572,"users":9573,"NEGO":9574,"symlink":9575,"achine":9576,"Ġpointers":9577,"ĠState":9578,"CALLBACK":9579,"Bundled":9580,"ĠRUNTIME":9581,"BUTTON":9582,"csk":9583,"salt":9584,"uture":9585,"GetRoutingID":9586,"Ġins":9587,"ĠPORT":9588,"MagickRealType":9589,"ufficient":9590,"density":9591,"SZ":9592,"TUN":9593,"[*":9594,"lush":9595,"imize":9596,"Ġhub":9597,"Ġrad":9598,"ĠEns":9599,"Ġstderr":9600,"KeyEvent":9601,"operations":9602,"ĠCompos":9603,"Ġthose":9604,"Ġpgsql":9605,"RS":9606,"vui":9607,"engine":9608,"Ġcare":9609,"Ġciph":9610,"STOR":9611,"ĠMOP":9612,"SSH":9613,"answer":9614,"ENDOR":9615,"ĠZIP":9616,"Ġquota":9617,"increment":9618,"ĠThrowMSLE":9619,"ĠASCII":9620,"EXCEPTION":9621,"ĠThrowMSLException":9622,"\".":9623,"Wrap":9624,"orientation":9625,"Ġprom":9626,"ptype":9627,"Ġob":9628,"Ġhardware":9629,"ĠCAP":9630,"TabStrip":9631,"BODY":9632,"APPEND":9633,"ĠAppCache":9634,"VED":9635,"pname":9636,"++=":9637,"Ġitself":9638,"Ġchecking":9639,"READY":9640,"AppCache":9641,"gdImagePtr":9642,"Snapshot":9643,"MUT":9644,"sandbox":9645,"alified":9646,"Ġsaddr":9647,"mpeg":9648,"construct":9649,"REL":9650,"ĠColor":9651,"Ġdecoded":9652,"Mogrify":9653,"ĠExceptionInfo":9654,"loadedMethod":9655,"Ġnegative":9656,"eprintf":9657,"xide":9658,"Ġfamily":9659,"Ġbb":9660,"ĠSource":9661,"Ġ(!*":9662,"ĠPS":9663,"ĠMark":9664,"Promise":9665,"BrowserClient":9666,"ĠSCLogDebug":9667,"Ġblack":9668,"versal":9669,"FFFFFF":9670,"Secure":9671,"Face":9672,"ATH":9673,"ISO":9674,"BufferSize":9675,"metric":9676,"encap":9677,"AddObserver":9678,"Ġhostname":9679,"UserGesture":9680,"Ġvalidators":9681,"Edge":9682,"lifetime":9683,"MISSING":9684,"Br":9685,"eps":9686,"hes":9687,"Ġmanifest":9688,"apsed":9689,"Ġaa":9690,"avpack":9691,"DIV":9692,"MSBEndian":9693,"Associated":9694,"itude":9695,"Ca":9696,"JOR":9697,"stmt":9698,"Ġ17":9699,"ĉĉĉĉĉĉĉĉĉ":9700,"ĠBit":9701,"OBSERVER":9702,"Ġiovec":9703,"Ġlibrary":9704,"regno":9705,"Ġpower":9706,"Ġfutex":9707,"ically":9708,"verbs":9709,"Ġrace":9710,"ĠIMAP":9711,"TRUNC":9712,"ImageData":9713,"ViewHostMsg":9714,"Ġ31":9715,"PREFIX":9716,"Ġblkcipher":9717,"Shelf":9718,"glyphs":9719,"ĠAPLOG":9720,"Ġcsum":9721,"Ġcirc":9722,"retrans":9723,"Ġreturns":9724,"getsockopt":9725,"sktop":9726,"avc":9727,"Ġexact":9728,"SHOW":9729,"************":9730,"Ġwindows":9731,"ensitive":9732,"Failure":9733,"SINGLE":9734,"Ġscatterlist":9735,"45":9736,"fci":9737,"tre":9738,"Ġtw":9739,"Ġbgp":9740,"001":9741,"Ġgets":9742,"PARENT":9743,"Ġshm":9744,"Upload":9745,"Ġentire":9746,"Ġbeginning":9747,"ĠEnsure":9748,"sink":9749,"Ġicmp":9750,"online":9751,"Ġspice":9752,"Uns":9753,"clientid":9754,"Ġanon":9755,"LAYER":9756,"POSITION":9757,"GraphicsContext":9758,"ALOGV":9759,"VENDOR":9760,"funcs":9761,"iro":9762,"pan":9763,"builder":9764,"ird":9765,"counts":9766,"indic":9767,"Compute":9768,"BlobMode":9769,"ĠJBIG":9770,"CURLOPT":9771,"limits":9772,"((\"":9773,"RIGHT":9774,"vfs":9775,"Ġtid":9776,"Ġ\"'":9777,"Ġthreshold":9778,"Ġxp":9779,"Ġ'>":9780,"PROPER":9781,"Ġ/=":9782,"cairo":9783,"Ġtransition":9784,"DestroyString":9785,"Bucket":9786,"TRANSITION":9787,"RenderFrameHost":9788,"YYCURSOR":9789,"EXPECTED":9790,"DLS":9791,"DNS":9792,"unable":9793,"utation":9794,"edges":9795,"ffine":9796,"Ġman":9797,"RESER":9798,"Processor":9799,"windows":9800,"tabs":9801,"Ġupper":9802,"StyleRecalc":9803,"Verify":9804,"xFFFF":9805,"BinaryBlobMode":9806,"rock":9807,"Ġdesired":9808,"readAt":9809,"ĠĠĠĠĠĠĠĠĠĠĠĠĠĠĠĠĠĠĠĠĠĠĠĠĠĠĠĠĠĠĠĠĠĠĠĠĠĠĠĠĠĠĠĠĠĠĠĠĠĠĠĠĠĠĠĠ":9810,"Scan":9811,"dpy":9812,"profiles":9813,"ENCIL":9814,"FeatureList":9815,"Clipboard":9816,"ConsoleMessage":9817,"ĠLocalFrame":9818,"GR":9819,"rfh":9820,"wpc":9821,"za":9822,"anoramiX":9823,"Ġbsize":9824,"trusted":9825,"Required":9826,"Ġdead":9827,"ipp":9828,"())->":9829,"ĠUDP":9830,"Member":9831,"ThreadImpl":9832,"*)&":9833,"EXITING":9834,"negot":9835,"ALGOR":9836,"Abs":9837,"Sm":9838,"Ġ(++":9839,"Ġfclose":9840,"uspended":9841,"STENCIL":9842,"DOMWindow":9843,"tcph":9844,"utils":9845,"WARE":9846,"gpio":9847,"mixer":9848,"BundledContext":9849,"??":9850,"Soft":9851,"XP":9852,"dle":9853,"pBundledContext":9854,"ĠLOOKUP":9855,"Ġbottom":9856,"Ġmerge":9857,"ĠMK":9858,"cols":9859,"OTHER":9860,"cbc":9861,"xmlStr":9862,"Ġmojo":9863,"OSQ":9864,"Ġwriting":9865,"Ġhandling":9866,"BSD":9867,"CANCE":9868,"EAD":9869,"oz":9870,"locks":9871,"rip":9872,"sprite":9873,"ĠRed":9874,"Ġproperties":9875,"mbentry":9876,"Requests":9877,"BIND":9878,"ĠCompute":9879,"Ġproblem":9880,"Ġsigned":9881,"leared":9882,"iration":9883,"BUILD":9884,"Ġfails":9885,"72":9886,"HS":9887,"Utf":9888,"ade":9889,"ccb":9890,"pq":9891,"anular":9892,"explicit":9893,"Ġblend":9894,"four":9895,"icit":9896,"Ġocfs":9897,"GetID":9898,"ĠPL":9899,"ĠMOSQ":9900,"Ġudf":9901,"UNSIGNED":9902,"pud":9903,"ansparen":9904,"NavigationPolicy":9905,"skipped":9906,"tga":9907,"suer":9908,"interruptible":9909,"ĠUndefinedPixelTrait":9910,"ĠPROTOCOL":9911,"ansparency":9912,"Manifest":9913,"fput":9914,"graphic":9915,"large":9916,"aging":9917,"isofs":9918,"chm":9919,"extended":9920,"Ġinteger":9921,"ĠCDF":9922,"LEASE":9923,"Signin":9924,"scheduler":9925,"sections":9926,"*>":9927,"bidden":9928,"Ġ]":9929,"erved":9930,"uncompressed":9931,"Removed":9932,"regset":9933,"socks":9934,"ĠWebPlugin":9935,"Ġ(\"%":9936,"calldata":9937,"szTmp":9938,"reachable":9939,"='\\":9940,"Ġauthentication":9941,"anularity":9942,"bpp":9943,"Ġitems":9944,"Ġftrace":9945,"chk":9946,"Ġ\";":9947,"Ġdemux":9948,"isters":9949,"ynamic":9950,"SETUP":9951,"Ġ(*(":9952,"eterm":9953,"fullscreen":9954,"ScaleQuantumToChar":9955,"Ġfactory":9956,"Ġwhole":9957,"pak":9958,"ĠHW":9959,"ViewMsg":9960,"Ġcurve":9961,"ĠWebString":9962,"Ġpermissions":9963,"ĠZSTR":9964,"Ġnfserr":9965,"mios":9966,"ĠMOV":9967,"Ġlines":9968,"AutomationProvider":9969,"Are":9970,"IFF":9971,"dct":9972,"xb":9973,"stit":9974,"isk":9975,"asconf":9976,"GetBrowserContext":9977,"ĠCurl":9978,"Ġlxc":9979,"DECL":9980,"Ġvolume":9981,"printer":9982,"ĠLine":9983,"ĠGetNext":9984,"NodeSet":9985,"DROP":9986,"TextInput":9987,"MULTICAST":9988,"Alignment":9989,"bprm":9990,"brelse":9991,"reverse":9992,"Ġmx":9993,"RenderWidgetHostView":9994,"when":9995,"sibly":9996,"scrollbar":9997,"Ġbinary":9998,"VirtualMemory":9999,"ĠAppend":10000,"WillBe":10001,"CRED":10002,"PSK":10003,"dts":10004,"Ġppp":10005,"STEP":10006,"Confirm":10007,"LIKE":10008,"Ġunless":10009,"THE":10010,"SCAN":10011,"ĠportIndex":10012,"exists":10013,"StringToDouble":10014,"OLUME":10015,"06":10016,"Db":10017,"GER":10018,"kcipher":10019,"pur":10020,"venc":10021,"Ġer":10022,"strndup":10023,"ptl":10024,"asm":10025,"foo":10026,"umb":10027,"ĠCC":10028,"Ġrdev":10029,"ĠDNS":10030,"percent":10031,"IsNull":10032,"Ġalt":10033,"fclose":10034,"certificate":10035,"synchron":10036,"MODULE":10037,"Ġdetermine":10038,"LIKELY":10039,")]":10040,"Closed":10041,"GH":10042,"gif":10043,"rand":10044,"Ġwp":10045,"irk":10046,"ĠJAS":10047,"Adapter":10048,"ReadBlobLSBShort":10049,"AcquireImage":10050,"ĠFLAG":10051,"Ġcomponents":10052,"HEVCD":10053,"Structure":10054,"QUOTA":10055,"Ax":10056,"DECLA":10057,"ĠMD":10058,"Chain":10059,"parsing":10060,"words":10061,"Ġattrs":10062,"ScriptValue":10063,"Ġprovided":10064,"ĠDestroy":10065,"vf":10066,"Ġ*_":10067,"ĠpParam":10068,"strlcpy":10069,"Ġsadb":10070,"ĠSite":10071,"ĠFREE":10072,"Cookies":10073,"Ġ200":10074,"Ġappropri":10075,"Ġ'\\\\":10076,"Ġinterval":10077,"POW":10078,"Ġcolumns":10079,"Ġdirectly":10080,"REQUIRED":10081,"VLAN":10082,"dport":10083,"horizontal":10084,"Ġcpp":10085,"striction":10086,"ĠBut":10087,"Experiment":10088,"Ġcome":10089,"Ġrot":10090,"hooks":10091,"ĠThrowMogrify":10092,"letter":10093,"dtd":10094,"PROGRESS":10095,"STORAGE":10096,"EMSGSIZE":10097,"NR":10098,"Preferences":10099,"hptr":10100,"paddr":10101,"Ġsaf":10102,"ptep":10103,"Ġomx":10104,"ORI":10105,"ITLE":10106,"pond":10107,"Ġatom":10108,"ThreadTaskRunner":10109,"NAMESPACE":10110,"CAPT":10111,"042":10112,"Printing":10113,"Ġdigest":10114,"Abort":10115,"Ġprecision":10116,"NEGOTI":10117,"ral":10118,"detail":10119,"Ġdrive":10120,"ContextMenu":10121,"rtimer":10122,"Ġunable":10123,"(!(":10124,"ĠNOTI":10125,"MSBLong":10126,"Ġexpand":10127,"Application":10128,"STYLE":10129,"Cor":10130,"latency":10131,"sur":10132,"depend":10133,"Ġtl":10134,"Ġturn":10135,"Ġbg":10136,"Ġinside":10137,"ITT":10138,"bitmask":10139,"CODER":10140,"Rects":10141,"CMF":10142,"LINUX":10143,"ĠSetPixelGreen":10144,"fetcher":10145,"ĠIndexedDB":10146,"Artifact":10147,"FilledLen":10148,"best":10149,"fence":10150,"Ġest":10151,"arse":10152,"itelist":10153,"illegal":10154,"ĠPacket":10155,"IDLE":10156,"ĠHASH":10157,"SPL":10158,"DBus":10159,"posix":10160,"OpenBlob":10161,"ĠSetPixelRed":10162,"ĠWRITE":10163,",_":10164,"FR":10165,"rmt":10166,"Ġtt":10167,"Ġpatch":10168,"Ġwarning":10169,"Ġihevcd":10170,"ducer":10171,"Ġkeyring":10172,"Ġaddresses":10173,"grab":10174,"ĠOPT":10175,"busy":10176,"ĠSetPixelBlue":10177,"SWAP":10178,"existing":10179,"Ġemulate":10180,")].":10181,"Wallpaper":10182,"reloc":10183,"infile":10184,"Ġbtm":10185,"Ġtrigger":10186,"MAJOR":10187,"freep":10188,"ANGLE":10189,"avicon":10190,"Ġprobably":10191,"Comps":10192,"aking":10193,"ĠHTMLInputElement":10194,"Ġmpi":10195,"attached":10196,"Api":10197,"BTRFS":10198,"completed":10199,"ĠFailed":10200,"prox":10201,"ĠAUTH":10202,"ĠRSA":10203,"ĠRGB":10204,"rlim":10205,"COMPRESSED":10206,"Ġpersistent":10207,"Ġanyway":10208,"Ġgrab":10209,"datagram":10210,"ĠNavigationController":10211,"MetricsAction":10212,"CX":10213,"Low":10214,"closed":10215,"wnd":10216,"Ġperson":10217,"lipp":10218,"avity":10219,"llc":10220,"WebServer":10221,"Ġtimespec":10222,"ĠDisplay":10223,"Ġassociation":10224,"ĠSNMP":10225,"ĠService":10226,"router":10227,"ĠCommandLine":10228,"PAD":10229,"Ġcustom":10230,"ittle":10231,"Ġpb":10232,"Ġexif":10233,"Under":10234,"Isolated":10235,"TAIN":10236,"Ġblocked":10237,"missing":10238,"msrs":10239,"Passthrough":10240,"reconnect":10241,"Ġ('":10242,"ories":10243,"Ġclock":10244,"isContextLost":10245,"ĠIDR":10246,"ĠRFCOMM":10247,"mdb":10248,"cpuid":10249,"ErrorUnsupported":10250,"Ġdatabase":10251,"EventHandler":10252,"reqs":10253,"ntl":10254,"NEED":10255,"ignoring":10256,"caped":10257,"ĠwebView":10258,"Bitrate":10259,"pgsm":10260,"RootWindow":10261,"relative":10262,"nBufferCount":10263,"PAN":10264,"]+":10265,"kWeb":10266,"animation":10267,"infolist":10268,"ĠPT":10269,"ĠAN":10270,"extents":10271,"Recorder":10272,"delegation":10273,"etermine":10274,"GSS":10275,"NV":10276,"PDU":10277,"fac":10278,"motion":10279,"rac":10280,"Ġelf":10281,"Ġldb":10282,"ĠWITH":10283,"duce":10284,"rtt":10285,"levels":10286,"delim":10287,"mediately":10288,"Ġ512":10289,"DOMAIN":10290,"Ġminor":10291,"ShortToQuantum":10292,"Ġhandshake":10293,"HEVC":10294,"aCl":10295,"cwd":10296,"ili":10297,"pdata":10298,"psk":10299,"aring":10300,"Ġtunnel":10301,"verter":10302,"Ġdeli":10303,"Ġsem":10304,"OTH":10305,"Ġzoom":10306,"AddValue":10307,"Ġcalls":10308,"Ġprimary":10309,"Editing":10310,"Ġacces":10311,"Ġcontaining":10312,"Pipe":10313,"dsa":10314,"iucv":10315,"pScreen":10316,"ider":10317,"ENTR":10318,"Ġgre":10319,"Ġlz":10320,"refresh":10321,"flate":10322,"TIMESTAMP":10323,"resolve":10324,"ĠSelection":10325,"Grab":10326,"When":10327,"Ġbetter":10328,"LITTLE":10329,")\"));":10330,"PAL":10331,"dk":10332,"mBuffer":10333,"ARM":10334,"ĠISIS":10335,"Ġjng":10336,"IndexedDB":10337,"MTU":10338,"genl":10339,"CHANGED":10340,"WorldBindings":10341,"ĠvirCheck":10342,"ĠClone":10343,"RuntimeFeatures":10344,"655":10345,"Div":10346,"Mac":10347,"vg":10348,"ĠDEFAULT":10349,"semaphore":10350,"Ġtell":10351,"throttle":10352,"Ġdeleted":10353,"Ġfork":10354,"ErrorBad":10355,"Ġyoffset":10356,"ĠUChar":10357,"Ġencrypted":10358,"iterations":10359,"PAIR":10360,"Static":10361,"FocusedElement":10362,"tinuation":10363,"8042":10364,"Crypto":10365,"cdi":10366,"ftp":10367,"iDebug":10368,"nmi":10369,"sdev":10370,"wa":10371,"Ġask":10372,"ĠCall":10373,"Ġlarg":10374,"ĠPoint":10375,"splice":10376,"bufsize":10377,"plain":10378,"ERRORS":10379,"possible":10380,"dirs":10381,"Ġunique":10382,"CONNECTION":10383,"\",\"`%":10384,"Ġdccp":10385,"DST":10386,"Raster":10387,"eo":10388,"nFilledLen":10389,"pseudo":10390,"rat":10391,"ttl":10392,"aged":10393,"isample":10394,"asus":10395,"refcnt":10396,"Ġfilesystem":10397,"GLsizei":10398,"Ġloaded":10399,"GetPixelRed":10400,"RECV":10401,"mar":10402,"uverbs":10403,"elif":10404,"tracing":10405,"ĠFill":10406,"ĠIgn":10407,"rtc":10408,"Nodes":10409,"TimeStamp":10410,"webkit":10411,"Ġgood":10412,"ĠVMXNET":10413,"DELEGATE":10414,"PAS":10415,"Ty":10416,"frontend":10417,"rmap":10418,"zlib":10419,"anded":10420,"entropy":10421,"strcat":10422,"ĠCMD":10423,"SEQU":10424,"ĠAp":10425,"quency":10426,"ĠVFF":10427,"ROLE":10428,"blkno":10429,"Ġpermission":10430,"BTM":10431,"Ġpkinit":10432,"ierarch":10433,"ĠSplash":10434,"bw":10435,"sbuf":10436,"cookies":10437,"Ġinner":10438,"ĠGC":10439,"MET":10440,"UNLIKELY":10441,"reground":10442,"rams":10443,"links":10444,"Ġcompress":10445,"ĠNOTE":10446,"CLOSED":10447,"Ġdelayed":10448,"Ġticket":10449,"Datum":10450,"LP":10451,"TITLE":10452,"Ġtiff":10453,"ĠMOD":10454,"META":10455,"Force":10456,"compound":10457,"Ġunion":10458,"slash":10459,"ctls":10460,"Notifier":10461,"ĠDecode":10462,"CAPTURE":10463,"Generate":10464,"HID":10465,"kobj":10466,"mu":10467,"Ġutf":10468,"ĠDEFINE":10469,"eno":10470,"Ġcy":10471,"characters":10472,"COVER":10473,"maximum":10474,"Devices":10475,"bpf":10476,"Initialized":10477,"utomat":10478,"ĠszTmp":10479,"ĠcmsUInt":10480,"NPN":10481,"ĠBUILD":10482,"ĠsmartData":10483,"ĠHowever":10484,"Fix":10485,"Other":10486,"rle":10487,"sapi":10488,"Ġsender":10489,"ĠCVAR":10490,"devtools":10491,"ĠMNG":10492,"Trigger":10493,"Ġ\"%.":10494,"CLNT":10495,"passwd":10496,"Phar":10497,"!\",":10498,"Payload":10499,"odate":10500,"world":10501,"zrtp":10502,"Ġsandbox":10503,"rio":10504,"ĠFetch":10505,"ĠAll":10506,"psFilterNode":10507,"ĠHost":10508,"optarg":10509,"Ġadditional":10510,"ĠRenderBox":10511,"FORCE":10512,"ContentBrowserClient":10513,"ĠQString":10514,"COUNTS":10515,"TestInterfaceEmpty":10516,"CATCH":10517,"GN":10518,"LZ":10519,"vhost":10520,"Ġcff":10521,"Ġdecoding":10522,"keyboard":10523,"PEEK":10524,"Ġsel":10525,"IOContext":10526,"PACT":10527,"Mojo":10528,"Rectangle":10529,"Ġchildren":10530,"Ġworker":10531,"PASSWORD":10532,"-+-+-+-+-+-+-+-+-+-+-+-+-+-+-+-+":10533,"ĠWriteBlobMSBLong":10534,"machine":10535,"94":10536,"AMS":10537,"Belong":10538,"Dom":10539,"Pepper":10540,"nof":10541,"erator":10542,"iser":10543,"Stroke":10544,"ContextPtr":10545,"ĠWebURLRequest":10546,"Ġidle":10547,"Ġstarting":10548,"ĠJNI":10549,"Results":10550,"ImgBuff":10551,"Man":10552,"gate":10553,"Ġancestor":10554,"hema":10555,"isValid":10556,"ĠParam":10557,"LOT":10558,"Ġscheme":10559,"Ġmemcmp":10560,"eek":10561,"ById":10562,"Dirty":10563,"Seconds":10564,"opendata":10565,"So":10566,"Tell":10567,"Uint":10568,"ĠAcce":10569,"ĠWM":10570,"registered":10571,"Ġalias":10572,"ABL":10573,"connector":10574,"Phase":10575,"Ġrelative":10576,"mbedded":10577,"DN":10578,"kex":10579,"qtdemux":10580,"atime":10581,"arf":10582,"challenge":10583,"getParameter":10584,"SEL":10585,"aste":10586,"ioapic":10587,"numa":10588,"ERRORTYPE":10589,"axis":10590,"hdrs":10591,"offs":10592,"ManagerImpl":10593,"TERMIN":10594,"Backing":10595,"Drawable":10596,"Ġtrying":10597,"MARKER":10598,"ĠMediaStream":10599,"Ġalgorithm":10600,"Ġebt":10601,"Indicator":10602,"xmp":10603,"ĠNEXT":10604,"apr":10605,"Ġdrag":10606,"ĠSM":10607,"Ġgn":10608,"Ġ22":10609,"Ġstrcpy":10610,"Prepare":10611,"Ġmodified":10612,"LITERAL":10613,"Ġcompositor":10614,"CAL":10615,"Mon":10616,"ah":10617,"ism":10618,"Ġ\"));":10619,"INLINE":10620,"ĠSA":10621,"tfr":10622,"Ġmultip":10623,"Vertical":10624,"LVAL":10625,"bulk":10626,"where":10627,"Ġcorrupt":10628,"sient":10629,"ues":10630,"Ġincrement":10631,"book":10632,"ISDIR":10633,"RenderProcessHost":10634,"Ġheap":10635,"TIFFError":10636,"PREVIEW":10637,"ScaleFactor":10638,"Ġprinting":10639,"SPECI":10640,"KILL":10641,"Rules":10642,"VC":10643,"pow":10644,"tol":10645,"ĠKey":10646,"loud":10647,"Ġdummy":10648,"library":10649,"acm":10650,"ĠBY":10651,"pam":10652,"Ġwhite":10653,"Head":10654,"KEEP":10655,"RenderWidget":10656,"WARD":10657,"Ġoptname":10658,"GSQL":10659,"Ġadvance":10660,"Ġvalidate":10661,"sToCurrentThread":10662,"ĠASCI":10663,"BelongsToCurrentThread":10664,"iations":10665,"nfc":10666,"Ġfopen":10667,"fops":10668,"Ġautofill":10669,"serve":10670,"ĠMEM":10671,"ĠRX":10672,"ording":10673,"ClientImpl":10674,"Ġclients":10675,"=='":10676,"AttributeAttributeGetterCallback":10677,"NAM":10678,"UMP":10679,"nmb":10680,"Ġcomm":10681,"DES":10682,"processed":10683,"ĠALLOW":10684,"ĠDO":10685,"++){":10686,"Keep":10687,"PCI":10688,"Tabs":10689,"PUB":10690,"Ġsyncable":10691,"XMLTree":10692,"Ġmarker":10693,"datum":10694,"sized":10695,"GENERIC":10696,"ahash":10697,"beta":10698,"dif":10699,"Ġctrl":10700,"dequeue":10701,"Ġshelf":10702,"lict":10703,"ĠSEC":10704,"Ġdepend":10705,"prf":10706,"Ġelem":10707,"Ġweight":10708,"Ġstarted":10709,"futex":10710,"migrate":10711,"raster":10712,"could":10713,"ircle":10714,"Ġvq":10715,"ĠLe":10716,"vely":10717,"checked":10718,"MORE":10719,"TRACK":10720,"POLL":10721,",\",":10722,"BH":10723,"CW":10724,"CNT":10725,"bv":10726,"hfs":10727,"supp":10728,"tkt":10729,"lost":10730,"()\");":10731,"imized":10732,"Ġkiocb":10733,"ĠBluetooth":10734,"emulated":10735,"compact":10736,"Ġbufsize":10737,"PARAMS":10738,"xmlFatalErr":10739,"Ġregistrar":10740,"sigma":10741,"Signed":10742,"ĠParcel":10743,"192":10744,"Flat":10745,"Actual":10746,"Ġseconds":10747,"Filename":10748,"TrueColorGet":10749,"TAINER":10750,"sider":10751,"uess":10752,"LED":10753,"sper":10754,"Ġiscsi":10755,"anging":10756,"ĠHCI":10757,"Ġunused":10758,"objid":10759,"OrNull":10760,"DoNot":10761,"COMPS":10762,"NativeWindow":10763,"km":10764,"Ġtipc":10765,"Ġmv":10766,"ĠNUM":10767,"ĠSize":10768,"statistics":10769,"ĠIF":10770,"Ġxoffset":10771,"undle":10772,"Ġqfalse":10773,"snap":10774,"MBEDTLS":10775,"good":10776,"ĠStatus":10777,"Operator":10778,"BLANKS":10779,"ĠBookmark":10780,")?":10781,"BAR":10782,"usable":10783,"REMOVE":10784,"Ġamount":10785,"acct":10786,"offsetof":10787,"Ġoutside":10788,"ĠWebCore":10789,"ĠWebLocalFrame":10790,"Chars":10791,"actions":10792,"Ġ60":10793,"Checker":10794,"LayerProto":10795,"UserMetricsAction":10796,"Ġrtnl":10797,"Ġchromeos":10798,"LayerProtoDetect":10799,"SENT":10800,"rdf":10801,"Ġot":10802,"repl":10803,"Ġ*),":10804,"ori":10805,"Ġ\"\"":10806,"extend":10807,"GetExtension":10808,"Ġguard":10809,"Ġhlist":10810,"Ġprovider":10811,"clt":10812,"shdr":10813,"svg":10814,"smartData":10815,"Serialized":10816,"Gahp":10817,"Implementation":10818,"cin":10819,"fis":10820,"fwd":10821,"inity":10822,"orth":10823,"structp":10824,"RETRY":10825,"ĠCalculate":10826,"ĠMII":10827,"substr":10828,"Blocking":10829,"interfaces":10830,"DecoderPassthrough":10831,"irmware":10832,"Launcher":10833,"DecoderPassthroughImpl":10834,"POL":10835,"btm":10836,"lapic":10837,"rng":10838,"uar":10839,"Ġ1000000":10840,"ĠGPU":10841,"codes":10842,"quit":10843,"(),\"":10844,"Colors":10845,"Subset":10846,"REAK":10847,"cgc":10848,"Ġinternalformat":10849,"ĠSKIP":10850,"Ġeverything":10851,"OES":10852,"sit":10853,"yk":10854,"ĠInfo":10855,"ATIVE":10856,"Ġkill":10857,"initiator":10858,"UTE":10859,"ULong":10860,"Ġprepare":10861,"ritical":10862,"Ġlogging":10863,"Ġconnected":10864,"IMG":10865,"ĠTrack":10866,"HashTable":10867,"Ġdetected":10868,"384":10869,"Certificate":10870,"ĠRSVP":10871,"DECLARE":10872,"ctm":10873,"agement":10874,"Ġmon":10875,"Ġvnc":10876,"Alg":10877,"BeforeUnload":10878,"hugetlb":10879,"ĠMATLAB":10880,"ABLISHED":10881,"LATE":10882,"Literal":10883,"NLA":10884,"UIT":10885,"Voice":10886,"cube":10887,"gt":10888,"hv":10889,"wstring":10890,"deli":10891,"hest":10892,"Ġfinished":10893,"Ġnft":10894,"umin":10895,"errcode":10896,"Ġder":10897,"resched":10898,"ALU":10899,"Ġthings":10900,"Ġcompleted":10901,"ĠMAY":10902,"ĠEditor":10903,"75":10904,"Palette":10905,"Ġri":10906,"ĠLEX":10907,"adm":10908,"Ġmagick":10909,"Ġoid":10910,"ĠEM":10911,"Ġ'?":10912,"ious":10913,"wards":10914,"Ġlocked":10915,"xsltTransform":10916,"ĠPDFium":10917,"PICTURE":10918,"BS":10919,"CMSG":10920,"MOT":10921,"ehci":10922,"sts":10923,"())));":10924,"isdn":10925,"datasize":10926,"devs":10927,"ĠFMODE":10928,"moval":10929,"subnodes":10930,"poly":10931,"LANG":10932,"BackgroundColor":10933,"RUNNING":10934,"Ġciphers":10935,"Jpeg":10936,"Ring":10937,"RFC":10938,"Using":10939,"basename":10940,"dip":10941,"hide":10942,"llist":10943,"Ġable":10944,"replay":10945,"ently":10946,"Ġaf":10947,"Ġhig":10948,"Ġstandard":10949,"spnego":10950,"shrink":10951,"MagickSizeType":10952,"Ġmech":10953,"ĠDispatch":10954,"Ġresolver":10955,"lapse":10956,"standing":10957,"ĠTLSEXT":10958,"alifiedName":10959,"ĠASCIIToUTF":10960,"!!":10961,"WE":10962,"WANT":10963,"Ġtlv":10964,"ĠShow":10965,"GetSiteInstance":10966,"ĠDate":10967,"ĠBy":10968,"UNREACH":10969,"ValuePool":10970,"slurm":10971,"BindRepeating":10972,"SEQUENCE":10973,"Ġtri":10974,"Ġoz":10975,"printing":10976,"Ġsets":10977,"Ġunlink":10978,"LoadImageTag":10979,"Ġtimes":10980,"flat":10981,"PLUS":10982,"ĠTestObjectPythonV":10983,"ĠIgnore":10984,"EDED":10985,"Family":10986,"TSRMLS":10987,"bbox":10988,"semb":10989,"Ġfallback":10990,"leno":10991,"acces":10992,"Standard":10993,"CHO":10994,"Ġsess":10995,"anning":10996,"ĠLength":10997,"Quad":10998,"BUFFERHEADER":10999,"sockets":11000,"Split":11001,"BUFFERHEADERTYPE":11002,"JsVar":11003,"sfp":11004,"xit":11005,"Ġaway":11006,"Ġlhs":11007,"ĠBLK":11008,"Completion":11009,"Ġshape":11010,"ĠAVRC":11011,"Ġoptional":11012,"ĠBrowserView":11013,"ĠjsvUnLock":11014,"EditCommand":11015,"MIMEType":11016,"stitialPage":11017,"INITIALIZED":11018,"************************************************************":11019,"Mid":11020,"WRA":11021,"cirrus":11022,"tig":11023,"stime":11024,"Ġboot":11025,"ĠSEQ":11026,"Ġllc":11027,"pathname":11028,"Always":11029,"ĉĉĉĉĉĉĠĠĠĠ":11030,"Multiple":11031,"Ġdetect":11032,"Ġpopup":11033,"coordinates":11034,"ĠLIBXML":11035,"Vol":11036,"oned":11037,"roken":11038,"Ġft":11039,"cores":11040,"Ġnautilus":11041,"ĠSample":11042,"STH":11043,"gnutls":11044,"ĠFL":11045,"ĠAPI":11046,"spaw":11047,"FIED":11048,"WebMediaPlayer":11049,"yyscanner":11050,"Marker":11051,"sizer":11052,"Ġ4096":11053,"SLA":11054,"empl":11055,"icted":11056,"Ġbond":11057,"ENDED":11058,"Consumer":11059,"ĠMFI":11060,"ĠAIRPDCAP":11061,"spprintf":11062,"CHILD":11063,"ĠGraphics":11064,"UNEXPECTED":11065,"foreign":11066,"cmyk":11067,"cceeded":11068,"cluded":11069,"Ġaround":11070,"UNICODE":11071,"URLLoaderFactory":11072,"JSTestObj":11073,"ecpoint":11074,"!\");":11075,"Slot":11076,"ppe":11077,"Ġfour":11078,"Ġwrapper":11079,"ĠSOL":11080,"gnd":11081,"outlen":11082,"PEAT":11083,"Ġ28":11084,"GLX":11085,"OTLI":11086,"ProcessHostImpl":11087,"echo":11088,"UnableTo":11089,"alesce":11090,"Axis":11091,"Ġappropriate":11092,".\"":11093,"AAC":11094,"TG":11095,"aapi":11096,"gcm":11097,"Ġconversion":11098,"ĠOVS":11099,"subsampling":11100,"TouchEvent":11101,"multiply":11102,"ofpacts":11103,".)":11104,"VA":11105,"Without":11106,"kref":11107,"lsp":11108,"vsk":11109,"changes":11110,"ĠmLastTrack":11111,"ERATION":11112,"REAL":11113,"Ġrealloc":11114,"Ġaudit":11115,"Ġholder":11116,"DEAD":11117,"fake":11118,"ĠOver":11119,"mbols":11120,"Ġextended":11121,"subtree":11122,"ĠCONT":11123,"WRONG":11124,"hwsim":11125,"basic":11126,"ĠNavigationEntry":11127,"Attachment":11128,"ĠRenderWidgetHostViewAura":11129,"ĠNetwork":11130,"Digest":11131,"63":11132,"HR":11133,"ZONE":11134,"cor":11135,"huffman":11136,"Ġcmp":11137,"ptek":11138,"Ġindx":11139,"Ġhit":11140,"provisional":11141,"ForFrame":11142,"Ġ48":11143,"ĠThread":11144,"DIB":11145,"CRL":11146,"DUMP":11147,"Ġsnapshot":11148,"ĠSome":11149,"ĠTabStripModel":11150,"Ġdaemon":11151,"Fast":11152,"Press":11153,"WT":11154,"cid":11155,"ea":11156,"email":11157,"hctx":11158,"Ġcupsd":11159,"ante":11160,"Ġsf":11161,"Ġ*)\"":11162,"ImageConversion":11163,"workaround":11164,"legacy":11165,"COMMIT":11166,"AttributeGetter":11167,"Advance":11168,"========":11169,"UNSUPPORTEDPARAM":11170,"ĠSiteInstance":11171,"016":11172,"Hand":11173,"My":11174,"kData":11175,"preferences":11176,"Ġvery":11177,"unaligned":11178,"Ġol":11179,"Ġdsaf":11180,"ĠSig":11181,"udf":11182,"Ġshutdown":11183,"Ġshouldn":11184,"DidChange":11185,"QueueAuthenticPixels":11186,"ReplyData":11187,"Route":11188,"Ġmade":11189,"ĠPKCS":11190,"feedback":11191,"ĠCMYKColorspace":11192,"METADATA":11193,"DUP":11194,"NXT":11195,"iop":11196,"nbuf":11197,"rid":11198,"wand":11199,"ĠpScreen":11200,"Ġrf":11201,"ĠPAR":11202,"Constr":11203,"Ġxstrdup":11204,"IDIOC":11205,"MASTER":11206,"ĠBB":11207,"numcomps":11208,"Ġ25":11209,"userid":11210,"faultfd":11211,"ĠOmnibox":11212,"handles":11213,"bdaddr":11214,"modules":11215,"RemoveObserver":11216,"InfoBarDelegate":11217,"Ġthough":11218,"ĠMessageLoop":11219,"aration":11220,"anit":11221,"Ġnal":11222,"Ġmenu":11223,"ĠSchedule":11224,"bda":11225,"RecordAction":11226,"ĠFLAGS":11227,"Ġassociated":11228,"CSP":11229,"Eval":11230,"]]":11231,"called":11232,"eip":11233,"ldata":11234,"year":11235,"Ġ$":11236,"sibling":11237,"Ġspeed":11238,"Ġbail":11239,"resno":11240,"RESH":11241,"ĠCURL":11242,"prob":11243,"ocation":11244,"sparse":11245,"ĠDR":11246,"FrameHostMsg":11247,"Quant":11248,"avigator":11249,"RenderWidgetHost":11250,"LoadEvent":11251,"InputBuffer":11252,"Ġboost":11253,"Detached":11254,"Ġsnmp":11255,"Modal":11256,"Ġvmxnet":11257,"stems":11258,"ĠContentSecurityPolicy":11259,"ĠOFPACT":11260,"COOKIE":11261,"gfp":11262,"lsb":11263,"npos":11264,"oif":11265,"pio":11266,"rho":11267,"sap":11268,"vpid":11269,"always":11270,"Ġtss":11271,"rol":11272,"ENU":11273,"Ġgesture":11274,"skcipher":11275,"Ġrtable":11276,"ĠACK":11277,"ĠGTK":11278,"Ġvpx":11279,"ErrorUndefined":11280,"STRICT":11281,"Ġlistener":11282,"packed":11283,"PLATFORM":11284,"ĠEnable":11285,"GetForProfile":11286,"MimeType":11287,"Absolute":11288,"Ob":11289,"jection":11290,"mLock":11291,"ĠStop":11292,"Ġxfer":11293,"backlog":11294,"Ġcompletion":11295,"APT":11296,"rwsem":11297,"ĠVerify":11298,"More":11299,"Ġcfs":11300,"Ġpas":11301,"Ġdialog":11302,"readonly":11303,"ĠEWK":11304,"MALL":11305,"Ġselector":11306,"uses":11307,"EMU":11308,"Ġindexes":11309,"Period":11310,"MainWorld":11311,"SNMP":11312,"pairing":11313,"DevToolsAgentHost":11314,"Ġ'-')":11315,"Trial":11316,"BREAK":11317,"jump":11318,"revision":11319,"again":11320,"ĠCLI":11321,"ĠPop":11322,"Ġ');":11323,"ETTE":11324,"ĠEXP":11325,"testing":11326,"Plan":11327,"Ġquant":11328,"VisibleSelection":11329,"Ġmulti":11330,"RenderFrameHostImpl":11331,"LEMENTED":11332,"Rot":11333,"|=":11334,"Ġspp":11335,"elimit":11336,"plus":11337,"Enough":11338,"Ġqp":11339,"Startup":11340,"Ġplain":11341,"ĠWriteBlobLSBLong":11342,"Matches":11343,"PARAMETERS":11344,"greSQL":11345,"Ġcdrom":11346,"GetFirstImageInList":11347,"ĠBUILDFLAG":11348,"<=":11349,"Fallback":11350,"Qcom":11351,"SCHED":11352,"VIDC":11353,"alformed":11354,"Ġslen":11355,"Ġdl":11356,"Ġgpg":11357,"ĠCustom":11358,"ĠCOPY":11359,"++];":11360,"addrinfo":11361,"constant":11362,"bitrate":11363,"Ids":11364,"ĠxmlNodePtr":11365,"Shift":11366,"ScrollOffset":11367,"Ġopened":11368,"ĠBROTLI":11369,"stitute":11370,"6000":11371,"AH":11372,"Blend":11373,"Elf":11374,"Evaluate":11375,"Fd":11376,"[],":11377,"remain":11378,"cksum":11379,"termios":11380,"most":11381,"indices":11382,"DataSize":11383,"IsIn":11384,"ldb":11385,"Seq":11386,"STRO":11387,"MODI":11388,"pegasus":11389,"ĠResult":11390,"Ġmatching":11391,"ALIGNED":11392,"syntax":11393,"Feedback":11394,"HZ":11395,"zen":11396,"ĠINIT":11397,"ĠSty":11398,"that":11399,"Ġimplemented":11400,"Ġreds":11401,"ĠCvar":11402,"Ġrlvl":11403,"(\"-":11404,"ĠADD":11405,"ocsp":11406,"ĠOp":11407,"ĠLD":11408,"Webkit":11409,"ReadOnly":11410,"translate":11411,"egr":11412,"fromUTF":11413,"IFLA":11414,"Ġlogin":11415,"STRINGNAME":11416,"Author":11417,"PLAN":11418,"ĠRenderFrameHost":11419,"Ġtxn":11420,"Ġswapl":11421,"Activate":11422,"DTD":11423,"ĠListValue":11424,"ĠSTATUS":11425,"MIC":11426,"Suggestion":11427,"acpi":11428,"hist":11429,"nlink":11430,"uf":11431,"Ġath":11432,"separate":11433,"rozen":11434,"Ġpkey":11435,"ĠNID":11436,"IDB":11437,"COUN":11438,"minus":11439,"xmlParserCtxtPtr":11440,"Ġtimeval":11441,"MessageReceived":11442,"Ġintern":11443,"Ġmean":11444,"drvdata":11445,"bandwidth":11446,"Ġsupports":11447,"Skia":11448,"REPLACE":11449,"ĠHeader":11450,"rsvp":11451,"ĠMemory":11452,"Hover":11453,"Self":11454,"Sprite":11455,"ZLIB":11456,"](":11457,"fallback":11458,"iif":11459,"kern":11460,"desktop":11461,"Ġcalculate":11462,"Ġdbus":11463,"Ġgive":11464,"ptrace":11465,"oreign":11466,"instant":11467,"NativeView":11468,"Ġrecv":11469,"ĠBUF":11470,"Ġ':')":11471,"fourcc":11472,"ErrorUnsupportedSetting":11473,"HINT":11474,"ISS":11475,"RAD":11476,"asi":11477,"kbuf":11478,"msix":11479,"tdata":11480,"Ġpick":11481,"Ġbpp":11482,"Encoded":11483,"ĠLock":11484,"WebLocalFrame":11485,"Thumbnail":11486,"subscri":11487,"olicies":11488,"Ġids":11489,"NotSupported":11490,"VideoFrame":11491,"Ġimmediately":11492,"Ġtables":11493,"PROXY":11494,"TRYCATCH":11495,"help":11496,"disks":11497,"DispatcherHost":11498,"Ġescape":11499,"memslots":11500,"passphrase":11501,"WriterException":11502,"uarante":11503,"spawn":11504,"BGP":11505,"OOM":11506,"mLastTrack":11507,"Ġedit":11508,"stage":11509,"trash":11510,"Ġaren":11511,"SEPAR":11512,"htt":11513,"ĠkTIFF":11514,"Sizes":11515,"ĠJSTest":11516,"ENOBUFS":11517,"BINDING":11518,"Ġcreation":11519,"Ġflowi":11520,"pszValue":11521,"easy":11522,"RNS":11523,"Vis":11524,"tss":11525,"yond":11526,"enqueue":11527,"Ġ00":11528,"Ġmdi":11529,"ĠSoft":11530,"REPEAT":11531,"Ġiphdr":11532,"OND":11533,"ĠgFalse":11534,"GElement":11535,"ĠGLfloat":11536,"TimeUs":11537,"ĠReport":11538,"taining":11539,"PRESS":11540,"modify":11541,"DISCARD":11542,"Ġinitialization":11543,"bands":11544,"GenericDebug":11545,"Ġreserve":11546,"floppy":11547,"DONTWAIT":11548,"ĠChildProcess":11549,"Attached":11550,"ĠGetNextToken":11551,"ICC":11552,"gpa":11553,"Ġesc":11554,"Ġ*((":11555,"oral":11556,"aries":11557,"Ġsort":11558,"Ġfc":11559,"Ġix":11560,"Ġrather":11561,"ĠMode":11562,"filesize":11563,"objp":11564,"ĠRestore":11565,"variant":11566,"Tracks":11567,"NumberOf":11568,"resolver":11569,"Modify":11570,"ĠNETIF":11571,"Caret":11572,"PALETTE":11573,"&)":11574,"SID":11575,"Sound":11576,"hba":11577,"perror":11578,"pwd":11579,"Ġfh":11580,"colour":11581,"inodes":11582,"Ġopts":11583,"Ġbacking":11584,"records":11585,"OPTS":11586,"TRANSFORM":11587,"ĠNETDEV":11588,"UNDEFINED":11589,"FX":11590,"bid":11591,"hal":11592,"pBt":11593,"zstream":11594,"roker":11595,"ĠmBuffer":11596,"Insecure":11597,"Ġaes":11598,"Ġrw":11599,"ĠPV":11600,"ĠGenerate":11601,"Ġstrstr":11602,"pcap":11603,"Ġregulator":11604,"Coordinator":11605,"effective":11606,"azz":11607,"ESTABLISHED":11608,"ALGORITH":11609,"xmlStrEqual":11610,"=\",":11611,"DL":11612,"GID":11613,"OOB":11614,"UB":11615,"efer":11616,"fu":11617,"urther":11618,"admin":11619,"issuer":11620,"imate":11621,"Ġdictionary":11622,"Stencil":11623,"Ġtransparent":11624,"EXCL":11625,"ĠVER":11626,"PageAgent":11627,"THROW":11628,"Ġqtrue":11629,"nlk":11630,"DISPLAY":11631,"Ġhole":11632,"Ġcrash":11633,"CacheViewAuthenticPixels":11634,"Ġscanline":11635,"Capacity":11636,"ĠBRCMF":11637,"About":11638,"PASSTH":11639,"27":11640,"MID":11641,"py":11642,"agraph":11643,"Ġpur":11644,"errp":11645,"INCLU":11646,"getter":11647,"Ġrfh":11648,"ĠFP":11649,"CTET":11650,"indx":11651,"EventListener":11652,"URLs":11653,"encryption":11654,"THIS":11655,"Ġswaps":11656,"allel":11657,"ENOSPC":11658,"'.":11659,"ipt":11660,"lr":11661,"mot":11662,"pOutput":11663,"inject":11664,"incoming":11665,"ĠĠĠĠĠĠĠĠĊ":11666,"trap":11667,"otify":11668,"ully":11669,"ORITY":11670,"cpup":11671,"ĠPN":11672,"ĠAPP":11673,"Ġehci":11674,"PixelCache":11675,"SRP":11676,"ListValue":11677,"PARTI":11678,"STRINGL":11679,"glGet":11680,"Descendant":11681,"Ġloading":11682,"ALIZE":11683,"ĠpkiDebug":11684,"memslot":11685,"Ġmajor":11686,")\"":11687,"AW":11688,"Frontend":11689,"Goto":11690,"TREE":11691,"dput":11692,"press":11693,"Ġdw":11694,"ĠDix":11695,"ĠBIG":11696,"Defer":11697,"Ensure":11698,"shp":11699,"ĠLIST":11700,"PART":11701,"Destroyed":11702,"DISC":11703,"Ġboundary":11704,"Grid":11705,"GENERAL":11706,"Ġ',')":11707,"lass":11708,"mus":11709,"oh":11710,"ptor":11711,"lists":11712,"Ġvisual":11713,"sge":11714,"Semaphore":11715,"debugfs":11716,"Ġlost":11717,"Place":11718,"LOCKED":11719,"crash":11720,"GSO":11721,"JSValue":11722,"SendError":11723,"Allocator":11724,"SPEED":11725,"Insertion":11726,"ablkcipher":11727,"arena":11728,"EndOfFile":11729,"ĠCONTENT":11730,"https":11731,"Ime":11732,"LM":11733,"acon":11734,"broadcast":11735,"padata":11736,"Ġeth":11737,"held":11738,"Ġfuture":11739,"imits":11740,"Ġden":11741,"Ġwrap":11742,"vals":11743,"Ġaac":11744,"Ġhb":11745,"ĠDBus":11746,"SIZ":11747,"ngInfo":11748,"Ġstarts":11749,"ĠRelease":11750,"closing":11751,"fram":11752,"tip":11753,"exe":11754,"Ġwifi":11755,"embed":11756,"raptor":11757,"ĠXFRM":11758,"recent":11759,"ĠJust":11760,"parts":11761,"Ġprincipal":11762,"PRESENT":11763,"29":11764,"NPP":11765,"UCH":11766,"USR":11767,"cctx":11768,"jbig":11769,"zz":11770,"enctype":11771,"adException":11772,"herent":11773,"trim":11774,"Ġdist":11775,"anaged":11776,"ĠIns":11777,"ABS":11778,"xmlNodePtr":11779,"ROLL":11780,"opened":11781,"Plane":11782,"StreamTcp":11783,"SPI":11784,"certs":11785,"Subtree":11786,"NETWORK":11787,"Reduction":11788,"ACY":11789,"LogicalLeft":11790,"Ġarraysize":11791,"Ġadjusted":11792,"radius":11793,"Tx":11794,"dch":11795,"ey":11796,"mary":11797,"ileged":11798,"ĠDetermine":11799,"mdl":11800,"dispose":11801,"ĠCONF":11802,"atalog":11803,"ScrollableArea":11804,"WebContentsImpl":11805,"limited":11806,"Ġthreads":11807,"Ġoperand":11808,"www":11809,"xideQQuickWebView":11810,"Algorithm":11811,"ALGORITHM":11812,"PARTIAL":11813,"HA":11814,"TMP":11815,"TOS":11816,"]:":11817,"dcb":11818,"fld":11819,"Ġwarn":11820,"iltin":11821,"ĠAuth":11822,"ADV":11823,"SetInteger":11824,"MPI":11825,"Share":11826,"Shape":11827,"lxc":11828,"google":11829,"MISMATCH":11830,"floor":11831,"dynamic":11832,"ĠAutocomplete":11833,"MOTE":11834,"PASSTHRU":11835,"CLI":11836,"nop":11837,"vation":11838,"xRender":11839,"Ġcg":11840,"ĠSa":11841,"Ġgpointer":11842,"ALEN":11843,"ĠDBUS":11844,"ĠxmlFatalErr":11845,"TAX":11846,"iece":11847,"Ġsymlink":11848,"posed":11849,"LogicalTop":11850,"Collection":11851,"ĠTrace":11852,"forced":11853,"ĠDownloadItem":11854,"\")))":11855,"85":11856,"UChar":11857,"lab":11858,"ĠQuery":11859,"once":11860,"ĠStore":11861,"Ġguarante":11862,"Ġlanguage":11863,"Ġrgb":11864,"Ġvdev":11865,"UNCH":11866,"Ġprocessed":11867,"Unlock":11868,"compose":11869,"owned":11870,"preload":11871,"FileException":11872,"formatlist":11873,"what":11874,"DIFF":11875,"caret":11876,"processing":11877,"ĠMAG":11878,"Ġroom":11879,"RCV":11880,"GENERATE":11881,"ĠSKB":11882,"ĠPIPE":11883,"marsh":11884,"ierarchy":11885,"ĠStyle":11886,")++;":11887,"Elem":11888,"OUL":11889,"Pause":11890,"VOLUME":11891,"pics":11892,"sfd":11893,"Ġ))":11894,"Ġvertical":11895,"etter":11896,"ĠMod":11897,"BULong":11898,"clamp":11899,"ĠVirt":11900,"MPLE":11901,"transmit":11902,"MSBULong":11903,"Previous":11904,"ĠWriteBlobMSBULong":11905,"Composited":11906,"Connected":11907,"RDWR":11908,"Offline":11909,"DateTime":11910,"PROPERTY":11911,"AUX":11912,"Kind":11913,"Power":11914,"Panel":11915,"tar":11916,"zbl":11917,"uni":11918,"Ġsense":11919,"Ġnntp":11920,"Ġmmap":11921,"Ġchro":11922,"ĠFATTR":11923,"ĠFLOW":11924,"LEM":11925,"Deleted":11926,"Ġoutbuf":11927,"ailer":11928,"Ġzlib":11929,"ĠxmlStr":11930,"TOOL":11931,"HasExtension":11932,"Anon":11933,"eerConnection":11934,"WaitFor":11935,"deferred":11936,"Pid":11937,"Prec":11938,"Round":11939,"Ġtd":11940,"Ġfw":11941,"isspace":11942,"Ġ\"_":11943,"product":11944,"Ġcharset":11945,"ritems":11946,"DRI":11947,"syscall":11948,"Ġcompiler":11949,"Keys":11950,"pmc":11951,"Ġsubtree":11952,"NavigationEntry":11953,"Assert":11954,"GetPixelBlue":11955,"protected":11956,"LICIT":11957,"TellBlob":11958,"FH":11959,"MNG":11960,"aid":11961,"Ġ*__":11962,"Ġdwc":11963,"thd":11964,"Ġgint":11965,"ĠPPP":11966,"ĠMUST":11967,"prof":11968,"omx":11969,"ĠGtk":11970,"clr":11971,"Ġones":11972,"Tasks":11973,"ĠQQuickWebView":11974,"Ġrenderbuffer":11975,"SyncService":11976,"GROUND":11977,"Resolve":11978,"Ġhappens":11979,"Ġaccording":11980,"RANDOM":11981,"Ġfilp":11982,"cross":11983,"pch":11984,"pmtu":11985,"Ġpat":11986,"Ġir":11987,"Ġhalf":11988,"ĠPID":11989,"ĠBl":11990,"EXTR":11991,"NOTE":11992,"Translate":11993,"pmcra":11994,"Ġoffs":11995,"Checked":11996,"UDIT":11997,"QUAL":11998,"BACKGROUND":11999,"chanism":12000,"xFFFFFFFF":12001,"SemaphoreInfo":12002,"pmcraid":12003,"Acc":12004,"BImgBuff":12005,"GRA":12006,"KDC":12007,"RW":12008,"TAP":12009,"bdf":12010,"hardware":12011,"lsa":12012,"Ġpw":12013,"ung":12014,"umax":12015,"Ġdie":12016,"gname":12017,"ĠId":12018,"freeze":12019,"Reserved":12020,"MPLEMENTED":12021,"Ġnamelen":12022,"capability":12023,"Sources":12024,"ContentSettings":12025,"spect":12026,"resolved":12027,"ĠglBind":12028,"strncasecmp":12029,"TRANSP":12030,"rotate":12031,"AnyToQuantum":12032,"ĠNumber":12033,"NK":12034,"infop":12035,"Ġlaunch":12036,"DECODER":12037,"ARGE":12038,"rcb":12039,"Toggle":12040,"cls":12041,"ship":12042,"ancell":12043,"interp":12044,"EMIT":12045,"Ġappear":12046,"terminate":12047,"Ġsimply":12048,"BackingStore":12049,"STROY":12050,"ReductionProxy":12051,"95":12052,"Drive":12053,"GRP":12054,"Pak":12055,"cing":12056,"ount":12057,"qmf":12058,"atory":12059,"Ġreuse":12060,"Ġ'=":12061,"ĠRenderer":12062,"FILEN":12063,"Ġunexpected":12064,"Ġpaths":12065,"sigalgs":12066,"izedString":12067,"ĠALIGN":12068,"special":12069,"TagName":12070,"URLRequestContext":12071,"attribs":12072,"ĠResetMagickMemory":12073,"UnexpectedEndOfFile":12074,"AK":12075,"Band":12076,"DRAW":12077,"Desktop":12078,"Random":12079,"pbs":12080,"ina":12081,"alen":12082,"Ġsuffix":12083,"Ġmsl":12084,"Ġrsp":12085,"ĠRoot":12086,"ĠRAPT":12087,"sampler":12088,"WebInputEvent":12089,"cmdline":12090,"optional":12091,"mtpt":12092,"PAGES":12093,"ĠDisable":12094,"HttpRequest":12095,"jsvIs":12096,"ratelimit":12097,"ĠRAPTOR":12098,"GRE":12099,"Pag":12100,"ZSTR":12101,"mrt":12102,"Ġreached":12103,"reo":12104,"adget":12105,"heaac":12106,"chromium":12107,"conversion":12108,"ulative":12109,"Ġconsole":12110,"Ġreceiver":12111,"ĠGPM":12112,"Ġkw":12113,"TICK":12114,"ĠHash":12115,"typ":12116,"Indexed":12117,"Windows":12118,"MethodMethod":12119,"LayoutTree":12120,"TERM":12121,"ĠUnregister":12122,"Ġtags":12123,"ĠAppLayerProtoDetect":12124,"='%":12125,"Encryption":12126,"heaacd":12127,"DIG":12128,"EAS":12129,"QETH":12130,"Ratio":12131,"Simple":12132,"XATTR":12133,"](%":12134,"tap":12135,"Ġul":12136,"reclaim":12137,"Ġmigration":12138,"Ġresize":12139,"Ġaux":12140,"Ġll":12141,"ARP":12142,"angles":12143,"TYP":12144,"Compressed":12145,"CRC":12146,"LongAttribute":12147,"Ġbackend":12148,"Ġimap":12149,"secondary":12150,"Ġadopt":12151,"GetPixelGreen":12152,"shortcut":12153,"orbis":12154,"DHE":12155,"JECT":12156,"Try":12157,"gst":12158,"oreground":12159,"sWith":12160,"tage":12161,"Ġcross":12162,"sicc":12163,"entially":12164,"Ġfit":12165,"trb":12166,"ĠELF":12167,"Ġvlan":12168,"Ġ'#":12169,"mogrify":12170,"FIFO":12171,"WebPlugin":12172,"Threshold":12173,"Ġanal":12174,"Ġgetting":12175,"locals":12176,"cmnd":12177,"Variable":12178,"hslist":12179,"pino":12180,"OPTIONS":12181,"Ġmismatch":12182,"AttributeAttributeSetterCallback":12183,"Ġ65535":12184,"ĠBuild":12185,"ĠWebLocalFrameImpl":12186,"Ep":12187,"mcb":12188,"rdata":12189,"sco":12190,"unity":12191,"tribute":12192,"ushed":12193,"Ġtool":12194,"ĠKK":12195,"Checking":12196,"ĉĉĉĉĉĉĉĠ":12197,"Ġauthor":12198,"scanf":12199,"DestroyImageInfo":12200,"Whitespace":12201,"Ġstrncpy":12202,"GraphicBuffer":12203,"WPG":12204,"pcp":12205,"ini":12206,"Ġbf":12207,"trl":12208,"Ġconstruct":12209,"Ġaead":12210,"GetEntry":12211,"ĠCom":12212,"Ġissue":12213,"CHK":12214,"portIndex":12215,"SetPage":12216,"Ġexcept":12217,"Until":12218,"ordinal":12219,"behavior":12220,"parentNode":12221,"mounted":12222,"barrier":12223,"WriteFile":12224,"fini":12225,"ĠSetPixelAlpha":12226,"Ġmodify":12227,"ĠMODE":12228,"CUBE":12229,"--------------------------------------------------------------------":12230,"ĠDirectClass":12231,"TIFFReadDirEntryErr":12232,"EEXIST":12233,"IED":12234,"game":12235,"ny":12236,"ssid":12237,"strchr":12238,"Ġmi":12239,"ĠNeed":12240,"ĠAD":12241,"ĠAUDIO":12242,"bookmark":12243,"IsMainFrame":12244,"AttributeSetter":12245,"Handled":12246,"Ġtransmit":12247,"Defaulted":12248,"Ġskipped":12249,"SIGNATURE":12250,"ENUMERATION":12251,"levant":12252,"ĠGPMF":12253,"Leg":12254,"OI":12255,"cvt":12256,"greg":12257,"giv":12258,"mcast":12259,"ndr":12260,"rsk":12261,"idct":12262,"Ġiface":12263,"Ġsur":12264,"ĠmCurrent":12265,"))->":12266,"Ġrepl":12267,"GetDefault":12268,"SEVER":12269,"ĠDIS":12270,"ITER":12271,"backup":12272,"DownloadManager":12273,"Ġgrub":12274,"DispatcherHostImpl":12275,"Ġtruncated":12276,"SEVERITY":12277,"DG":12278,"TD":12279,"UGH":12280,"Vdbe":12281,"cstr":12282,"cptr":12283,"ecessary":12284,"mutt":12285,"smin":12286,"wmem":12287,"stored":12288,"destructor":12289,"Ġtb":12290,"stricted":12291,"ITIVE":12292,"SIMPLE":12293,"Ġandroid":12294,"ĠMagickOffsetType":12295,"SACK":12296,"Interlace":12297,"ĠRenderThreadImpl":12298,"fnhe":12299,"SERI":12300,"Refresh":12301,"Ġsymbol":12302,"MINOR":12303,"verrun":12304,"Worlds":12305,"ropping":12306,"Ġduplicate":12307,"IgnoringCase":12308,"UnrecognizedAttribute":12309,"arbage":12310,"CSUM":12311,"Fence":12312,"USHORT":12313,"ĠValidate":12314,"Ġcenter":12315,"asing":12316,"Ġmc":12317,"Ġmonitor":12318,"GetWindow":12319,"ĠFUT":12320,"ITOR":12321,"ĠOID":12322,"modes":12323,"EXTERNAL":12324,"IFTYPE":12325,"syncable":12326,"ĠIntSize":12327,"uggested":12328,"ĠPICT":12329,"EBAD":12330,"Json":12331,"VFS":12332,"dib":12333,"evi":12334,"fit":12335,"gtk":12336,"setkey":12337,"Ġwatch":12338,"bust":12339,"RECE":12340,"vide":12341,"ipaddr":12342,"Ġxd":12343,"raise":12344,"contexts":12345,"Quic":12346,"usbhid":12347,"Ġdefer":12348,"ĠJava":12349,"ShortPixel":12350,"layoutObject":12351,"BitmapHeader":12352,"Package":12353,"DeclHandler":12354,"ENOSYS":12355,"VIRTUAL":12356,"TUNNEL":12357,"FONT":12358,"Lower":12359,"Wheel":12360,"mic":12361,"pBuffer":12362,"Ġignoring":12363,"Ġtreat":12364,"Ġffs":12365,"asecc":12366,"erry":12367,"getu":12368,"GetResource":12369,"Ġgpa":12370,"scm":12371,"Ġprobe":12372,"SUSP":12373,"Ġidentity":12374,"ColorFormat":12375,"Times":12376,"Ġuserspace":12377,"LayoutBox":12378,"Ġrose":12379,"Ġ...)":12380,"Ġ'/'":12381,"Hardware":12382,"RUP":12383,"gy":12384,"ĠLo":12385,"atype":12386,"untry":12387,"constraints":12388,"Ġdt":12389,"Ġisis":12390,"GetAuthenticPixels":12391,"ĠFlush":12392,"irks":12393,"curves":12394,"UNLOCK":12395,"quival":12396,"ĠConn":12397,"BUFFERS":12398,"TextureInfo":12399,"mulfx":12400,"swapped":12401,"Ġevt":12402,"INDEXTYPE":12403,"moving":12404,"Ġalignment":12405,"EOFBlob":12406,"virDomain":12407,"Ġvariables":12408,"Ġceil":12409,"circuit":12410,"Fake":12411,"Opt":12412,"papi":12413,"ĉĉĠĠĠĠĠĠĠ":12414,"Ġcatch":12415,"Ġsupp":12416,"assemb":12417,"Ġiocb":12418,"visibility":12419,"ĠTask":12420,"DESTROY":12421,"plte":12422,"Mount":12423,"flt":12424,"locations":12425,"progressive":12426,"RefCount":12427,"Ġnlh":12428,"Ġ**)&":12429,"Ġbranch":12430,"namespaces":12431,"69":12432,"73":12433,"RLE":12434,"pag":12435,"preferred":12436,"since":12437,"ĠEN":12438,"coherent":12439,"InDOM":12440,"Increment":12441,"REMOTE":12442,"Ġhr":12443,"cpuc":12444,"ĠHttp":12445,"sgl":12446,"Ġanchor":12447,"ĉĉĉĉĉĉĠĠĠĠĠ":12448,"InputType":12449,"atterns":12450,"Ġallows":12451,"ĠAllow":12452,"utedStyle":12453,"Creation":12454,"ĠRegisterMagickInfo":12455,"ĠsplashMode":12456,"Cfg":12457,"KRB":12458,"Ġqueued":12459,"stops":12460,"ensure":12461,"Ġstreams":12462,"ĠPM":12463,"ĠMove":12464,"rcc":12465,"charp":12466,"ialias":12467,"ĠOUT":12468,"BufferInfo":12469,"izing":12470,"configure":12471,"Ġpreview":12472,"Opener":12473,"ĠResponse":12474,"Ġ127":12475,"Positioned":12476,"LOCATION":12477,"ModelType":12478,"OPENMP":12479,"ĠViewMsg":12480,"Ġetc":12481,"COUNTER":12482,"8000":12483,"HitTest":12484,"RSS":12485,"YC":12486,"inspector":12487,"mean":12488,"ashed":12489,"GetWebContents":12490,"Cond":12491,"ĠDLOG":12492,"PEER":12493,"ADAP":12494,"SetBoolean":12495,"lert":12496,"substream":12497,"parents":12498,"TIFFfree":12499,"scaled":12500,"Ġarc":12501,"domains":12502,"('\\":12503,"ĠjsCast":12504,"Ġencryption":12505,"NORM":12506,"Offscreen":12507,"click":12508,"LEGACY":12509,"kvno":12510,"ĠServer":12511,"Fired":12512,"ErrorBadParameter":12513,"iserver":12514,"csp":12515,"cib":12516,"hib":12517,"nav":12518,"tsn":12519,"Ġcput":12520,"Ġpub":12521,"lope":12522,"ERVER":12523,"ĠDB":12524,"collection":12525,"OPCODE":12526,"parity":12527,"objectid":12528,"Ġperiod":12529,"flowlabel":12530,"AppendSwitch":12531,"composite":12532,"ĠOBJECT":12533,"DrawingBuffer":12534,"Experimental":12535,"ĠThrowMogrifyException":12536,"arded":12537,"Ġfirmware":12538,"GetPrefs":12539,"ĠDBG":12540,"ADB":12541,"OPR":12542,"StringIterator":12543,"ĠVIDIOC":12544,"Ġatts":12545,"Ġcompno":12546,"miss":12547,"ĠConcatenate":12548,"Ġadapter":12549,"CBC":12550,"observers":12551,"Arch":12552,"EXTENSIONS":12553,"jectedBundle":12554,",'":12555,"89":12556,"EINTR":12557,"Term":12558,"XFS":12559,"]\"":12560,"_(\"":12561,"zer":12562,"removed":12563,"Ġcamera":12564,"ERE":12565,"STAND":12566,"cputime":12567,"Ġxfree":12568,"portid":12569,"dual":12570,"ObjectStorage":12571,"CMSR":12572,"*)(":12573,"sysfs":12574,"Ġprinter":12575,"bios":12576,"virtio":12577,"GetStringInfo":12578,"TRANSFER":12579,"tccp":12580,"ĠCluster":12581,"firmware":12582,"FRAGMENT":12583,"hyper":12584,"TRANSPORT":12585,")*(":12586,".,":12587,"ACPI":12588,"dj":12589,"pvc":12590,"wctx":12591,"stype":12592,"Ġptrace":12593,"Ġsvm":12594,"iscsi":12595,"Ġmakes":12596,"Ġdvb":12597,"Ġinv":12598,"lockdep":12599,"Ġhistogram":12600,"ĠPRE":12601,"DEST":12602,"ĠAND":12603,"Ġeat":12604,"Ġemalloc":12605,"ĠRO":12606,"ANON":12607,"formance":12608,"subframe":12609,"Ġregisters":12610,"IntRect":12611,"notes":12612,"Ġipaddr":12613,"ServiceImpl":12614,"documentLoader":12615,"Ġsym":12616,"letion":12617,"DOWNLOAD":12618,"Ġattached":12619,"ENTIC":12620,"nBufferCountActual":12621,"CWebServer":12622,"Sink":12623,"norm":12624,"plist":12625,"eries":12626,"agma":12627,"Ġpfn":12628,"Into":12629,"ĠFIL":12630,"pragma":12631,"ĠBlob":12632,"Deprecated":12633,"FromString":12634,"Updated":12635,"hashtable":12636,"condition":12637,"Ġipmi":12638,"gradient":12639,"waitqueue":12640,"ĠFAIL":12641,"Ġiterator":12642,"Ġtokens":12643,"Ġdescriptors":12644,"Printer":12645,"RESERVED":12646,"%\"":12647,"-(":12648,"Latency":12649,"Public":12650,"SITE":12651,"bine":12652,"cav":12653,"lg":12654,"ones":12655,"ifd":12656,"Ġfurther":12657,"SECTION":12658,"ĠAE":12659,"ĠACT":12660,"Prot":12661,"Ġseen":12662,"PRN":12663,"ĠOr":12664,"Ġunits":12665,"QuantumFormat":12666,"unnable":12667,"Offsets":12668,"EQUAL":12669,"Assign":12670,"ExecState":12671,"Ġaligned":12672,"RuntimeEnabledFeatures":12673,"pitch":12674,"easure":12675,"Relinquish":12676,"_%":12677,"sParam":12678,"reorder":12679,"unicode":12680,"Ġshell":12681,"Ġfatal":12682,"exact":12683,"otype":12684,"peech":12685,"vered":12686,"Ġrev":12687,"ĉĉĉĉĉĉĉĉĉĉ":12688,"ipx":12689,"ĠEMUL":12690,"ĠWEB":12691,"colon":12692,"ContextID":12693,"rects":12694,"rti":12695,"IPer":12696,"Ġstatement":12697,"Timestamp":12698,"SampleRate":12699,"++]=":12700,"nulls":12701,"WebContentsObserver":12702,"cgi":12703,"DownloadItem":12704,"DecodeImageHandler":12705,"Router":12706,"SaveImageTag":12707,"INTERRUPT":12708,"Ġproperly":12709,"cavlc":12710,"67":12711,"IEEE":12712,"JMP":12713,"mreq":12714,"ov":12715,"ĠpSrc":12716,"Ġwho":12717,"GetOrigin":12718,"ortype":12719,"Quit":12720,"subsys":12721,"Identity":12722,"WindowHandle":12723,"Ġblocking":12724,"ScaleShortToQuantum":12725,"LastError":12726,"ĠMSPACK":12727,"DIRTY":12728,"Ġfilters":12729,"Ġmatched":12730,"shelf":12731,"ĠlogicalTop":12732,"ĠSeek":12733,"SQLITE":12734,"ĠPDFiumEngine":12735,"*((":12736,"OCTET":12737,"eflags":12738,"mont":12739,"Ġci":12740,"sip":12741,"Ġpe":12742,"Ġsprite":12743,"Ġworld":12744,"Ġgrow":12745,"Ġlif":12746,"Ġvf":12747,"ForChild":12748,"Ġnumbers":12749,"VEC":12750,"ĠSetup":12751,"configuration":12752,"PPC":12753,"findValue":12754,"CIE":12755,"ScaleAnyToQuantum":12756,"UserAgent":12757,"Plugins":12758,"Ġtabs":12759,"cesses":12760,"absolute":12761,"SELECTOR":12762,"INTERRUPTI":12763,"ORIGIN":12764,"ILAB":12765,"fra":12766,"hrtimer":12767,"ĠEND":12768,"strval":12769,"iling":12770,"RELEASE":12771,"ofile":12772,"ĠAv":12773,"Ġbeyond":12774,"Ġencoder":12775,"Ġscr":12776,"rapher":12777,"ĠHTMLElement":12778,"LayoutUnit":12779,"DISPOSITION":12780,"BackForward":12781,"CoderError":12782,"ĠAlso":12783,"fixup":12784,"Ġlibpng":12785,"Ġfidp":12786,"Owned":12787,"ILABLE":12788,"*>::":12789,"NB":12790,"must":12791,"yes":12792,"urbs":12793,"Ġsleep":12794,"dog":12795,"Ġnotifier":12796,"dirent":12797,"EventTypeNames":12798,"WebCore":12799,"PRINTK":12800,"TEE":12801,"Ġtranslate":12802,"ĠDocumentLoader":12803,"RCU":12804,"Ġcorrespon":12805,"Ġearly":12806,"Ġfloor":12807,"Ġgreater":12808,"Asc":12809,"Piece":12810,"RList":12811,"bprintf":12812,"gadget":12813,"mkey":12814,"octet":12815,"Ġtot":12816,"Ġpd":12817,"Ġnn":12818,"Instruction":12819,"oplay":12820,"ĠDOWN":12821,"ĠHas":12822,"servers":12823,"Ġstrict":12824,"CIRC":12825,"Ġcls":12826,"Ġtasks":12827,"credits":12828,"NavigationType":12829,"SyncNext":12830,"ĠSetPixelIndex":12831,"xsltGenericDebug":12832,"Ġ!!(":12833,"Ġpmu":12834,"Ġgenerated":12835,"Ġgcry":12836,"Watcher":12837,"POWER":12838,"ĠApply":12839,"EnoughArguments":12840,"Ġcputime":12841,"SyncNextImageInList":12842,"61":12843,"Xcursor":12844,"half":12845,"spte":12846,"Ġed":12847,"Ġcctx":12848,"adjoin":12849,"Ġbdrv":12850,"ĠSpec":12851,"GetState":12852,"Ġhi":12853,"ĠPos":12854,"msghdr":12855,"Ġskcipher":12856,"ĠUP":12857,",\"\\":12858,"ĠxmlNew":12859,"services":12860,"VALUES":12861,"Ġconfigured":12862,"rights":12863,"altsetting":12864,"vpx":12865,"ĠAPIC":12866,"ĠVIRGL":12867,"CSSValue":12868,"Ġfetcher":12869,"ExtraData":12870,"ĠCloneString":12871,"Dot":12872,"Distance":12873,"nskb":12874,"theme":12875,"uart":12876,"receiver":12877,"Ġprior":12878,"aspect":12879,"INF":12880,"GetBoolean":12881,"Ġstroke":12882,"ĠImp":12883,"Expected":12884,"beat":12885,"ecdh":12886,"FileResource":12887,"GLong":12888,"FORWARD":12889,"ĠAVMEDIA":12890,"findInt":12891,"vidioc":12892,"Validity":12893,"Ġrole":12894,"Ġtests":12895,"DidFinish":12896,"Recording":12897,"ĠALOGD":12898,"negative":12899,"Ġcreating":12900,"Couldn":12901,"Ġsrpt":12902,"ĠPassword":12903,"WHITE":12904,"AVAILABLE":12905,"Predictor":12906,"ĠBIGNUM":12907,"IPermission":12908,".\"));":12909,"Running":12910,"Ranges":12911,"UA":12912,"eProfile":12913,"lha":12914,"npages":12915,"inherit":12916,"exchange":12917,"trr":12918,"errstr":12919,"errmsg":12920,"GetView":12921,"database":12922,"ĠAES":12923,"Ġretrans":12924,"ĠHEAD":12925,"EventTarget":12926,"Clients":12927,"ROAD":12928,"ĠThese":12929,"finite":12930,"handling":12931,"ADDING":12932,"Ġsuccessful":12933,"Primary":12934,"Ġcorrectly":12935,"Ġ`%":12936,"ExecuteScript":12937,"Ġgnutls":12938,"84":12939,"Guchar":12940,"eLevel":12941,"stt":12942,"attempt":12943,"cts":12944,"Ġwchar":12945,"ĠCancel":12946,"ĠGetContentClient":12947,"Ġcompare":12948,"\\\":":12949,"ĠSCSI":12950,"SubType":12951,"Submit":12952,"ĠAddress":12953,"resplen":12954,"EGAL":12955,"ĠChromeContentBrowserClient":12956,"supports":12957,"ABORTED":12958,"PRIORITY":12959,"ĠVPX":12960,"ecpointformatlist":12961,"quivalent":12962,"Cleanup":12963,"Game":12964,"IENT":12965,"QCOM":12966,"avio":12967,"agate":12968,"Ġprc":12969,"Ġovs":12970,"Ġdct":12971,"Ġhstate":12972,"ĠASS":12973,"Ġud":12974,"Ġ23":12975,"Ġexceed":12976,"ĠVAR":12977,"Ġ36":12978,"updates":12979,"Ġgroups":12980,"SHARE":12981,"Ġmarked":12982,"jsValue":12983,"HistoryItem":12984,"ĠShared":12985,"BackendHost":12986,"ĠPrepare":12987,"Account":12988,"ĠNOTIMPLEMENTED":12989,"egrity":12990,"ROADCAST":12991,"AST":12992,"Big":12993,"GLA":12994,"MV":12995,"grow":12996,"iinfo":12997,"panel":12998,"tml":12999,"inHeader":13000,"Ġwpc":13001,"thdr":13002,"thrott":13003,"Ġgfs":13004,"Ġtos":13005,"Ġlatency":13006,"Ġrfc":13007,"ĠDPRINTF":13008,"Ġleading":13009,"Ġorg":13010,"00000":13011,"caller":13012,"BitStream":13013,"Ġprimitive":13014,"Ġgenl":13015,"life":13016,"Ġmboxlist":13017,"ĠDWC":13018,"InDOMTree":13019,"53":13020,"obuf":13021,"Ġta":13022,"Ġsax":13023,"inger":13024,"ĠNext":13025,"andatory":13026,"Ġincorrect":13027,"hour":13028,"memmove":13029,"portDefn":13030,"ecrypt":13031,"ĠInst":13032,"MOUSE":13033,"dpx":13034,"Ġdevtools":13035,"Destination":13036,"TreeData":13037,"Scrolling":13038,"Floats":13039,"vpn":13040,"others":13041,"Ġindicate":13042,"analy":13043,"ColormapIndex":13044,"AMA":13045,"Preference":13046,"cma":13047,"camera":13048,"erral":13049,"Instrument":13050,"Ġindices":13051,"Ġrm":13052,"ĠPTRACE":13053,"imem":13054,"Ġthus":13055,"Ġestrndup":13056,"ĠWork":13057,"allocator":13058,"nodeset":13059,"blt":13060,"ObjectPtr":13061,"FORE":13062,"ICAL":13063,"summed":13064,"Checksum":13065,"glBind":13066,"Ġlinesize":13067,"package":13068,"Ġprofiles":13069,"VARI":13070,"Ġprotect":13071,"ĠIntPoint":13072,"Ġhints":13073,"ĠTransform":13074,"Specifics":13075,"DWORD":13076,"Mis":13077,"ccp":13078,"dash":13079,"lft":13080,"unwritten":13081,"otentially":13082,"acked":13083,"ĠAnd":13084,"Ġxid":13085,"ĠWHERE":13086,"vmet":13087,"WebPage":13088,"PageTransition":13089,"ILITY":13090,"EntryBox":13091,"ServiceFactory":13092,"Symbol":13093,"Integr":13094,"Ġsecure":13095,"IfNecessary":13096,"egotiation":13097,"watcher":13098,"THECONTEXT":13099,"81":13100,"BMP":13101,"Clean":13102,"Html":13103,"IPE":13104,"cale":13105,"dq":13106,"nFlags":13107,"Ġnexus":13108,"ENCODE":13109,"Ġlang":13110,"Ġrsa":13111,"Contig":13112,"keyblock":13113,"IsActive":13114,"Separator":13115,"QuantumScale":13116,"ĠxmlParser":13117,"ographer":13118,"cceed":13119,"stopped":13120,"pkinit":13121,"vqs":13122,"Entities":13123,"activityLog":13124,"Ġhello":13125,"timers":13126,"orbell":13127,"ESP":13128,"Folder":13129,"LARGE":13130,"kOutOf":13131,"pSrc":13132,"anza":13133,"Ġifp":13134,"Ġbn":13135,"Ġwin":13136,"Recip":13137,"toString":13138,"cpio":13139,"ĠFont":13140,"artbeat":13141,"ibution":13142,"clc":13143,"Units":13144,"Listen":13145,"Requested":13146,"Textures":13147,"arest":13148,"VIR":13149,"buffered":13150,"aptive":13151,"mods":13152,"TIMES":13153,"ĠFrameMsg":13154,"ĠCURLE":13155,"Traversal":13156,"Ġcapabilities":13157,"Alias":13158,"Ġctm":13159,"Pixmap":13160,"NaCl":13161,"WS":13162,"nFrame":13163,"pgrp":13164,"rto":13165,"wt":13166,"Ġtbl":13167,"Ġpseudo":13168,"uninit":13169,")){":13170,"Ġsizes":13171,"Ġendian":13172,"Ġupload":13173,"InvalidArgument":13174,"ĠStorage":13175,"ĠTIFFError":13176,"SwitchValue":13177,"merged":13178,"CmdData":13179,"Insufficient":13180,"PreferredSize":13181,"Hex":13182,"Linux":13183,"Measure":13184,"OV":13185,"bank":13186,"osp":13187,"xchg":13188,"etic":13189,"Ġtiming":13190,"Ġbi":13191,"lending":13192,"abling":13193,"Ġaut":13194,"Ġinc":13195,"ryp":13196,"Ġhard":13197,"ĠIRC":13198,"ITS":13199,"Coding":13200,"MLX":13201,"Ġassign":13202,"ColorPtr":13203,"Ġcla":13204,"wqe":13205,"HANDLED":13206,"GetNextToken":13207,"ablished":13208,"ĠSYN":13209,"Dist":13210,"GMAC":13211,"hnd":13212,"tsize":13213,"Ġ*));":13214,"desired":13215,"Ġcpl":13216,"Ġifa":13217,"ĠNative":13218,"Ġrend":13219,"Ġam":13220,"GetController":13221,"Ġincoming":13222,"ATT":13223,"ĠMAP":13224,"ĠACPI":13225,"outHeader":13226,"ĠGr":13227,"__)":13228,"TRAP":13229,"Challenge":13230,"EXTRA":13231,"CONTAINER":13232,"Ġalert":13233,"ĠInline":13234,"workqueue":13235,"blkif":13236,"flac":13237,"Updates":13238,"vectors":13239,"VideoDecode":13240,"pairs":13241,"ĠLayoutRect":13242,"Ġsubject":13243,"methx":13244,"ĠServiceWorker":13245,"%.":13246,"SEN":13247,"\\\",":13248,"bundle":13249,"lcat":13250,"nP":13251,"slen":13252,"slow":13253,"tfs":13254,"ansient":13255,"Ġsanity":13256,"Ġnc":13257,"chans":13258,"cong":13259,"**)&":13260,"Ġ'!":13261,"PRIO":13262,"FIRM":13263,"Ġaspath":13264,"Ġregistered":13265,"small":13266,"UserData":13267,"Ġinterrupts":13268,"Credentials":13269,"Ġabsolute":13270,"ĠCacheView":13271,"QUIET":13272,"IoStatus":13273,"Omnibox":13274,"PADDING":13275,"evice":13276,"fabs":13277,"hh":13278,"lcd":13279,"mData":13280,"incr":13281,"itCard":13282,"ana":13283,"une":13284,"Ġiph":13285,"Ġreject":13286,"drain":13287,"cpath":13288,"ĠtoRender":13289,"readdir":13290,"quote":13291,"Ġ204":13292,"FFIC":13293,"IPv":13294,"CAPE":13295,"DIM":13296,"FromWebContents":13297,"ĠRenderBlock":13298,"hasTagName":13299,"LocalizedString":13300,"ĠTestObj":13301,"Ġwants":13302,"Ġconverted":13303,"UNICAST":13304,"Ġholding":13305,"ĠCLONE":13306,"HYs":13307,"ĠBYTE":13308,"SerializedScriptValue":13309,"kOutOfBounds":13310,"87":13311,"Master":13312,"dont":13313,"flex":13314,"hFile":13315,"ln":13316,"ĠUNKNOWN":13317,"recover":13318,"Ġmix":13319,"Ġ\"*":13320,"STA":13321,"ĠMin":13322,"iput":13323,"numeric":13324,"UNPACK":13325,"PROB":13326,"FIER":13327,"ĠOff":13328,"clientdata":13329,"OnMessageReceived":13330,"Ġsid":13331,"recvmsg":13332,"ĠTrue":13333,"USTOM":13334,"Ġaccum":13335,"CORRUP":13336,"47":13337,"52":13338,"ACC":13339,"HRM":13340,"Tick":13341,"Take":13342,"UUID":13343,"ZSTD":13344,"pI":13345,"sOut":13346,"ven":13347,"intro":13348,"olkey":13349,"Ġhci":13350,"Ġrl":13351,"ĠXGMAC":13352,"VERTI":13353,"NEG":13354,"offload":13355,"IFD":13356,"firstChild":13357,"MISSION":13358,"FEAT":13359,"DrawInfo":13360,"ILLEGAL":13361,"EncodeImageHandler":13362,"nodesetval":13363,"09":13364,"Est":13365,"Nexus":13366,"YR":13367,"khz":13368,"rchr":13369,"tmpl":13370,"zisofs":13371,"Ġfew":13372,"Ġomp":13373,"ĠSP":13374,"Ġhp":13375,"ĠCode":13376,"ĠFlags":13377,"ĠEIN":13378,"MAIL":13379,"ĠBe":13380,"Ġjump":13381,"oked":13382,"APLOG":13383,"ĠSetting":13384,"Parsed":13385,"FormatContext":13386,"Ġsil":13387,"sects":13388,"JSONReply":13389,"compositing":13390,"Ġrealm":13391,"ĠLIBCURL":13392,"Relative":13393,"GetLastCommitted":13394,"SHADER":13395,"ĠcssValuePool":13396,"Duplicate":13397,"ĠPNGLong":13398,"dv":13399,"kctl":13400,"kuid":13401,"lazy":13402,"tfile":13403,"tcd":13404,"eration":13405,"Ġsol":13406,"Ġndo":13407,"Ġ\"\\\"":13408,"oll":13409,"esp":13410,"Ġreload":13411,"GetWidget":13412,"Ġviff":13413,"ĠkNot":13414,"Ġkern":13415,"ForTarget":13416,"ommu":13417,"blings":13418,"pthread":13419,"COMMENT":13420,"ECDH":13421,"polation":13422,"sltDate":13423,"ĠFileSystem":13424,"BinaryException":13425,"Ġoperations":13426,"ĠNotificationService":13427,"Swapped":13428,"silon":13429,"+=(":13430,"/\",":13431,"Neg":13432,"]++;":13433,"ele":13434,"Ġslow":13435,"mpolicy":13436,"ashes":13437,"ilt":13438,"igori":13439,"Ġregno":13440,"Ġconstant":13441,"ĠMT":13442,"ickness":13443,"ĠECC":13444,"Ġcoord":13445,"Ġexponent":13446,"ViewSource":13447,"ĠGetImage":13448,"OnIO":13449,"SURE":13450,"SUME":13451,"STRIP":13452,"CCtx":13453,"Ġcomputed":13454,"ĠxmlGenericError":13455,"sendmsg":13456,"Ġclazz":13457,"Ġplgctx":13458,"Ġlinear":13459,"smtp":13460,"Ġvalidated":13461,"drawable":13462,"ttps":13463,"Minimum":13464,"ĠRenderViewHost":13465,"cancelled":13466,"CREAT":13467,"OWNER":13468,"follow":13469,"strtoul":13470,"synchronize":13471,"ĠAvailable":13472,"Alert":13473,"FN":13474,"dur":13475,"nx":13476,"sup":13477,"rex":13478,"incognito":13479,"Ġcinfo":13480,"Ġcleared":13481,"stricmp":13482,"Ġscore":13483,"Ġdr":13484,"odev":13485,"ĠSB":13486,"Ġaio":13487,"ĠClip":13488,"doi":13489,"doff":13490,"signin":13491,"Ġrval":13492,"ĠIRQ":13493,"Ġkv":13494,"Encrypted":13495,"IsUndefined":13496,"ildcard":13497,"Separate":13498,"Ġunsupported":13499,"legated":13500,"blks":13501,"Ġports":13502,"NavigationParams":13503,"Ġsiz":13504,"associated":13505,"FormElement":13506,"padded":13507,"APPLY":13508,"YSQL":13509,"ĠIOCTL":13510,"grees":13511,"INSTANCE":13512,"SASL":13513,"ERESTART":13514,"EPT":13515,"TSC":13516,"kiocb":13517,"ohci":13518,"pick":13519,"retries":13520,"Ġpcap":13521,"chat":13522,"tracer":13523,"Ġreturning":13524,"ĠNEW":13525,"station":13526,"Ġhu":13527,"reading":13528,"prim":13529,"Ġresume":13530,"EXPORT":13531,"ĠGetDocument":13532,"ĠWebView":13533,"TextTrack":13534,"Ġcounters":13535,"Ġopacity":13536,"Ġdisposition":13537,"HeaderField":13538,"ĠStringInfo":13539,"PLTE":13540,"ACTIV":13541,"compatible":13542,"ĠInputMethod":13543,"SplObjectStorage":13544,"MarginBefore":13545,"AMPLE":13546,"methy":13547,"ĠVersion":13548,"Ġearlier":13549,"ĠOutput":13550,"Ġerrout":13551,"ĠOmniboxView":13552,"ADAPTER":13553,"EFER":13554,"Gap":13555,"LNK":13556,"sname":13557,"zv":13558,"Ġccc":13559,"imiter":13560,"Inch":13561,"vips":13562,"Remaining":13563,"ĠgTrue":13564,"too":13565,"outfile":13566,"CTR":13567,"ĠWavpack":13568,"Ġtrap":13569,"regulator":13570,"StringPrintf":13571,"ĠLIN":13572,"ĠLIBU":13573,"Ġcompound":13574,"authctxt":13575,"Ġfunctions":13576,"Sys":13577,"ĠCHECKSUM":13578,"Ġexecute":13579,"ĠTestObjectV":13580,"Ġwrites":13581,"Ġbeta":13582,"ĠNPERR":13583,"Ġucma":13584,"Exists":13585,"ĠLIBUSB":13586,"CUSTOM":13587,"DW":13588,"crm":13589,"fptr":13590,"ĠER":13591,"uctxt":13592,"GetSecurityOrigin":13593,"ALK":13594,"renew":13595,"Stub":13596,"ITCH":13597,"Errors":13598,"NOFS":13599,"blank":13600,"ĠWebRuntimeFeatures":13601,"ĠThrowFileException":13602,"Boundary":13603,"xdrs":13604,"functions":13605,"ĠCount":13606,"SecurityPolicyImpl":13607,"ReferrerPolicy":13608,"Google":13609,"UnsignedLong":13610,"83":13611,"BLA":13612,"JNG":13613,"Live":13614,"OJPEG":13615,"fun":13616,"mdev":13617,"ĠRETURN":13618,"instr":13619,"stable":13620,"utc":13621,"Ġfrontend":13622,"asure":13623,"icate":13624,"Ġaaa":13625,"Ġino":13626,"***":13627,"spool":13628,"Producer":13629,"ĠVGA":13630,"nodeTab":13631,"BufferType":13632,"Ġleg":13633,"ROUGH":13634,"AddInterface":13635,"ĠRenderLayer":13636,"ChildView":13637,"ooter":13638,"Linear":13639,"DidCommit":13640,"ĠSUB":13641,"Ġrqstp":13642,"voice":13643,"Activation":13644,"ĠAutomationJSONReply":13645,"accessibility":13646,"Cvar":13647,"GG":13648,"KGD":13649,"XIO":13650,"oob":13651,"wide":13652,"itch":13653,"issue":13654,"Ġosp":13655,"Ġohci":13656,"gets":13657,"verity":13658,"Ġchan":13659,"ĠPicture":13660,"ĠAct":13661,"Ġecrypt":13662,"()).":13663,"eventfd":13664,"LAUNCH":13665,"TYPES":13666,"player":13667,"KEYS":13668,"Ġdefinition":13669,"ExceptionMessages":13670,"OrCreate":13671,"Streaming":13672,"BOOK":13673,"ĠstringBuilder":13674,"writable":13675,"creation":13676,"Ġworks":13677,"WebViewHelper":13678,"resolutions":13679,"ĠDiscard":13680,"ĠSearch":13681,"Ġexpression":13682,"Capabilities":13683,"Ġreplacement":13684,"quantize":13685,"ategory":13686,"chooser":13687,"Stylesheets":13688,"lipped":13689,"PUBLIC":13690,"Ġecryptfs":13691,">\");":13692,"Payment":13693,"aud":13694,"cdf":13695,"dropped":13696,"nump":13697,"sans":13698,"Ġcurl":13699,"ansion":13700,"ĠpDst":13701,"Ġbbb":13702,"Ġmutex":13703,"Ġintra":13704,"GetSwitchValue":13705,"ĠTC":13706,"SIL":13707,"Ġbecome":13708,"oken":13709,"ĠxmlNode":13710,"Ġidata":13711,"Shot":13712,"Ġadding":13713,"POSE":13714,"ĠQOMX":13715,"Ġsibling":13716,"clusion":13717,"Ġsockets":13718,"ĠTesting":13719,"expiration":13720,"ĠSkBitmap":13721,"TexParameter":13722,"mgmt":13723,"Ġdigit":13724,"standalone":13725,"Supports":13726,"ARE":13727,"DID":13728,"btree":13729,"cFYI":13730,"pReplyData":13731,"qeth":13732,"uh":13733,"Ġddd":13734,"Ġincrease":13735,"Ġsta":13736,"ofputil":13737,"DELI":13738,"Ġvendor":13739,"ForTest":13740,"Ġkeyboard":13741,"Curve":13742,"Prev":13743,"aintext":13744,"ĠOne":13745,"ĠThrowWriterException":13746,"Ġoverlap":13747,"ĠChannel":13748,"ĠFrameHostMsg":13749,"hasis":13750,"CLAIM":13751,"ĠSyncImage":13752,"ĠQuantumRange":13753,"pValueSize":13754,"Cros":13755,"MENU":13756,"dcmd":13757,"erest":13758,"glob":13759,"ka":13760,"pal":13761,"pel":13762,"slist":13763,"sll":13764,"xcr":13765,"itof":13766,"anout":13767,"ingBox":13768,"imap":13769,"ĠCannot":13770,"Streams":13771,"ĠARG":13772,"pernet":13773,"IDR":13774,"indirect":13775,"Ġouter":13776,"ĠAVIOContext":13777,"credit":13778,"ĠSVG":13779,"SLAVE":13780,"itofx":13781,"GIS":13782,"HAL":13783,"Mul":13784,"Rx":13785,"Usb":13786,"bor":13787,"cstring":13788,"fcc":13789,"kunmap":13790,"Ġcli":13791,"strategy":13792,"infos":13793,"Ġacpi":13794,"GetSize":13795,"Ġhfs":13796,"ĠTSC":13797,"Ġruntime":13798,"ĠGlobal":13799,"ĠkNum":13800,"ĠBLINK":13801,"Ġexample":13802,"cbp":13803,"inputType":13804,"mtab":13805,"Ġ'\\'":13806,"TOUCH":13807,"physical":13808,"UniqueFileResource":13809,"Ġsecret":13810,"Temporary":13811,"Ġelapsed":13812,"General":13813,"TabStripModel":13814,"HUP":13815,"Pa":13816,"Pict":13817,"VOL":13818,"cwnd":13819,"kaddr":13820,"qdio":13821,"rlayer":13822,"uce":13823,"wow":13824,"ĠVALIDATE":13825,"Ġsx":13826,"fold":13827,"liance":13828,"escaped":13829,"Ġast":13830,"ALGO":13831,"ĠMPEG":13832,"ĠGAH":13833,"ĠEvas":13834,"fsblk":13835,"ĠBP":13836,"Logging":13837,"RenderManager":13838,"HTMLElement":13839,"=%\"":13840,"Ġusers":13841,"Plus":13842,"tempts":13843,"TreeHostImpl":13844,"ECDSA":13845,"Spacing":13846,"PostgreSQL":13847,"Blank":13848,"Ġmodulus":13849,"sacked":13850,"ĠLayerTreeHost":13851,"Ġindicates":13852,"ĠDevToolsWindow":13853,"VisibilityState":13854,"NEGOTIATE":13855,"ENTRIES":13856,"marshal":13857,"ĠWEBKIT":13858,":\");":13859,"FATTR":13860,"Paste":13861,"hance":13862,"pkeys":13863,"Ġdtls":13864,"esn":13865,"Ġgstate":13866,"Ġrules":13867,"**/":13868,"ĠMult":13869,"prod":13870,"Ġudev":13871,"ĠkKey":13872,"Exif":13873,"paused":13874,"ĠOption":13875,"writeback":13876,"TimeTo":13877,"ĠExtract":13878,"Ġaddrs":13879,"Ġinterpret":13880,"ScriptState":13881,"renderbuffer":13882,"specified":13883,"NativeHandler":13884,"Added":13885,"NotificationService":13886,"BytesPer":13887,"Ġhwaddr":13888,"Ġ'.')":13889,"Ġfiber":13890,"Ġldap":13891,"ĠMAGIC":13892,"EFLAGS":13893,"Mix":13894,"jh":13895,"jid":13896,"pParse":13897,"qid":13898,"reinterpret":13899,"arison":13900,"Ġtcm":13901,"Ġplist":13902,"Ġ\"=":13903,"GetData":13904,"iper":13905,"perms":13906,"Ġeof":13907,"netdevice":13908,"nextSibling":13909,"ĠGetProcess":13910,"ĠEXIF":13911,"ĠEXPRESSION":13912,"PCLIENT":13913,"sigset":13914,"ĠQETH":13915,"ĉĉĉĉĉĉĉĠĠ":13916,"Ġmaybe":13917,"MSBShort":13918,"impeg":13919,"ĠReadBlobXXX":13920,"UniformLocation":13921,"workarounds":13922,"ĠLDAP":13923,"DRIVER":13924,"RTP":13925,"]];":13926,"dating":13927,"lator":13928,"pskb":13929,"uous":13930,"ĠpSprite":13931,"hemer":13932,"Ġifdef":13933,"Ġsrp":13934,"isHTML":13935,"Ġrem":13936,"named":13937,"ĠMap":13938,"SEx":13939,"outer":13940,"Ġxattr":13941,"IDAT":13942,"URLA":13943,"ĠRuntime":13944,"Ġbehavior":13945,"ĠLink":13946,"lerated":13947,"FromList":13948,"MemoryInfo":13949,"siglock":13950,"ĠConfig":13951,"MIX":13952,"tended":13953,"Editor":13954,"TXt":13955,"FetchContext":13956,"Modified":13957,"Ġresolve":13958,"Ġsignin":13959,"listeners":13960,"trees":13961,"49":13962,"58":13963,"Basic":13964,"Flex":13965,"VGA":13966,"euid":13967,"gain":13968,"hslot":13969,"jbd":13970,"pchg":13971,"tdir":13972,"remap":13973,"InProgress":13974,"lide":13975,"Restart":13976,"ĠCRC":13977,"ĠMM":13978,"LET":13979,"ĠGIT":13980,"ioa":13981,"quad":13982,"ImageFormat":13983,"SIBLE":13984,"EXPI":13985,"antic":13986,"ĠXMP":13987,"WebBluetooth":13988,"FileError":13989,"areData":13990,"PPER":13991,"Intercept":13992,"SCROLL":13993,"CIFS":13994,"Ġsubmit":13995,"hwnd":13996,"Ġoptarg":13997,"AllWorlds":13998,"Debugger":13999,"ĠScreen":14000,"ĠSkColor":14001,"LICATION":14002,"pSMBr":14003,"ablish":14004,"Animations":14005,"Ġattachment":14006,"ĠcastedThis":14007,"Ġroutine":14008,"ĠSafe":14009,"ĠGAHPCLIENT":14010,"500":14011,"800":14012,"dimensions":14013,"graph":14014,"smax":14015,"uched":14016,"wmb":14017,"Ġpptr":14018,"imization":14019,"Ġimplement":14020,"accel":14021,"maValue":14022,"ĠAUDIT":14023,"spd":14024,"ĠRDMA":14025,"Ġstrtol":14026,"PAUSE":14027,"TECT":14028,"UPSD":14029,"Ġvmci":14030,"PREF":14031,"DBL":14032,"truesize":14033,"ParseCommandOption":14034,"sistency":14035,"CodecContext":14036,"1001":14037,"Ġ#%":14038,"ĠAXObject":14039,"Ġnlmsghdr":14040,"ĠCLAMP":14041,"JNI":14042,"NAL":14043,"PN":14044,"YPH":14045,"amount":14046,"dsp":14047,"fps":14048,"iet":14049,"ised":14050,"Ġtc":14051,"Ġtemplate":14052,"Ġsup":14053,"Ġdropped":14054,"getBits":14055,"ĠASIC":14056,"outgoing":14057,"Ġ']":14058,"ĠBind":14059,"newfile":14060,"PRNT":14061,"lying":14062,"sao":14063,"Tracing":14064,"meter":14065,"Metric":14066,"ĠContainer":14067,"STARTED":14068,"ĠINS":14069,"ĠINTR":14070,"Ġextents":14071,"orithms":14072,"sorted":14073,"DENIED":14074,"ĠDetect":14075,"79":14076,"BROADCAST":14077,"Pipeline":14078,"Wide":14079,"Xcli":14080,"hig":14081,"ochrome":14082,"sV":14083,"sol":14084,"vnet":14085,"xsave":14086,"Ġlocale":14087,"orol":14088,"uevent":14089,"thetic":14090,"viation":14091,"dra":14092,"Ġgindex":14093,"Ġgrp":14094,"ORB":14095,"colortype":14096,"Ġrespon":14097,"Ġseparator":14098,"Ġextr":14099,"ĠVNC":14100,"validation":14101,"ListLength":14102,"*/,":14103,"ĠRenderProcessHostImpl":14104,"delalloc":14105,"StatusType":14106,"Ġquit":14107,"execution":14108,"AsString":14109,"Ġreferences":14110,"expire":14111,"Ġtruncate":14112,"arcmsr":14113,"siteSettings":14114,"Accessible":14115,"EXPAND":14116,"Corner":14117,"INTERRUPTIBLE":14118,"ĠImport":14119,"Supp":14120,"VT":14121,"clist":14122,"cupsd":14123,"eval":14124,"gpr":14125,"Ġig":14126,"Ġlikely":14127,"ĠVideo":14128,"Ġsays":14129,"Ġsscanf":14130,"Ġfds":14131,"Ġdra":14132,"lipt":14133,"RECIP":14134,"Ġrepresent":14135,"GetRenderViewHost":14136,"Ġhorizontal":14137,"(\"[":14138,"scb":14139,"lengths":14140,"Stride":14141,"anceled":14142,"netbk":14143,"Ġ80":14144,"VERB":14145,"TextEditCommand":14146,"Ġregular":14147,"ExceptionState":14148,"DOUT":14149,"webPage":14150,"Observers":14151,"ĠRespond":14152,"ĠUnknown":14153,"rvh":14154,"rda":14155,"IBLE":14156,"Ġ%%\"":14157,"Ġ'<')":14158,"ĠLook":14159,"ecryptfs":14160,"ĠEINA":14161,"Slice":14162,"Walk":14163,"bble":14164,"hrd":14165,"mdep":14166,"tRNS":14167,"arcb":14168,"Ġpreferred":14169,"trns":14170,"imated":14171,"GetMainFrame":14172,"Ġstm":14173,"SECTOR":14174,"ĠArray":14175,"Ġ'*":14176,"ĠWarn":14177,"aven":14178,"tained":14179,"FrameOwner":14180,"Ġerrbuf":14181,"Ġuncompressed":14182,"BrowserTest":14183,"DestroyCacheView":14184,"Ġimm":14185,"Ġrefcount":14186,"Ġexecution":14187,"8888":14188,"ĠOFPERR":14189,"DIRECTORY":14190,"Ġexplicitly":14191,"negotiate":14192,"orola":14193,"Em":14194,"Ppapi":14195,"cgrp":14196,"graphics":14197,"nritems":14198,"xA":14199,"require":14200,"separator":14201,"Ġcdf":14202,"unsupported":14203,"strstr":14204,"Ġnorm":14205,"imers":14206,"Ġranges":14207,"Ġdeal":14208,"ĠPATH":14209,"Ġuv":14210,"iob":14211,"SetWindow":14212,"EXIF":14213,"logs":14214,"modifier":14215,"OpenURL":14216,"AUTHENTIC":14217,"STOPPED":14218,"ĠCAST":14219,"TIFFGetFieldDefaulted":14220,"SCRIPTOR":14221,"GetIntegerv":14222,"Ġprompt":14223,"CANCEL":14224,"liptic":14225,"mock":14226,"maybe":14227,"olen":14228,"Ġclosing":14229,"expect":14230,"assigned":14231,"bubble":14232,"getUInt":14233,"ENXIO":14234,"ĠPort":14235,"ĠGN":14236,"Resume":14237,"ĠWebGLA":14238,"ĠInternal":14239,"Ġatof":14240,"ResourceType":14241,"quiet":14242,"Ġheld":14243,"anspose":14244,"LayerInfo":14245,"ĠALPROTO":14246,"deny":14247,"haviour":14248,"ĠNPN":14249,"Ġ65536":14250,"VERTEX":14251,"BROWSER":14252,"instantiate":14253,"!(":14254,"400":14255,"Letter":14256,"iCCP":14257,"mcl":14258,"two":14259,"Ġ*);":14260,"experiment":14261,"elt":14262,"resync":14263,"ĠSign":14264,"ATIME":14265,"Ġrdp":14266,"ĠPref":14267,"Stage":14268,"ĠĠĠĠĠĠĠĠĠĠĠĠĠĠĠĠĠĠĠĠĠĠĠĠĠĠĠĠĠĠĠĠĠĠĠĠĠĠĠĠĠĠĠĠĠĠĠĠĠĠĠĠĠĠĠĠĠĠĠĠĠĠĠĠ":14269,"Ġxen":14270,"Ġtracing":14271,"Ġcolour":14272,"Ġoutlen":14273,"EXCLU":14274,"Ġanimation":14275,"transact":14276,"castedThis":14277,"FromMilliseconds":14278,"InputHandler":14279,"Ġspecify":14280,"Ġfdctrl":14281,"Ġsegments":14282,"QUANT":14283,"ĠSelect":14284,"prime":14285,"444":14286,"WIDGET":14287,"ĠBitmap":14288,"imemory":14289,"DAT":14290,"ECC":14291,"Foreign":14292,"Su":14293,"cRole":14294,"dpi":14295,"pctx":14296,"qf":14297,"rn":14298,"returned":14299,"ĠsRGB":14300,"endp":14301,"Ġwor":14302,"Ġahash":14303,"GetAuthentic":14304,"toc":14305,"Ġliteral":14306,"Ġdecrypt":14307,"ĠMet":14308,"ĠMNT":14309,"outbound":14310,"ĠIPP":14311,"ĠIFLA":14312,"ioBuf":14313,"Too":14314,"registrar":14315,"attrval":14316,"],&":14317,"Ġqmf":14318,"ĠProgram":14319,"IVED":14320,"AGER":14321,"Hello":14322,"Ġpreviously":14323,"Ġcompatibility":14324,"ĠlogicalLeft":14325,"fiber":14326,"authorized":14327,"SHADOW":14328,"UIThread":14329,"FTP":14330,"IHEVCD":14331,"closure":14332,"ĠREQ":14333,"ĠPIN":14334,"ĠPCAP":14335,"Contr":14336,"SSID":14337,"validity":14338,"Compat":14339,"Ġcounts":14340,"127":14341,"qualification":14342,"ĠSetPixelOpacity":14343,"EXECUTE":14344,"ALIGNMENT":14345,"GetImageArtifact":14346,"OVERFLOW":14347,"Ġpfkey":14348,"PROMPT":14349,"Ġrfcomm":14350,")=":14351,"LB":14352,"PanoramiX":14353,"Sent":14354,"aura":14355,"ldisc":14356,"nemon":14357,"rpl":14358,"xpath":14359,"atof":14360,"see":14361,"ceeded":14362,"unsafe":14363,"Ġsuppress":14364,"Inside":14365,"ilar":14366,"acce":14367,"LETED":14368,"mojo":14369,"SetBounds":14370,"Ġexpr":14371,"dirname":14372,"\\\"\\":14373,"Possible":14374,"glue":14375,"TaskType":14376,"DISCONNECT":14377,"AVFormatContext":14378,"Ġbytebuff":14379,"ParseGeometry":14380,"expn":14381,"ĠEXTENSION":14382,"SYSENTER":14383,"CRYPTION":14384,"Saver":14385,"Delayed":14386,"Ġsmartlist":14387,"ntohs":14388,"eolocation":14389,"DGRAM":14390,"210":14391,"DPRINTF":14392,"Machine":14393,"cal":14394,"gm":14395,"kNetwork":14396,"wm":14397,"Ġ\"#":14398,"ĠNormal":14399,"Ġdynamic":14400,"andalone":14401,"RECOVER":14402,"doorbell":14403,"accessed":14404,"DESCRIPTOR":14405,"ANAL":14406,"ibus":14407,"compparms":14408,"Ġwhy":14409,"optname":14410,"essence":14411,"Ġqcow":14412,"Ġlogger":14413,"changeData":14414,"Ġnonce":14415,"PGconn":14416,"ĠgdFixed":14417,"operand":14418,"ReadBlobMSBLong":14419,"PaintProperty":14420,"PushShortPixel":14421,"ASCIIToUTF":14422,"Ġsmaller":14423,"normalize":14424,"rfcomm":14425,"purge":14426,"SExchangeData":14427,"\")));":14428,"Fmt":14429,"carrier":14430,"pData":14431,"retch":14432,"Ġbroken":14433,"ffinity":14434,"oton":14435,"Ġovl":14436,"Ġdont":14437,"REDIRECT":14438,"Ġchip":14439,"Ġhs":14440,"ĠCOL":14441,"ĠFrom":14442,"(\"_":14443,"ioarcb":14444,"FrameView":14445,"herited":14446,"DIALOG":14447,"Interrupt":14448,"Ġperm":14449,"denom":14450,"Ġspaces":14451,"Prefetch":14452,"bmval":14453,"ĠSecurityOrigin":14454,"ĠWebPluginDelegate":14455,"Precision":14456,"hemeral":14457,"ORBIS":14458,">\"":14459,"Den":14460,"GIT":14461,"GUID":14462,"HMAC":14463,"Sum":14464,"lut":14465,"preserve":14466,"pHYs":14467,"ucm":14468,"Ġash":14469,"Ġillegal":14470,"Ġpanel":14471,"Ġflip":14472,"ims":14473,"rena":14474,"acent":14475,"ĠGdk":14476,"SIM":14477,"commended":14478,"PAY":14479,"Ġmoved":14480,"FOURCC":14481,"bssid":14482,"TabHelper":14483,"Ġsim":14484,"ĠDebug":14485,"slotid":14486,"Ġparts":14487,"PATHLEN":14488,"catc":14489,"rotli":14490,"ĠScriptState":14491,"Ġphysical":14492,"ĠMKTAG":14493,"Ġlarger":14494,"ĠAuthentic":14495,"ancellable":14496,"TIFFReadDirEntryErrOk":14497,"ĠWebGLAny":14498,"&(":14499,"116":14500,"JAS":14501,"Oid":14502,"TOM":14503,"ively":14504,"vcc":14505,"sequ":14506,"Ġsbuf":14507,"exponent":14508,"ptodate":14509,"isdigit":14510,"charge":14511,"Inner":14512,"Ġgraphic":14513,"ORM":14514,"ational":14515,"ĠTIO":14516,"Ġstdout":14517,"validated":14518,"Ġencrypt":14519,"ReadBinaryBlobMode":14520,"Ġtypedef":14521,"Dispose":14522,"Ġhandles":14523,"brk":14524,"CLONE":14525,"Fields":14526,"bias":14527,"Ġsampler":14528,"SkColor":14529,"Ġcapability":14530,"INITIAL":14531,",\"%.":14532,"Anonymous":14533,"Archive":14534,"STANDARD":14535,"CLEAN":14536,"Favicon":14537,"MIG":14538,"NAV":14539,"Passed":14540,"XFER":14541,"hva":14542,"xps":14543,"stanza":14544,"Ġsvg":14545,"Ġndp":14546,"Ġmot":14547,"consumer":14548,"INHER":14549,"builtin":14550,"RELOAD":14551,"Ġgb":14552,"Ġldata":14553,"),(":14554,"ARCONFIG":14555,"ĠkXMP":14556,"ĠRLE":14557,"vmStatus":14558,"Ġseparate":14559,"Ġexport":14560,"ForURL":14561,"Ident":14562,"ogg":14563,"ĠIDAT":14564,"LayoutManager":14565,"credentials":14566,"ErrMemory":14567,"ĠResourceDispatcherHostImpl":14568,"Ġmmu":14569,"TheRecord":14570,"ĠHeap":14571,"WebKitWebView":14572,"Ġconsumed":14573,"ĠLINUX":14574,"37":14575,"46":14576,"ELEM":14577,"Suspend":14578,"cn":14579,"pir":14580,"stk":14581,"Ġ(~":14582,"Ġtalloc":14583,"unset":14584,"ases":14585,"CHR":14586,"ĠGROW":14587,"InterstitialPage":14588,"Ġquot":14589,"CURVE":14590,"Ġlayers":14591,"Ġlocks":14592,"ACCOUNT":14593,"ĠNOTIFY":14594,"ĠALOGW":14595,"FullScreen":14596,"BRID":14597,"COMMON":14598,"CompositorFrame":14599,"uggestions":14600,"ALLOWED":14601,"rlvls":14602,"sOutPortDef":14603,"%%":14604,"62":14605,"Synchronous":14606,"XPtr":14607,"hrow":14608,"kNot":14609,"sEnabled":14610,"tlink":14611,"Ġctb":14612,"etc":14613,"Ġsin":14614,"Ġmer":14615,"Ġdlen":14616,"Ġdpi":14617,"getuint":14618,
[...]
